unsigned char conv_model2_tflite[] = {
  0x20, 0x00, 0x00, 0x00, 0x54, 0x46, 0x4c, 0x33, 0x00, 0x00, 0x00, 0x00,
  0x14, 0x00, 0x20, 0x00, 0x1c, 0x00, 0x18, 0x00, 0x14, 0x00, 0x10, 0x00,
  0x0c, 0x00, 0x00, 0x00, 0x08, 0x00, 0x04, 0x00, 0x14, 0x00, 0x00, 0x00,
  0x1c, 0x00, 0x00, 0x00, 0x88, 0x00, 0x00, 0x00, 0xe0, 0x00, 0x00, 0x00,
  0x10, 0x20, 0x00, 0x00, 0x20, 0x20, 0x00, 0x00, 0x70, 0x2a, 0x00, 0x00,
  0x03, 0x00, 0x00, 0x00, 0x01, 0x00, 0x00, 0x00, 0x04, 0x00, 0x00, 0x00,
  0x7a, 0xde, 0xff, 0xff, 0x0c, 0x00, 0x00, 0x00, 0x1c, 0x00, 0x00, 0x00,
  0x38, 0x00, 0x00, 0x00, 0x0f, 0x00, 0x00, 0x00, 0x73, 0x65, 0x72, 0x76,
  0x69, 0x6e, 0x67, 0x5f, 0x64, 0x65, 0x66, 0x61, 0x75, 0x6c, 0x74, 0x00,
  0x01, 0x00, 0x00, 0x00, 0x04, 0x00, 0x00, 0x00, 0x94, 0xff, 0xff, 0xff,
  0x12, 0x00, 0x00, 0x00, 0x04, 0x00, 0x00, 0x00, 0x07, 0x00, 0x00, 0x00,
  0x64, 0x65, 0x6e, 0x73, 0x65, 0x5f, 0x31, 0x00, 0x01, 0x00, 0x00, 0x00,
  0x04, 0x00, 0x00, 0x00, 0x36, 0xe1, 0xff, 0xff, 0x04, 0x00, 0x00, 0x00,
  0x0c, 0x00, 0x00, 0x00, 0x63, 0x6f, 0x6e, 0x76, 0x31, 0x64, 0x5f, 0x69,
  0x6e, 0x70, 0x75, 0x74, 0x00, 0x00, 0x00, 0x00, 0x02, 0x00, 0x00, 0x00,
  0x34, 0x00, 0x00, 0x00, 0x04, 0x00, 0x00, 0x00, 0xdc, 0xff, 0xff, 0xff,
  0x15, 0x00, 0x00, 0x00, 0x04, 0x00, 0x00, 0x00, 0x13, 0x00, 0x00, 0x00,
  0x43, 0x4f, 0x4e, 0x56, 0x45, 0x52, 0x53, 0x49, 0x4f, 0x4e, 0x5f, 0x4d,
  0x45, 0x54, 0x41, 0x44, 0x41, 0x54, 0x41, 0x00, 0x08, 0x00, 0x0c, 0x00,
  0x08, 0x00, 0x04, 0x00, 0x08, 0x00, 0x00, 0x00, 0x14, 0x00, 0x00, 0x00,
  0x04, 0x00, 0x00, 0x00, 0x13, 0x00, 0x00, 0x00, 0x6d, 0x69, 0x6e, 0x5f,
  0x72, 0x75, 0x6e, 0x74, 0x69, 0x6d, 0x65, 0x5f, 0x76, 0x65, 0x72, 0x73,
  0x69, 0x6f, 0x6e, 0x00, 0x16, 0x00, 0x00, 0x00, 0x2c, 0x1f, 0x00, 0x00,
  0x24, 0x1f, 0x00, 0x00, 0x4c, 0x1e, 0x00, 0x00, 0x30, 0x1e, 0x00, 0x00,
  0x20, 0x1d, 0x00, 0x00, 0x0c, 0x1d, 0x00, 0x00, 0xf4, 0x1c, 0x00, 0x00,
  0xe0, 0x1c, 0x00, 0x00, 0x08, 0x1c, 0x00, 0x00, 0xf8, 0x19, 0x00, 0x00,
  0xdc, 0x19, 0x00, 0x00, 0xcc, 0x00, 0x00, 0x00, 0xc4, 0x00, 0x00, 0x00,
  0xbc, 0x00, 0x00, 0x00, 0xb4, 0x00, 0x00, 0x00, 0xac, 0x00, 0x00, 0x00,
  0xa4, 0x00, 0x00, 0x00, 0x9c, 0x00, 0x00, 0x00, 0x94, 0x00, 0x00, 0x00,
  0x8c, 0x00, 0x00, 0x00, 0x6c, 0x00, 0x00, 0x00, 0x04, 0x00, 0x00, 0x00,
  0x0a, 0xe2, 0xff, 0xff, 0x04, 0x00, 0x00, 0x00, 0x58, 0x00, 0x00, 0x00,
  0x0c, 0x00, 0x00, 0x00, 0x08, 0x00, 0x0e, 0x00, 0x08, 0x00, 0x04, 0x00,
  0x08, 0x00, 0x00, 0x00, 0x10, 0x00, 0x00, 0x00, 0x28, 0x00, 0x00, 0x00,
  0x00, 0x00, 0x06, 0x00, 0x08, 0x00, 0x04, 0x00, 0x06, 0x00, 0x00, 0x00,
  0x04, 0x00, 0x00, 0x00, 0x01, 0x00, 0x00, 0x00, 0xea, 0x03, 0x00, 0x00,
  0x00, 0x00, 0x0a, 0x00, 0x10, 0x00, 0x0c, 0x00, 0x08, 0x00, 0x04, 0x00,
  0x0a, 0x00, 0x00, 0x00, 0x02, 0x00, 0x00, 0x00, 0x02, 0x00, 0x00, 0x00,
  0x04, 0x00, 0x00, 0x00, 0x05, 0x00, 0x00, 0x00, 0x32, 0x2e, 0x39, 0x2e,
  0x32, 0x00, 0x00, 0x00, 0x6e, 0xe2, 0xff, 0xff, 0x04, 0x00, 0x00, 0x00,
  0x10, 0x00, 0x00, 0x00, 0x32, 0x2e, 0x33, 0x2e, 0x30, 0x00, 0x00, 0x00,
  0x00, 0x00, 0x00, 0x00, 0x00, 0x00, 0x00, 0x00, 0x7c, 0xd7, 0xff, 0xff,
  0x80, 0xd7, 0xff, 0xff, 0x84, 0xd7, 0xff, 0xff, 0x88, 0xd7, 0xff, 0xff,
  0x8c, 0xd7, 0xff, 0xff, 0x90, 0xd7, 0xff, 0xff, 0x94, 0xd7, 0xff, 0xff,
  0x98, 0xd7, 0xff, 0xff, 0xaa, 0xe2, 0xff, 0xff, 0x04, 0x00, 0x00, 0x00,
  0x00, 0x19, 0x00, 0x00, 0xfa, 0xcd, 0xde, 0xe8, 0x36, 0x27, 0xca, 0xd1,
  0xfc, 0xf2, 0xfd, 0x33, 0x17, 0x0a, 0xe5, 0x20, 0x3d, 0xee, 0x0d, 0x35,
  0x26, 0xde, 0x11, 0x04, 0xd2, 0xd4, 0x24, 0x11, 0xe1, 0x26, 0x33, 0x28,
  0xda, 0xde, 0x04, 0x29, 0x17, 0xfd, 0x0a, 0x25, 0x06, 0xf5, 0xf0, 0x1f,
  0x1e, 0xe4, 0x03, 0x1f, 0x04, 0xec, 0x05, 0x34, 0xf5, 0x04, 0x24, 0xd5,
  0x12, 0xe7, 0xf8, 0xf4, 0x1a, 0x37, 0xfc, 0xfe, 0xd4, 0xde, 0x0a, 0xe5,
  0xd8, 0xeb, 0xfd, 0x0d, 0x1c, 0x1c, 0xce, 0xc6, 0xcd, 0xc5, 0xd9, 0xc7,
  0xbc, 0x27, 0x03, 0xfa, 0x0d, 0x05, 0x19, 0xf1, 0xd0, 0x08, 0xd3, 0xf0,
  0xf0, 0xfc, 0xef, 0x11, 0x11, 0x19, 0x02, 0x37, 0x59, 0x13, 0xf4, 0x21,
  0xdc, 0x32, 0xdc, 0xcb, 0x2d, 0xec, 0xfc, 0x32, 0x18, 0xf5, 0xcd, 0x39,
  0x09, 0x14, 0x47, 0xf5, 0x09, 0x09, 0xbb, 0x12, 0x1b, 0x21, 0x37, 0x1a,
  0xe5, 0x0f, 0x17, 0x09, 0xed, 0xcc, 0xff, 0x39, 0x2f, 0xe1, 0x16, 0xef,
  0xe2, 0x1d, 0x11, 0x28, 0x10, 0x34, 0x2c, 0x20, 0xdc, 0x21, 0xe3, 0x23,
  0xf0, 0x01, 0x10, 0xe2, 0x22, 0xe0, 0x27, 0xe0, 0xfd, 0x14, 0xde, 0xdb,
  0x0e, 0x1e, 0x30, 0x16, 0xde, 0x0e, 0x2b, 0x3b, 0x2b, 0x20, 0xed, 0xe6,
  0xf9, 0x2b, 0x1b, 0x15, 0x11, 0x04, 0xe4, 0xcf, 0x04, 0x1b, 0x02, 0x1e,
  0x3b, 0xde, 0xd2, 0x17, 0xeb, 0x06, 0x23, 0x1f, 0x15, 0xfb, 0xe0, 0x12,
  0xe4, 0x3b, 0xc6, 0x17, 0x00, 0x40, 0xd1, 0x06, 0x61, 0x08, 0xd6, 0x22,
  0x1e, 0xd1, 0x1d, 0xd6, 0x38, 0xdf, 0xf6, 0x17, 0xdd, 0x17, 0xee, 0x06,
  0xeb, 0x10, 0xf5, 0x22, 0x04, 0x27, 0x11, 0xef, 0xbe, 0xdd, 0x0f, 0xd2,
  0x11, 0x27, 0x3a, 0xd9, 0xfd, 0x26, 0x31, 0xdf, 0x10, 0xd1, 0x0c, 0x3f,
  0xcb, 0xe0, 0xe0, 0x31, 0x20, 0x0b, 0xdc, 0xcf, 0x25, 0xcd, 0xce, 0xcf,
  0xfc, 0xe9, 0xcf, 0x1b, 0x18, 0x30, 0xfb, 0x25, 0x0e, 0x16, 0xed, 0xef,
  0x21, 0xf8, 0xd3, 0x15, 0xd9, 0x31, 0x26, 0xdd, 0x1e, 0xca, 0xf0, 0xd3,
  0x21, 0xe0, 0xcf, 0xf5, 0x33, 0x24, 0x18, 0xf6, 0x35, 0x0b, 0xe3, 0x22,
  0xd3, 0x29, 0xcf, 0x02, 0xcd, 0xd3, 0xd8, 0xd7, 0xd9, 0x1b, 0xf0, 0x16,
  0x1c, 0x32, 0xed, 0x2b, 0xf3, 0xda, 0xda, 0x32, 0x1c, 0x2c, 0x04, 0x27,
  0xc4, 0x30, 0x02, 0x1a, 0x23, 0x07, 0xc3, 0x0b, 0x35, 0xe1, 0x2f, 0x2b,
  0x35, 0x06, 0x24, 0xef, 0xe3, 0x0b, 0xea, 0xd1, 0xfe, 0xfb, 0xdc, 0x38,
  0x06, 0x15, 0x13, 0xf2, 0xe9, 0x03, 0x1e, 0x2e, 0xfa, 0xe2, 0x25, 0x02,
  0x27, 0x18, 0xef, 0xe7, 0x1a, 0x35, 0x18, 0x2e, 0x06, 0xec, 0xf8, 0xe2,
  0x0e, 0x11, 0xc9, 0x12, 0xeb, 0xe1, 0x33, 0xc6, 0xf8, 0x16, 0x10, 0x39,
  0xcc, 0x1f, 0xd6, 0xcc, 0xf9, 0x15, 0x2a, 0x15, 0x23, 0x36, 0x34, 0x1e,
  0x31, 0xd8, 0xdd, 0xfa, 0x00, 0xee, 0x36, 0x07, 0x23, 0xf6, 0xe8, 0x0c,
  0x0b, 0xf5, 0xf9, 0x3a, 0xda, 0xd2, 0xe3, 0x3a, 0x00, 0x2c, 0x08, 0x20,
  0x2f, 0x01, 0x13, 0x36, 0xf8, 0xef, 0xcd, 0x2f, 0x01, 0x22, 0x00, 0xe6,
  0xdb, 0xde, 0xea, 0xd5, 0x39, 0x03, 0xef, 0x34, 0xea, 0xe1, 0xd9, 0xcd,
  0x19, 0x10, 0xe3, 0xfb, 0x33, 0x36, 0xe5, 0x2e, 0x28, 0x23, 0xfe, 0xf1,
  0x28, 0x2b, 0x2e, 0xe5, 0xf2, 0xe2, 0xd7, 0x1c, 0x31, 0x09, 0x35, 0xed,
  0x2a, 0xd2, 0x19, 0x35, 0xf8, 0xdc, 0x39, 0x30, 0x27, 0xda, 0xcf, 0xdf,
  0x10, 0xf3, 0xd9, 0x3e, 0x22, 0xca, 0xd6, 0xcd, 0xb9, 0x09, 0x4b, 0x13,
  0xf9, 0x1b, 0xe0, 0xeb, 0xf2, 0xbf, 0x1d, 0x0b, 0xf9, 0x1f, 0x2c, 0x18,
  0xcd, 0xfa, 0x11, 0x12, 0x0d, 0xdd, 0x3e, 0xe2, 0xe7, 0x1a, 0xce, 0x0e,
  0xf1, 0x01, 0x1c, 0xfe, 0xef, 0xc7, 0xe6, 0xec, 0xd8, 0xd1, 0x0a, 0x39,
  0x37, 0xe4, 0xe9, 0x02, 0x33, 0xfa, 0xdb, 0xf7, 0x08, 0xc8, 0x2a, 0xdb,
  0x32, 0xf8, 0x22, 0xd0, 0xd5, 0x04, 0xc8, 0xdd, 0xf9, 0xe9, 0x23, 0xd1,
  0x37, 0x2f, 0x1c, 0xe3, 0x07, 0xd7, 0x10, 0xe7, 0x04, 0xf7, 0xe9, 0xd6,
  0xe0, 0x11, 0xd6, 0xff, 0x1c, 0xdf, 0xed, 0x37, 0x13, 0x12, 0xe8, 0xe1,
  0xf1, 0xcb, 0x15, 0x12, 0xcd, 0x18, 0xdc, 0x1b, 0xfc, 0x08, 0x08, 0xe1,
  0xcf, 0x34, 0xda, 0x36, 0xcc, 0xd8, 0xe0, 0x03, 0x09, 0x30, 0xce, 0xea,
  0x0e, 0xd4, 0xcc, 0x1c, 0x0a, 0x2f, 0x38, 0x2b, 0xf1, 0x10, 0x1e, 0x36,
  0x1e, 0xce, 0xe3, 0xf5, 0x18, 0x01, 0xd8, 0x22, 0xe7, 0x13, 0x01, 0x2d,
  0xe6, 0xd0, 0xf4, 0x1f, 0xdd, 0xdb, 0x36, 0xd2, 0xd4, 0x2c, 0xff, 0x1c,
  0xea, 0xd7, 0xf9, 0x29, 0x0a, 0xe9, 0xf5, 0x17, 0xe6, 0x0b, 0x0d, 0x13,
  0x36, 0xda, 0x1d, 0xe6, 0x2d, 0xdb, 0xf2, 0x05, 0xf3, 0xee, 0xff, 0x2e,
  0xca, 0x12, 0x15, 0x2d, 0x2f, 0xef, 0xd4, 0xf7, 0x22, 0xed, 0xdf, 0x02,
  0x01, 0x42, 0x30, 0xec, 0x19, 0x09, 0x10, 0xdd, 0xeb, 0x0d, 0xd2, 0xd5,
  0x19, 0x33, 0x15, 0x0c, 0x27, 0xea, 0x11, 0xfb, 0xe8, 0xe5, 0xe4, 0xf4,
  0x28, 0xeb, 0x3c, 0x34, 0x2e, 0x33, 0x20, 0x28, 0xcd, 0xd4, 0x1c, 0xee,
  0x0e, 0x06, 0xe4, 0xdb, 0x38, 0x25, 0xeb, 0x1e, 0x35, 0xe3, 0xc7, 0x2e,
  0xe9, 0x44, 0x1b, 0x34, 0x2f, 0xe8, 0xde, 0x02, 0x20, 0x2e, 0x20, 0x00,
  0xf5, 0xd1, 0xcf, 0x12, 0x34, 0x23, 0x0a, 0xed, 0xda, 0xf1, 0x33, 0x0b,
  0xf4, 0x30, 0xe1, 0xf2, 0x13, 0x0b, 0x31, 0x3b, 0x1e, 0x2d, 0x03, 0x26,
  0x2d, 0xf9, 0x59, 0xe5, 0xe5, 0x16, 0x1a, 0x39, 0x02, 0x0a, 0x3b, 0x1c,
  0x0e, 0x31, 0xd1, 0x20, 0xe4, 0xdb, 0x17, 0xe2, 0xde, 0x20, 0xd2, 0xf8,
  0xcf, 0x10, 0x2a, 0xec, 0xdc, 0x0c, 0xf0, 0xec, 0xde, 0x06, 0xf6, 0x12,
  0x1f, 0xfe, 0xe7, 0x23, 0x24, 0xd3, 0x07, 0x2e, 0x12, 0xc9, 0xf5, 0x2e,
  0x3a, 0xdf, 0xef, 0x2a, 0x2c, 0xe5, 0x15, 0xfc, 0x09, 0x01, 0x3d, 0x11,
  0x02, 0x0f, 0x0e, 0x25, 0x04, 0x2d, 0x1c, 0x17, 0x21, 0x3b, 0x36, 0xec,
  0x0a, 0xe1, 0xd3, 0xfc, 0xef, 0x39, 0xdc, 0xd0, 0x25, 0x02, 0x47, 0xcd,
  0xd8, 0xc7, 0x01, 0x06, 0x32, 0x05, 0x32, 0xd6, 0x26, 0x19, 0xfc, 0xed,
  0x02, 0x10, 0x2c, 0xd2, 0x20, 0xd0, 0x19, 0x1c, 0x1d, 0x27, 0xd9, 0xfd,
  0x2d, 0x0b, 0x24, 0xf3, 0x11, 0x48, 0xaf, 0x28, 0xf7, 0xe0, 0x2b, 0x24,
  0x12, 0x29, 0x17, 0xec, 0xca, 0xdf, 0x1d, 0x3f, 0xeb, 0x20, 0xe0, 0x29,
  0x32, 0x1a, 0x32, 0x0e, 0x0f, 0xef, 0x15, 0xd2, 0xef, 0x15, 0x37, 0x37,
  0x02, 0x10, 0x18, 0x20, 0xf7, 0xfb, 0xfa, 0x1d, 0xcf, 0x16, 0xfa, 0x17,
  0xfe, 0x2d, 0x1d, 0xf1, 0x1e, 0x0a, 0xce, 0x11, 0x01, 0x35, 0x2a, 0x10,
  0xcf, 0x1a, 0xe7, 0x1b, 0xf3, 0xf4, 0x1e, 0x02, 0xdd, 0xfb, 0xf7, 0x30,
  0xd8, 0xe4, 0xdf, 0xf2, 0x24, 0x1d, 0x3c, 0x27, 0x27, 0xfc, 0x26, 0xfd,
  0xda, 0x24, 0x27, 0xf0, 0xd7, 0x2c, 0x1c, 0xf7, 0x06, 0xd2, 0x23, 0x08,
  0x01, 0x0b, 0xfc, 0x35, 0x2b, 0x21, 0xb2, 0xd2, 0x25, 0x36, 0x2e, 0xe2,
  0x39, 0xed, 0x1a, 0xd0, 0xdb, 0x31, 0x1e, 0xf3, 0x60, 0x38, 0xc1, 0xd5,
  0x42, 0x0e, 0x2c, 0xf7, 0x09, 0xc8, 0x30, 0xe2, 0xea, 0xce, 0xd9, 0xfa,
  0x21, 0xf9, 0xd3, 0xce, 0xc7, 0xf8, 0x0f, 0xfd, 0x1e, 0xe1, 0x2d, 0x2e,
  0x37, 0xc1, 0x1a, 0xd1, 0xf1, 0xe9, 0x45, 0xe5, 0x23, 0x05, 0xfe, 0x1a,
  0xca, 0x37, 0x0b, 0xe5, 0xe4, 0x1c, 0x29, 0xd0, 0xea, 0x37, 0xf8, 0x22,
  0xdd, 0x17, 0x17, 0xf5, 0x27, 0xd8, 0x1d, 0x1b, 0xd9, 0xea, 0x2a, 0xea,
  0xd8, 0x0e, 0x28, 0xe0, 0xeb, 0x3d, 0x36, 0xe0, 0x05, 0xf0, 0xe1, 0x23,
  0xe4, 0xee, 0x30, 0xde, 0xec, 0x2d, 0xfb, 0xcc, 0xf9, 0xeb, 0xe7, 0x36,
  0xd0, 0xdb, 0xd5, 0x15, 0x04, 0x22, 0xf6, 0x07, 0xf4, 0xe2, 0xda, 0x1c,
  0x2e, 0x1e, 0x33, 0xf9, 0x37, 0xe1, 0x17, 0xf5, 0x05, 0x1d, 0x2f, 0x24,
  0x34, 0xe1, 0x0c, 0xd1, 0xe5, 0x34, 0xee, 0x30, 0x1e, 0x0a, 0xe1, 0x1a,
  0x05, 0xe8, 0xf5, 0x3c, 0x6e, 0xf4, 0x02, 0x19, 0x31, 0x1f, 0x46, 0x1f,
  0x31, 0xef, 0x0a, 0x1a, 0x1a, 0x16, 0x0b, 0xcb, 0x01, 0x0f, 0xd6, 0xea,
  0xf8, 0xfe, 0xe5, 0xcc, 0xed, 0xcd, 0xfd, 0x12, 0x2d, 0x17, 0xf9, 0xf5,
  0xd7, 0x20, 0x0e, 0xfc, 0xe0, 0x00, 0xfb, 0x1e, 0xdb, 0x09, 0x12, 0xd2,
  0x13, 0xe0, 0xf7, 0xe6, 0x1c, 0xca, 0x24, 0xf7, 0x20, 0xea, 0x37, 0x19,
  0xd2, 0xc9, 0xe4, 0xc9, 0x1b, 0x10, 0xe5, 0xf0, 0x15, 0x2d, 0x07, 0xf0,
  0x28, 0xcb, 0x04, 0x27, 0x2c, 0x14, 0x21, 0xe8, 0xe2, 0xdd, 0x0d, 0xdc,
  0x01, 0x08, 0x24, 0xce, 0x0e, 0x1a, 0xd1, 0x15, 0x17, 0xe1, 0x29, 0x22,
  0xff, 0xcc, 0xfc, 0xec, 0xea, 0xe7, 0x19, 0x1b, 0xde, 0x06, 0xd5, 0xe0,
  0x1d, 0xe6, 0xed, 0xea, 0xf5, 0xf6, 0xd3, 0xf0, 0x00, 0xdb, 0xe4, 0xcc,
  0x08, 0x2d, 0x25, 0xca, 0xde, 0xe2, 0xdc, 0xf8, 0x38, 0xd6, 0xd1, 0x0f,
  0xe6, 0xc7, 0xd7, 0x1a, 0xe6, 0xdc, 0x12, 0xfc, 0xd3, 0xff, 0x25, 0xd4,
  0x25, 0x28, 0xf2, 0xe9, 0x12, 0xcd, 0xdc, 0x24, 0xfa, 0xda, 0x08, 0xe9,
  0x1d, 0xc9, 0xcb, 0x25, 0x2c, 0x09, 0x1c, 0x26, 0x01, 0x31, 0xd0, 0xe0,
  0xf1, 0xff, 0xec, 0x25, 0x23, 0x0e, 0xfd, 0xf0, 0xf8, 0xcc, 0xfa, 0x1c,
  0xe1, 0xca, 0xeb, 0x1a, 0x0f, 0x32, 0xfd, 0xfe, 0xd2, 0xeb, 0xde, 0xfd,
  0xf0, 0x2e, 0xd4, 0xe2, 0xd7, 0xeb, 0x0f, 0xe0, 0x05, 0x1a, 0x39, 0x38,
  0x1a, 0x23, 0xf4, 0xf3, 0x18, 0xcf, 0xd0, 0xe1, 0xce, 0x0f, 0xd6, 0xe5,
  0xe1, 0xd1, 0x2b, 0xf9, 0xc8, 0xef, 0x28, 0x1a, 0xcc, 0x2c, 0xd5, 0xf3,
  0xe6, 0x15, 0xea, 0xc9, 0x25, 0x10, 0xdc, 0xf2, 0x01, 0xe4, 0xcb, 0xe6,
  0x24, 0xeb, 0xe1, 0xca, 0xd3, 0xd9, 0x0d, 0xcc, 0x0b, 0x32, 0xd7, 0x2e,
  0x01, 0x0a, 0x0f, 0xd7, 0x0e, 0x24, 0xec, 0xce, 0xfd, 0x10, 0x11, 0xd2,
  0xdc, 0xf2, 0x21, 0xd6, 0x1e, 0xc8, 0xe9, 0xf2, 0x14, 0xfc, 0xe8, 0xfd,
  0x00, 0xcb, 0xc8, 0x11, 0x2e, 0xd9, 0x12, 0x30, 0x21, 0xd1, 0xfe, 0x2a,
  0x2d, 0x0c, 0xd7, 0xc7, 0xe1, 0x34, 0x10, 0xe1, 0x26, 0xee, 0x2d, 0x28,
  0xee, 0xde, 0xd6, 0x11, 0xe8, 0xc7, 0x0c, 0x2f, 0xd2, 0x0a, 0x2b, 0x11,
  0xee, 0xea, 0x05, 0x20, 0xcf, 0x2c, 0x36, 0xf4, 0x1f, 0x21, 0xdf, 0x36,
  0xdd, 0xe6, 0xfe, 0x11, 0xd8, 0xd3, 0xd2, 0x28, 0x01, 0x24, 0x01, 0x13,
  0x20, 0xc9, 0x15, 0xdc, 0x13, 0xe1, 0x14, 0xff, 0xc3, 0x12, 0xcd, 0x24,
  0xfe, 0x33, 0x33, 0xf7, 0x0d, 0x32, 0x1f, 0x28, 0xe5, 0x05, 0x17, 0x05,
  0xd6, 0x32, 0xea, 0x39, 0xef, 0x1b, 0xd1, 0xfc, 0x30, 0x33, 0xcf, 0x3d,
  0x2b, 0x1a, 0xd3, 0xf7, 0x38, 0xff, 0xf9, 0xe5, 0x3c, 0x1c, 0xec, 0xdf,
  0xe0, 0xe2, 0xee, 0x0e, 0x5a, 0xee, 0x19, 0x37, 0xda, 0xc5, 0xe7, 0x17,
  0xd0, 0xdf, 0x3e, 0xe5, 0xe7, 0xd9, 0x02, 0xd2, 0x21, 0x0f, 0xe4, 0x17,
  0x0f, 0xdd, 0x3a, 0x0c, 0xc9, 0x01, 0x34, 0x3a, 0x30, 0x01, 0x36, 0x0b,
  0xfa, 0xe9, 0x07, 0x0c, 0x08, 0xfc, 0xd1, 0xf3, 0x08, 0x21, 0xfe, 0xc7,
  0xf9, 0xdd, 0x1c, 0x06, 0xd2, 0x22, 0xf7, 0x3e, 0x21, 0x0f, 0xcc, 0x01,
  0xec, 0xe6, 0xf3, 0x19, 0x0f, 0x22, 0x36, 0xdd, 0x2f, 0xd4, 0x30, 0x3f,
  0xd5, 0x05, 0xe9, 0xd0, 0x05, 0xd5, 0x0e, 0x3f, 0xe6, 0x11, 0x19, 0x01,
  0xd2, 0x10, 0xe7, 0x37, 0xdd, 0x1c, 0xf3, 0xed, 0x34, 0x06, 0x0e, 0x20,
  0xe4, 0x0b, 0xe5, 0xdb, 0xdd, 0xd4, 0xc1, 0x41, 0xee, 0x38, 0xd7, 0x3e,
  0x11, 0x15, 0x0e, 0xdd, 0xe9, 0xf4, 0x39, 0x38, 0x00, 0x32, 0x39, 0xd0,
  0xdd, 0xbf, 0xce, 0x18, 0x13, 0x0d, 0x3c, 0x01, 0xd8, 0x14, 0xd6, 0xf2,
  0xe4, 0x09, 0x2d, 0x2e, 0x01, 0x2f, 0xf4, 0xe4, 0xeb, 0xfb, 0xfe, 0xd8,
  0x1c, 0x2b, 0xe5, 0xdf, 0x15, 0x0d, 0xbf, 0x49, 0x07, 0x16, 0x27, 0xe8,
  0x2d, 0xee, 0x28, 0x26, 0xd7, 0x08, 0xd0, 0x0e, 0x28, 0xd3, 0x19, 0xff,
  0x03, 0xf4, 0xf6, 0xd6, 0xfe, 0x03, 0xfb, 0xde, 0xe0, 0x0f, 0x17, 0xdb,
  0xfc, 0x22, 0xfc, 0x36, 0x04, 0xf2, 0x06, 0x1f, 0xe7, 0xd5, 0x02, 0xda,
  0x34, 0x26, 0x11, 0xe3, 0xc1, 0x2c, 0x22, 0xf4, 0x1e, 0x12, 0x2c, 0xca,
  0xe5, 0xd4, 0xcd, 0x3b, 0xe3, 0x1a, 0xec, 0x10, 0x0c, 0x00, 0xe7, 0xec,
  0xce, 0x3a, 0xf9, 0x0a, 0x30, 0x25, 0x16, 0x3c, 0xe8, 0x1a, 0x3b, 0xe7,
  0x08, 0x0a, 0x0c, 0xd5, 0xf7, 0x3d, 0x04, 0xe7, 0x09, 0x07, 0x1d, 0x20,
  0x32, 0xfd, 0xf7, 0xdf, 0xf2, 0x1c, 0x27, 0xe2, 0x06, 0xfe, 0x15, 0x1f,
  0x39, 0x1a, 0xc1, 0x36, 0xfb, 0x25, 0xd1, 0xe4, 0x16, 0xdc, 0xc1, 0xee,
  0x06, 0x04, 0xf1, 0xe6, 0xf9, 0xf7, 0xd8, 0xe2, 0x17, 0x04, 0xfb, 0x2b,
  0x19, 0xe2, 0x34, 0x08, 0xd0, 0x05, 0x03, 0x10, 0x02, 0xff, 0x0c, 0x40,
  0xfa, 0xe6, 0x03, 0x13, 0x05, 0xf7, 0x46, 0xcd, 0x25, 0x36, 0x0b, 0x38,
  0x15, 0xd0, 0x10, 0x2d, 0x1b, 0x34, 0x16, 0xfd, 0x37, 0x2c, 0xf6, 0x0a,
  0xee, 0xe0, 0x18, 0xf2, 0xf1, 0xc1, 0xcf, 0x25, 0xdb, 0x06, 0xfa, 0xdf,
  0xe7, 0xe0, 0xd2, 0xd6, 0x04, 0xf0, 0x00, 0xd7, 0x29, 0x17, 0xdf, 0xe7,
  0x32, 0xfc, 0x26, 0xee, 0xe3, 0x18, 0x15, 0xf1, 0x0d, 0x39, 0xd5, 0x36,
  0x02, 0x23, 0x20, 0xe3, 0xd9, 0x26, 0xff, 0x17, 0x2b, 0xf0, 0xc4, 0x2f,
  0xf9, 0x25, 0x13, 0xe3, 0x3b, 0xf2, 0x03, 0xd4, 0x26, 0x22, 0xef, 0xd9,
  0x29, 0x27, 0x39, 0x1f, 0x2f, 0xf9, 0x03, 0xf5, 0xf1, 0xd5, 0x19, 0xfc,
  0x3c, 0xde, 0xf6, 0xfe, 0xb2, 0x0f, 0xef, 0xc6, 0x0a, 0x0d, 0xe5, 0xe7,
  0xf0, 0xf9, 0xec, 0xec, 0xed, 0xe2, 0x2b, 0x19, 0x2e, 0x26, 0xf3, 0xf2,
  0xf6, 0xf7, 0x03, 0x47, 0x0e, 0xee, 0xcd, 0xc9, 0xe2, 0x3c, 0x06, 0xde,
  0xd1, 0xfe, 0xaa, 0x35, 0x3b, 0xf9, 0x05, 0x25, 0x1b, 0x28, 0xf4, 0x39,
  0x17, 0x31, 0x2f, 0xf9, 0xfa, 0xf6, 0xdb, 0x2c, 0xdf, 0x1e, 0x01, 0x1f,
  0xef, 0x38, 0x11, 0x23, 0x29, 0x28, 0x08, 0x3c, 0x2d, 0x18, 0x03, 0x10,
  0x3b, 0xfd, 0xed, 0xe7, 0xef, 0x34, 0x12, 0xfb, 0xfa, 0x2c, 0x12, 0xc7,
  0xcb, 0x09, 0xfc, 0xf9, 0x26, 0x05, 0x35, 0x0f, 0xf0, 0x28, 0x17, 0x23,
  0xfd, 0xd4, 0x19, 0x11, 0x33, 0xf0, 0x34, 0xfd, 0xd2, 0x2e, 0xea, 0xfd,
  0x10, 0x30, 0xde, 0xe4, 0xf7, 0x32, 0x08, 0xf2, 0x0b, 0x26, 0xbb, 0xe5,
  0x29, 0xde, 0x2c, 0xff, 0x08, 0x03, 0xf2, 0xd5, 0xdd, 0xed, 0x09, 0xe2,
  0x5e, 0xf5, 0x10, 0x21, 0xfd, 0x13, 0x1f, 0xfc, 0xe4, 0x23, 0x31, 0x16,
  0x07, 0x1c, 0x16, 0xe1, 0xca, 0xc3, 0x0c, 0xf9, 0x11, 0x1f, 0xfa, 0xd0,
  0x26, 0x15, 0x06, 0xdb, 0xdb, 0xd5, 0x06, 0x1f, 0x1a, 0x17, 0x45, 0x0c,
  0xd6, 0x34, 0x09, 0x11, 0xd9, 0x15, 0xfd, 0x15, 0x11, 0x16, 0x0a, 0x01,
  0x31, 0xe9, 0xe2, 0x0a, 0x34, 0xe7, 0xd3, 0xdf, 0x27, 0x2e, 0x0f, 0x1e,
  0x23, 0xe4, 0xff, 0x16, 0xdc, 0xd3, 0xed, 0x0d, 0x06, 0xee, 0xe7, 0x0c,
  0x0d, 0xf6, 0xd5, 0xf2, 0xd4, 0xf5, 0x38, 0x17, 0x02, 0x28, 0x00, 0xd4,
  0x2b, 0xdd, 0xcf, 0x36, 0x0d, 0xd1, 0xea, 0x0a, 0x19, 0xd0, 0x06, 0x21,
  0xef, 0x04, 0x35, 0x3b, 0x1f, 0xfc, 0x17, 0x08, 0x33, 0x31, 0x31, 0xee,
  0xe6, 0x32, 0x02, 0xfe, 0xfb, 0xf9, 0xe9, 0xcc, 0xf2, 0x00, 0x36, 0xd9,
  0xfb, 0x04, 0x05, 0xe8, 0x2d, 0x13, 0x11, 0x1e, 0x77, 0xd2, 0xfa, 0x3a,
  0xea, 0xd9, 0x01, 0x1b, 0x12, 0xed, 0x16, 0x00, 0x38, 0xec, 0xd7, 0xff,
  0xf4, 0xee, 0xe5, 0xce, 0xaf, 0x1c, 0xe4, 0xeb, 0xd8, 0x07, 0xff, 0xe5,
  0x08, 0xce, 0x2d, 0xf1, 0x07, 0xde, 0x14, 0x22, 0x13, 0x12, 0xbc, 0x35,
  0xe3, 0x07, 0xf9, 0x30, 0x2b, 0xfe, 0x13, 0xcb, 0x18, 0x29, 0xff, 0xde,
  0x07, 0xe8, 0x0c, 0x02, 0x16, 0x21, 0x1c, 0x39, 0xf4, 0xcb, 0x2c, 0x30,
  0xdc, 0x01, 0x13, 0x1b, 0x43, 0xf1, 0xf1, 0xee, 0xd1, 0xdb, 0x0d, 0xfa,
  0xd5, 0xcb, 0xe9, 0xfb, 0x17, 0x1e, 0xfe, 0x0e, 0x28, 0xe2, 0xf7, 0xf4,
  0x08, 0x27, 0x05, 0x17, 0x1b, 0xda, 0x21, 0xd7, 0xcc, 0x26, 0xfc, 0x02,
  0x16, 0xfa, 0x12, 0x24, 0x3d, 0xfc, 0x38, 0x2b, 0x00, 0xf8, 0x39, 0xf4,
  0x20, 0x2c, 0xc8, 0xd8, 0x3b, 0x43, 0x39, 0xca, 0xdd, 0x26, 0x27, 0xe7,
  0xcd, 0xff, 0xde, 0x10, 0x7f, 0x36, 0x0f, 0xd9, 0x33, 0x0f, 0xf2, 0xcc,
  0xdf, 0xf6, 0x10, 0x3e, 0x34, 0xef, 0xf0, 0xd8, 0x02, 0xd2, 0x28, 0x1c,
  0xe7, 0xde, 0x1f, 0xc7, 0x03, 0xf3, 0xd6, 0x32, 0xe9, 0xdc, 0x3b, 0x0c,
  0x26, 0xe8, 0x35, 0xe3, 0xce, 0xd8, 0xbd, 0x1b, 0xdb, 0x0b, 0xe3, 0x0e,
  0x1a, 0xf6, 0xe6, 0x03, 0x31, 0xff, 0x08, 0xfb, 0x24, 0x34, 0xe5, 0x1c,
  0x0f, 0x0e, 0x2d, 0x05, 0x35, 0xc9, 0xce, 0xec, 0x1c, 0x2d, 0x06, 0xcc,
  0xcf, 0x0f, 0x08, 0x30, 0xec, 0xcc, 0xd9, 0xe4, 0xf3, 0xd3, 0xd9, 0xd8,
  0x22, 0xea, 0x30, 0x18, 0xea, 0xd4, 0x31, 0xdf, 0x33, 0x37, 0x10, 0x0d,
  0x0f, 0xd7, 0x19, 0xe1, 0xcf, 0xf0, 0xfe, 0xd8, 0x0b, 0x1d, 0xcd, 0x2b,
  0xfe, 0xf3, 0xe1, 0xda, 0xc4, 0x32, 0x19, 0xc8, 0x29, 0x16, 0x09, 0x07,
  0x19, 0xc9, 0x2a, 0xd3, 0x1c, 0x05, 0x30, 0x10, 0x01, 0xd5, 0x1b, 0x1e,
  0x0b, 0xfe, 0x28, 0xdc, 0xff, 0xf8, 0xf6, 0xed, 0x03, 0xf5, 0xeb, 0xfa,
  0x28, 0xc9, 0x06, 0xdf, 0xdd, 0xcb, 0xc9, 0xd4, 0x26, 0xe2, 0x0d, 0xf5,
  0x05, 0x30, 0x1c, 0x0d, 0xc3, 0xe8, 0xef, 0xca, 0x17, 0x1d, 0xc1, 0xc7,
  0xcc, 0xd2, 0xea, 0xfc, 0x0b, 0x29, 0xdd, 0x09, 0x24, 0xeb, 0x32, 0x0c,
  0xe8, 0x40, 0xec, 0x35, 0xd2, 0x37, 0x17, 0xea, 0x23, 0xff, 0xf8, 0x03,
  0xd6, 0x29, 0xf6, 0xf2, 0xf9, 0x3e, 0x10, 0x0e, 0xf3, 0xd7, 0x2a, 0x26,
  0xe7, 0x33, 0x30, 0xe2, 0x22, 0x01, 0xf0, 0xd0, 0x1b, 0xff, 0xe2, 0x23,
  0xec, 0x26, 0x39, 0xff, 0xe2, 0x21, 0x43, 0x02, 0xf4, 0x33, 0xe8, 0xd8,
  0xe0, 0xe7, 0xcd, 0x19, 0x16, 0x23, 0xff, 0xd3, 0x03, 0x21, 0xdd, 0xfe,
  0x0b, 0xeb, 0x25, 0xfa, 0xe3, 0xff, 0x1d, 0xd7, 0xc7, 0xfa, 0xcd, 0xf6,
  0x18, 0x15, 0x1d, 0x09, 0xd9, 0x2c, 0xc8, 0x2a, 0x99, 0xf6, 0x00, 0xfc,
  0xcf, 0x26, 0xcb, 0xce, 0x35, 0x2c, 0x25, 0xdd, 0xeb, 0xef, 0xfd, 0x31,
  0x15, 0x3b, 0x1f, 0xf1, 0x6e, 0xfc, 0xe3, 0x0a, 0x15, 0x13, 0x3c, 0xcf,
  0xdc, 0xec, 0xfa, 0x28, 0x1a, 0xcd, 0xe3, 0x13, 0xe6, 0x0c, 0xf8, 0xc3,
  0xec, 0xcd, 0x07, 0x1b, 0xed, 0x27, 0xf6, 0x18, 0x14, 0x34, 0xf5, 0xea,
  0xe5, 0xed, 0x04, 0x08, 0xea, 0x27, 0xe5, 0x33, 0xde, 0x24, 0xee, 0xfa,
  0x0b, 0x09, 0xdb, 0xde, 0xef, 0x19, 0xce, 0x2e, 0xee, 0x37, 0x0b, 0x29,
  0xfb, 0x1d, 0x30, 0xe1, 0x29, 0x0e, 0x14, 0x09, 0x1a, 0x27, 0x20, 0xce,
  0xd8, 0x1b, 0x05, 0xfe, 0x29, 0xfc, 0x15, 0xee, 0xed, 0xff, 0x0a, 0x18,
  0x37, 0xdd, 0x02, 0xfd, 0x13, 0xf6, 0xd5, 0xf5, 0xf8, 0x34, 0x0f, 0x41,
  0x09, 0x22, 0x17, 0x32, 0x1b, 0xa3, 0xfc, 0xcd, 0xdc, 0x0e, 0x2d, 0x27,
  0xf9, 0x29, 0x35, 0x26, 0xc4, 0x0c, 0x07, 0x06, 0xf2, 0xef, 0xf1, 0xdf,
  0x0d, 0xdb, 0xdf, 0x29, 0xc0, 0xd1, 0xfd, 0x2e, 0xdb, 0x3a, 0xb5, 0x07,
  0x4f, 0xde, 0x03, 0x2f, 0x3b, 0xf3, 0x16, 0x24, 0xcc, 0xd8, 0x22, 0x09,
  0xde, 0xdc, 0x00, 0x44, 0x2f, 0xf0, 0x14, 0xfb, 0x11, 0xc5, 0x00, 0xcf,
  0xf0, 0xdb, 0x0d, 0x22, 0xcc, 0xdf, 0xf9, 0x14, 0x0f, 0xe8, 0xca, 0x0d,
  0x38, 0xea, 0xff, 0x29, 0xcc, 0x18, 0x1b, 0xe9, 0x0b, 0xd0, 0x0b, 0x03,
  0xf5, 0x2f, 0xda, 0xf7, 0xdd, 0xd6, 0xc9, 0xd4, 0x1f, 0x18, 0xfe, 0x1f,
  0xc6, 0xf0, 0x33, 0x0b, 0xf8, 0xd4, 0x18, 0x2e, 0x2d, 0x2d, 0x20, 0xfe,
  0xf0, 0x17, 0x12, 0x30, 0xf5, 0xff, 0xd4, 0x23, 0x20, 0x08, 0xd1, 0xdc,
  0x16, 0x38, 0xff, 0xe8, 0xd8, 0xed, 0xe0, 0x11, 0xd6, 0x23, 0x2f, 0xe3,
  0xfc, 0xcf, 0x1e, 0xe8, 0xe8, 0x24, 0x36, 0x36, 0x12, 0x08, 0x1e, 0xe5,
  0x27, 0xee, 0xea, 0x32, 0xdb, 0x29, 0x33, 0x2f, 0x37, 0xce, 0xd0, 0xe5,
  0xde, 0x31, 0x2d, 0x2f, 0x05, 0xe3, 0x01, 0x34, 0x23, 0x11, 0x07, 0xfb,
  0x1e, 0xea, 0x11, 0x26, 0x15, 0x07, 0x2c, 0xca, 0x15, 0xe4, 0x1e, 0x01,
  0x1a, 0xed, 0xd3, 0xcf, 0x24, 0xfa, 0x06, 0xd9, 0x07, 0xf6, 0xd0, 0xfe,
  0xc9, 0xce, 0x31, 0xf5, 0xe7, 0xe3, 0x12, 0x15, 0x09, 0xe6, 0xd8, 0x0e,
  0xf8, 0xcb, 0x29, 0xd4, 0xff, 0x23, 0xce, 0x14, 0x0a, 0x1c, 0x0f, 0x2b,
  0xe3, 0x32, 0x2b, 0x38, 0x0c, 0x1e, 0xfb, 0xf4, 0xf9, 0xf3, 0x1f, 0xc7,
  0xfd, 0xdc, 0x07, 0xf9, 0x34, 0x1e, 0x00, 0x2b, 0xfd, 0x06, 0x30, 0x0c,
  0xf7, 0x0a, 0xd0, 0x15, 0xd9, 0x22, 0x01, 0x15, 0xe3, 0xc7, 0xce, 0xf7,
  0x19, 0xe3, 0xce, 0xe9, 0x2a, 0x07, 0xd4, 0xf4, 0x36, 0xe0, 0x0e, 0xdc,
  0x32, 0x0e, 0xe0, 0xca, 0x20, 0x2b, 0xf9, 0x04, 0x0f, 0xcc, 0xec, 0x32,
  0xf3, 0xf2, 0x13, 0xd5, 0xdb, 0x01, 0x35, 0x35, 0xe7, 0x37, 0xda, 0xdc,
  0x31, 0x27, 0x0e, 0x18, 0x0a, 0x0d, 0xe8, 0xd6, 0x17, 0x00, 0x09, 0xca,
  0xd7, 0xcd, 0x30, 0x2e, 0xef, 0x0f, 0xca, 0xec, 0x2d, 0xe1, 0xe8, 0xe0,
  0x20, 0xe9, 0x2e, 0xe0, 0x18, 0xe1, 0xd7, 0x33, 0xe4, 0xc9, 0x0e, 0x0f,
  0x02, 0x3d, 0x1b, 0xd9, 0xf5, 0xe8, 0x0c, 0x04, 0x0b, 0x11, 0xe4, 0xdd,
  0xfa, 0xf1, 0xdb, 0x0f, 0x12, 0x24, 0xe9, 0xd6, 0x00, 0x0a, 0xf8, 0x12,
  0xd6, 0x25, 0x11, 0xd8, 0xcd, 0x3b, 0xdc, 0xfb, 0x26, 0xcc, 0x10, 0x0b,
  0x04, 0xd8, 0xfb, 0x20, 0xdb, 0xd9, 0xe6, 0x1f, 0x0f, 0x02, 0x1f, 0xcd,
  0xe9, 0x0e, 0x23, 0xd6, 0x11, 0x08, 0x27, 0x1d, 0xfd, 0x1b, 0x08, 0xc9,
  0x33, 0xea, 0x2f, 0x3d, 0x25, 0x15, 0xcb, 0x03, 0x2a, 0xde, 0xfc, 0x2e,
  0x21, 0xdd, 0xed, 0x11, 0xac, 0x11, 0x1c, 0x0c, 0x27, 0xd0, 0xcb, 0x29,
  0xe4, 0x02, 0xd3, 0xe7, 0xdd, 0xed, 0xf1, 0x13, 0x2c, 0x33, 0x05, 0x32,
  0xfb, 0xff, 0xd4, 0x00, 0xdd, 0x0f, 0xdf, 0x08, 0x11, 0xd2, 0x03, 0xd8,
  0xfa, 0xf7, 0x23, 0xe8, 0xd4, 0xcc, 0x31, 0x36, 0xcc, 0x32, 0xe0, 0xe5,
  0x32, 0xd2, 0x25, 0xf4, 0x21, 0x1d, 0xe0, 0xff, 0x10, 0x0f, 0x0a, 0xf3,
  0xe2, 0x0f, 0x23, 0xe6, 0x27, 0xce, 0xcc, 0xe2, 0xe1, 0xcf, 0xeb, 0xca,
  0x36, 0x1d, 0xfb, 0xf2, 0x01, 0x0c, 0xe4, 0xf6, 0xd0, 0x13, 0xef, 0xef,
  0xd5, 0xed, 0xdd, 0x18, 0xfa, 0xe6, 0xd1, 0x01, 0x21, 0xd3, 0xe7, 0xe0,
  0xdf, 0xf5, 0x38, 0xf5, 0xe8, 0x2a, 0x1b, 0x16, 0x01, 0x0d, 0x1f, 0xf3,
  0xe2, 0xd8, 0x12, 0xd4, 0xf9, 0x33, 0xdc, 0x26, 0xf8, 0xe3, 0xd4, 0x09,
  0xe9, 0xd6, 0x08, 0xef, 0x28, 0xce, 0xfb, 0x10, 0xda, 0x09, 0x35, 0x05,
  0x17, 0xe1, 0x12, 0xd9, 0xcd, 0xf0, 0xc9, 0xd3, 0x0f, 0xc9, 0xdf, 0xe6,
  0x11, 0x0d, 0x0d, 0x20, 0xf3, 0xed, 0xec, 0x1c, 0xdc, 0xdb, 0x34, 0xd8,
  0x2a, 0xd8, 0xe0, 0xe6, 0x19, 0x15, 0xe8, 0xc7, 0x28, 0x18, 0xf2, 0xce,
  0xd7, 0x26, 0x34, 0x36, 0xd6, 0x1f, 0x03, 0x02, 0x05, 0x13, 0xc7, 0x00,
  0x14, 0xe5, 0x15, 0xd3, 0x2e, 0x32, 0xed, 0xcc, 0x20, 0x28, 0xe1, 0xf7,
  0xf7, 0x33, 0xfd, 0x2a, 0xe5, 0xfb, 0xf9, 0x0e, 0x44, 0x2b, 0x2b, 0x0b,
  0x29, 0x21, 0x2b, 0x19, 0xd4, 0x29, 0xff, 0x3f, 0xeb, 0xda, 0xc8, 0x29,
  0x37, 0xc6, 0x0a, 0xee, 0x12, 0x27, 0xcb, 0x19, 0x0e, 0xd6, 0x1a, 0x0d,
  0xd2, 0x24, 0xec, 0x22, 0xed, 0xe2, 0xea, 0x31, 0x08, 0x29, 0x0b, 0xe8,
  0xcd, 0x2a, 0x0c, 0xc8, 0xf6, 0xdc, 0x1d, 0x2c, 0xd5, 0x23, 0xef, 0xe1,
  0xf4, 0xe8, 0x03, 0x10, 0xd5, 0xdc, 0xec, 0x33, 0xb8, 0x00, 0x33, 0xfc,
  0xf8, 0xdd, 0xdb, 0xd5, 0x32, 0x19, 0xff, 0x0c, 0xe8, 0x09, 0xf7, 0xd1,
  0x20, 0xf1, 0xe3, 0xff, 0x4b, 0x21, 0xd1, 0x40, 0xec, 0x2f, 0x2a, 0xf8,
  0xf8, 0xf8, 0xe8, 0xef, 0x22, 0x12, 0xf4, 0xff, 0xe9, 0xec, 0x48, 0x12,
  0x06, 0x15, 0xc1, 0x38, 0xe4, 0x29, 0xe3, 0x0e, 0x27, 0x30, 0xfe, 0xc7,
  0xfa, 0x35, 0xfb, 0xea, 0xcb, 0x12, 0x30, 0xeb, 0x32, 0x0a, 0x3a, 0xeb,
  0xf9, 0x03, 0x0b, 0xed, 0xe9, 0xce, 0xcc, 0x01, 0x22, 0xdc, 0xdb, 0x04,
  0xdf, 0xd4, 0x0d, 0x05, 0xfa, 0x3b, 0x11, 0x29, 0x0a, 0xf1, 0xfb, 0x15,
  0xfd, 0x0b, 0x0f, 0x2f, 0x0d, 0x29, 0xd8, 0x1f, 0x3b, 0xcf, 0x04, 0xd9,
  0xd2, 0xdd, 0x17, 0x1b, 0x1e, 0x0a, 0xdd, 0x15, 0x2d, 0x18, 0x11, 0x38,
  0xf3, 0x35, 0x35, 0x36, 0xce, 0xf6, 0xbc, 0x19, 0xd5, 0xe8, 0x2b, 0x2d,
  0x28, 0x2d, 0xff, 0xe3, 0xbc, 0x08, 0x30, 0x31, 0xd0, 0xed, 0x29, 0xea,
  0x2d, 0xe2, 0xf3, 0x2b, 0x17, 0x26, 0x01, 0xdc, 0xde, 0x29, 0xed, 0x18,
  0x1e, 0x06, 0x13, 0x10, 0xfe, 0xcb, 0xcc, 0x01, 0x28, 0x07, 0xfb, 0x28,
  0xe8, 0x01, 0xe6, 0x08, 0x1e, 0x0f, 0x0f, 0xd2, 0xd5, 0x0e, 0xdf, 0x37,
  0xd4, 0x09, 0xe8, 0x1a, 0xdc, 0x0b, 0xf5, 0x2e, 0x2b, 0x2b, 0xef, 0xd8,
  0x23, 0x07, 0x21, 0xd9, 0xdc, 0xd5, 0xcb, 0x2f, 0xcc, 0xee, 0xd5, 0x09,
  0xff, 0xe2, 0x24, 0x2c, 0xd8, 0xdf, 0x0f, 0xfd, 0x0f, 0x0a, 0xf1, 0x14,
  0xcb, 0x07, 0x12, 0xde, 0xec, 0x19, 0xef, 0xec, 0x21, 0x08, 0xdb, 0xfb,
  0xfc, 0xf9, 0xdd, 0xd6, 0x35, 0x2d, 0x33, 0xf7, 0xd0, 0xcd, 0x33, 0x28,
  0x21, 0xdb, 0xd4, 0xec, 0xd8, 0xea, 0x13, 0x25, 0x04, 0xcd, 0xf3, 0x11,
  0xf8, 0x11, 0xf6, 0x15, 0x17, 0xed, 0xd8, 0xef, 0x0b, 0xff, 0x15, 0xed,
  0xda, 0xcf, 0x19, 0x36, 0xea, 0x2e, 0xcb, 0x04, 0xce, 0x2a, 0x30, 0x00,
  0x24, 0xd0, 0xcf, 0x0d, 0x01, 0xdb, 0xf5, 0x36, 0x0f, 0xc8, 0x2c, 0xfb,
  0x1f, 0xd7, 0x15, 0x36, 0xf7, 0x2f, 0xf8, 0xee, 0x16, 0xe4, 0x14, 0xef,
  0xd0, 0xe2, 0xe1, 0xcc, 0x24, 0xde, 0xfc, 0xe0, 0xd0, 0xd5, 0x02, 0xf7,
  0xe0, 0x0c, 0xde, 0x29, 0xf6, 0xc9, 0xd5, 0x29, 0xfc, 0x37, 0x2c, 0x0d,
  0xfc, 0x17, 0xd9, 0x04, 0xfa, 0xd9, 0x1c, 0xe9, 0xfc, 0x16, 0x1b, 0xd1,
  0x11, 0x2d, 0xd7, 0xce, 0x08, 0x18, 0x27, 0x10, 0xf5, 0xec, 0x01, 0x22,
  0xd1, 0x10, 0x34, 0x15, 0x13, 0x36, 0x20, 0xf3, 0x25, 0xce, 0x2d, 0xee,
  0x33, 0x29, 0xfc, 0xe1, 0x2c, 0xc9, 0xdd, 0x24, 0xea, 0x36, 0xc9, 0xf0,
  0xf4, 0xf7, 0xff, 0x38, 0xcb, 0x0b, 0x37, 0x38, 0xe1, 0xbf, 0x27, 0x0e,
  0xd4, 0x05, 0xd9, 0xd3, 0x06, 0xc6, 0x12, 0xfa, 0xca, 0xf9, 0xcf, 0xd6,
  0xf7, 0x30, 0x02, 0x15, 0xca, 0x2d, 0xcd, 0xf9, 0x24, 0x31, 0xca, 0xe5,
  0x1c, 0x47, 0xdf, 0xf6, 0x1e, 0xf0, 0x05, 0xf1, 0x0a, 0x2e, 0xf1, 0x27,
  0x34, 0xf6, 0xdc, 0x03, 0xe6, 0x20, 0xf3, 0xe1, 0x09, 0x0b, 0x33, 0xf3,
  0x0e, 0x07, 0xe0, 0xca, 0x0f, 0xdd, 0x2c, 0x1a, 0x11, 0x33, 0xde, 0x39,
  0xd9, 0x02, 0x27, 0xed, 0xe0, 0xff, 0xe2, 0x2d, 0xf6, 0xf6, 0x15, 0x14,
  0xfc, 0x01, 0xd4, 0x05, 0x47, 0x00, 0x20, 0x2c, 0xff, 0x15, 0xd0, 0x2b,
  0xe0, 0x27, 0x02, 0xdb, 0x3a, 0x09, 0xf3, 0xea, 0xd0, 0x06, 0x37, 0xd4,
  0xeb, 0xfb, 0x33, 0xd6, 0x20, 0x13, 0x27, 0x3c, 0x07, 0x31, 0x04, 0x11,
  0x24, 0xd7, 0xf2, 0xfe, 0x06, 0x0d, 0x16, 0x1a, 0x3a, 0x2d, 0x31, 0x19,
  0x27, 0xfb, 0xf2, 0x27, 0xcd, 0x21, 0x2d, 0xdf, 0x08, 0x15, 0x2d, 0xd3,
  0xd1, 0x15, 0x26, 0xeb, 0x30, 0x2d, 0xf3, 0x27, 0xf1, 0xd4, 0x1c, 0xcd,
  0x0c, 0xce, 0x22, 0xe6, 0x38, 0xc5, 0xf7, 0xfb, 0x00, 0x0e, 0xfd, 0xc9,
  0xaa, 0xdd, 0xfe, 0xf8, 0x05, 0xe1, 0x1f, 0x30, 0xe8, 0xe4, 0x26, 0xeb,
  0x16, 0xd3, 0x0f, 0xf0, 0x1f, 0x02, 0xed, 0xeb, 0xe0, 0x24, 0xeb, 0x18,
  0x1d, 0xe4, 0xdb, 0xf0, 0xd8, 0x28, 0xd8, 0xc7, 0x04, 0xd4, 0xc8, 0x1b,
  0x21, 0x01, 0x24, 0x03, 0xda, 0xe4, 0x12, 0xf6, 0x28, 0x1d, 0xdf, 0x14,
  0x24, 0xf1, 0xed, 0xf3, 0x0b, 0xea, 0xfb, 0xd7, 0x10, 0xf3, 0x01, 0x1e,
  0xf2, 0x1f, 0x23, 0xf9, 0xe4, 0xe0, 0x0e, 0x36, 0x16, 0xcc, 0xda, 0x25,
  0xcf, 0x27, 0xcd, 0x1b, 0xec, 0x1a, 0xd9, 0x33, 0xf5, 0x0d, 0x11, 0x17,
  0xf1, 0x17, 0x04, 0x14, 0x01, 0x1d, 0xca, 0x06, 0xcd, 0xee, 0xfb, 0xf4,
  0xe7, 0xf0, 0x13, 0x28, 0x18, 0xe1, 0xfd, 0x0a, 0xfa, 0xcd, 0xdf, 0x39,
  0xcb, 0x36, 0x21, 0xcf, 0xd1, 0xe0, 0x14, 0xf3, 0x16, 0x0a, 0xce, 0xf9,
  0x17, 0xf2, 0x1d, 0x2a, 0x03, 0x2e, 0xcb, 0xcc, 0x11, 0xd5, 0x27, 0x2d,
  0xe7, 0xe9, 0x29, 0xe5, 0xce, 0xf3, 0xdf, 0xd9, 0x25, 0x28, 0xeb, 0xf5,
  0x2c, 0xe1, 0xd3, 0xfb, 0xf6, 0xf5, 0x10, 0x1f, 0x2a, 0xde, 0x0a, 0xc9,
  0x37, 0xd5, 0x03, 0x35, 0xdf, 0xd5, 0x03, 0xed, 0x35, 0xf1, 0x0c, 0x26,
  0x1d, 0x35, 0x02, 0xf2, 0xd4, 0xe7, 0x11, 0xcd, 0xd9, 0x34, 0x37, 0xe9,
  0xfa, 0xdf, 0xfc, 0xdd, 0x10, 0xde, 0x2f, 0xd4, 0x0c, 0x2b, 0x24, 0xf5,
  0x07, 0x2f, 0xe1, 0x12, 0xe9, 0xd5, 0xeb, 0xc8, 0x0a, 0xec, 0xdb, 0xfa,
  0xf8, 0x28, 0x2b, 0xdb, 0xe3, 0xf5, 0xe6, 0xca, 0xd6, 0xcd, 0xde, 0x12,
  0x0e, 0xe8, 0x32, 0xfe, 0x1e, 0xe3, 0xef, 0x36, 0x2b, 0x03, 0x0f, 0x18,
  0xe8, 0x29, 0xed, 0xc8, 0xee, 0x2c, 0xf6, 0xe3, 0x36, 0xf0, 0xf7, 0x17,
  0xf6, 0x1f, 0xea, 0x0d, 0x06, 0x29, 0x1e, 0xcb, 0xf1, 0xc8, 0x22, 0x0b,
  0xdd, 0xcb, 0xc9, 0xfe, 0xea, 0xd2, 0xd1, 0x08, 0xff, 0xef, 0xed, 0x0e,
  0xfc, 0x1b, 0xce, 0xc9, 0xed, 0xe8, 0xf5, 0xf7, 0xe5, 0xdc, 0x27, 0xd6,
  0x07, 0x0d, 0xdc, 0xea, 0x08, 0x18, 0xfe, 0xe2, 0xdf, 0xea, 0x3c, 0xf1,
  0xd5, 0xef, 0xf1, 0x2b, 0xe7, 0x2c, 0xd8, 0x30, 0x3b, 0xda, 0xf2, 0x06,
  0xe2, 0xfb, 0x30, 0xef, 0xdb, 0x2a, 0x12, 0x12, 0x18, 0x30, 0xe5, 0xd0,
  0x1f, 0xe3, 0x3b, 0xd6, 0x04, 0x00, 0x28, 0xfa, 0xe8, 0xec, 0x17, 0x23,
  0xee, 0x0d, 0xe0, 0x18, 0xea, 0x1f, 0x16, 0xdf, 0xdb, 0xcb, 0xf8, 0x34,
  0x41, 0xf7, 0x11, 0xe3, 0xd8, 0x09, 0x16, 0x14, 0x28, 0xea, 0xe8, 0xd0,
  0xf5, 0x19, 0x0a, 0x18, 0xf7, 0x02, 0x22, 0xe1, 0x07, 0xe1, 0xd2, 0xe0,
  0x0d, 0x1d, 0x0f, 0x2c, 0x58, 0x18, 0x16, 0x2c, 0xea, 0xcf, 0xeb, 0x16,
  0x0c, 0xd9, 0xd8, 0xed, 0x1d, 0x26, 0x2f, 0x31, 0xcd, 0xd0, 0x0b, 0xd8,
  0x93, 0x0f, 0x15, 0xea, 0x00, 0xeb, 0x10, 0x15, 0x45, 0xca, 0x44, 0x2c,
  0x22, 0x02, 0x33, 0xd7, 0x0e, 0x18, 0xcd, 0x43, 0x03, 0xef, 0xf9, 0x0a,
  0xfa, 0xfe, 0xf2, 0xc0, 0x08, 0x03, 0xf0, 0x05, 0x25, 0x33, 0xf9, 0xfe,
  0x1c, 0x32, 0xf4, 0x1f, 0xca, 0x11, 0x12, 0x15, 0xfa, 0xdc, 0xc5, 0x22,
  0x22, 0xda, 0xd7, 0x32, 0xe7, 0x14, 0x1d, 0x22, 0x25, 0xd9, 0xd2, 0xeb,
  0xe0, 0x06, 0xef, 0xe5, 0xfa, 0xd5, 0xd3, 0x38, 0xff, 0xdc, 0xc8, 0x22,
  0x12, 0xf7, 0xc4, 0x33, 0xc7, 0xde, 0x24, 0x16, 0xe8, 0xd7, 0xf6, 0x25,
  0x06, 0x12, 0x11, 0xf7, 0x16, 0x04, 0xfa, 0xce, 0x1c, 0xe5, 0x30, 0x1b,
  0xc7, 0xda, 0xd4, 0xf7, 0x22, 0x1f, 0x30, 0x0f, 0xf9, 0xe7, 0xc5, 0x17,
  0xc0, 0x10, 0x1d, 0x14, 0x10, 0xfd, 0xed, 0xfa, 0x2d, 0xea, 0x11, 0x26,
  0x1f, 0x38, 0x24, 0xd9, 0x07, 0x1e, 0xf4, 0x0d, 0xef, 0xd2, 0x20, 0x34,
  0x09, 0xd4, 0x01, 0xd9, 0xef, 0x06, 0x0f, 0xf0, 0x20, 0xe9, 0xd1, 0xea,
  0x3e, 0x2b, 0x15, 0xe2, 0xe7, 0x34, 0xd1, 0xdf, 0xc8, 0x23, 0x26, 0x19,
  0xfa, 0x29, 0x2f, 0x17, 0x10, 0xd7, 0xe5, 0xdd, 0xd6, 0xee, 0xc9, 0x19,
  0x2a, 0xcf, 0xdd, 0xea, 0x1d, 0x26, 0x2d, 0x09, 0x01, 0x25, 0xde, 0x16,
  0xd0, 0x16, 0xf0, 0x1b, 0x01, 0x19, 0x1e, 0xff, 0xf7, 0xe5, 0xe0, 0xf5,
  0x0c, 0xdd, 0xea, 0x26, 0xcf, 0xe6, 0xc8, 0x2a, 0xe4, 0xd7, 0x2f, 0xf5,
  0xfc, 0x0a, 0xd7, 0xfc, 0xdf, 0xf6, 0x0c, 0xe7, 0x25, 0xfa, 0xcd, 0x00,
  0x1c, 0xff, 0xcb, 0xf9, 0x0a, 0x17, 0x24, 0xd3, 0xce, 0xdf, 0x2a, 0x13,
  0xc9, 0xf8, 0x27, 0xf4, 0xda, 0xe2, 0x32, 0xd4, 0xf2, 0x22, 0xe6, 0x0a,
  0xea, 0xf7, 0xf7, 0x0d, 0xf9, 0xcd, 0x1a, 0xf7, 0xf7, 0x0d, 0xd8, 0xc9,
  0xdc, 0xfd, 0x35, 0xdd, 0xc9, 0xcf, 0xcc, 0x2a, 0x0a, 0x28, 0x1c, 0x0f,
  0xd8, 0x16, 0xd2, 0xf1, 0xe8, 0x38, 0x30, 0xcc, 0x0b, 0xfd, 0x17, 0xe2,
  0x35, 0x14, 0x38, 0x24, 0x28, 0x1e, 0x33, 0x09, 0x00, 0x35, 0xe5, 0xeb,
  0xca, 0x0d, 0xf9, 0xd0, 0x0e, 0x06, 0xf4, 0xd9, 0xfc, 0xfb, 0xf9, 0x06,
  0x26, 0x16, 0xce, 0x0c, 0xce, 0x00, 0x02, 0x06, 0xe6, 0x32, 0xd1, 0x28,
  0x35, 0xfd, 0xf2, 0xf1, 0x15, 0x2f, 0x10, 0xfc, 0xe7, 0x0f, 0x1a, 0x18,
  0x00, 0x0c, 0xf9, 0x0f, 0x25, 0xfc, 0x09, 0xef, 0xdf, 0xd8, 0x22, 0xcc,
  0x2f, 0xf9, 0xf9, 0x10, 0x10, 0xe7, 0xdd, 0x1d, 0x11, 0xe4, 0xe9, 0x29,
  0xfe, 0x08, 0xda, 0x34, 0x02, 0xdc, 0xce, 0xec, 0xe7, 0x35, 0xdd, 0xe0,
  0x33, 0xea, 0xd2, 0xf6, 0xeb, 0x24, 0x24, 0xd1, 0x07, 0x0d, 0xe7, 0x17,
  0xc2, 0xf0, 0x26, 0x2d, 0x19, 0x2f, 0xcb, 0x26, 0xe7, 0x08, 0xd1, 0xd6,
  0x32, 0xff, 0xd5, 0x27, 0x02, 0xff, 0xea, 0x1f, 0xf9, 0xfe, 0x0b, 0x2d,
  0x13, 0x1f, 0x0e, 0x07, 0x2d, 0xc2, 0x37, 0xe5, 0xdf, 0x32, 0xff, 0x2c,
  0x0b, 0xcd, 0xf8, 0xcc, 0x15, 0xce, 0xe4, 0xf6, 0xc9, 0x01, 0x17, 0xeb,
  0x34, 0xeb, 0x31, 0xea, 0xef, 0x0c, 0x23, 0xf0, 0xdc, 0xe8, 0x3a, 0x1e,
  0x35, 0xdf, 0xd5, 0x25, 0xfb, 0xe0, 0xcf, 0xd0, 0x1c, 0x17, 0x1b, 0x09,
  0xec, 0xea, 0x38, 0x2a, 0xf2, 0xda, 0x1c, 0xfe, 0xe6, 0xe9, 0x34, 0xca,
  0x2f, 0x27, 0xdd, 0xf0, 0x37, 0x28, 0xfe, 0x39, 0xd2, 0xfe, 0x19, 0x0b,
  0x1a, 0x05, 0xe6, 0xeb, 0x2a, 0xd7, 0xde, 0xe2, 0x01, 0xd3, 0xe1, 0xdb,
  0xf7, 0x1c, 0x2f, 0xce, 0xfb, 0x3b, 0xf2, 0x06, 0xe0, 0x17, 0x24, 0xef,
  0x73, 0xe9, 0xf9, 0x02, 0x35, 0x27, 0x3b, 0x1d, 0x14, 0xd6, 0x23, 0x20,
  0x27, 0x0f, 0x0b, 0xd2, 0xfd, 0xd7, 0x1b, 0x01, 0xec, 0xfc, 0x3a, 0xc3,
  0x20, 0xe9, 0xf0, 0x02, 0x23, 0xd2, 0x21, 0x15, 0xf8, 0xe3, 0x30, 0x21,
  0xdb, 0x30, 0xec, 0xdd, 0x1e, 0xed, 0x21, 0xf9, 0xdc, 0x05, 0xe7, 0x24,
  0xd0, 0xe4, 0x0f, 0xcf, 0x26, 0xe5, 0x20, 0x0b, 0xcc, 0xfa, 0xed, 0x2f,
  0x10, 0xf7, 0x03, 0x2c, 0xee, 0x18, 0x17, 0x0f, 0x08, 0xf6, 0x26, 0x29,
  0xf6, 0xd3, 0x2f, 0x19, 0xf5, 0x07, 0x1d, 0x25, 0x35, 0xdf, 0x01, 0x2b,
  0xd1, 0xe3, 0x2a, 0xca, 0xd0, 0xea, 0xef, 0xff, 0x2a, 0xef, 0x2c, 0xed,
  0xc5, 0x31, 0xc5, 0xe3, 0x22, 0xeb, 0x2b, 0xd4, 0xdf, 0xf7, 0x29, 0x1e,
  0x28, 0xe1, 0x23, 0x0b, 0xf4, 0x2f, 0x0f, 0xe7, 0xf2, 0x32, 0x03, 0x36,
  0xeb, 0x2f, 0x37, 0xf2, 0x1e, 0x0a, 0x01, 0x1e, 0xd7, 0x2b, 0xd4, 0xe7,
  0xe7, 0x1f, 0xf6, 0x08, 0x2f, 0xc9, 0x09, 0x15, 0xc7, 0x10, 0xe1, 0xd1,
  0x27, 0xcc, 0x2f, 0xf2, 0xf1, 0xf2, 0x2e, 0xc4, 0xdf, 0x37, 0x29, 0xd4,
  0xdf, 0xde, 0x23, 0x1d, 0x07, 0x18, 0x28, 0xff, 0x1a, 0xd5, 0x2c, 0x10,
  0x07, 0x0b, 0x04, 0xf1, 0xd0, 0x19, 0xeb, 0xd3, 0x2e, 0xeb, 0x1d, 0x25,
  0xd1, 0xd9, 0xd5, 0x17, 0xe9, 0xe4, 0x00, 0xdd, 0xea, 0x37, 0xd3, 0x26,
  0xe9, 0x29, 0x1c, 0xfa, 0xd4, 0xe4, 0xec, 0xc7, 0xcf, 0xf6, 0xf1, 0xe8,
  0x09, 0x18, 0x26, 0x31, 0xdf, 0xca, 0x08, 0x01, 0x11, 0xd8, 0x35, 0xf2,
  0x22, 0x0e, 0x2c, 0x25, 0x1b, 0xda, 0x13, 0x08, 0x0d, 0x11, 0xde, 0x18,
  0x1a, 0xfd, 0xfb, 0xd8, 0xcb, 0xd1, 0xe1, 0xe8, 0x09, 0x35, 0x13, 0xc9,
  0x35, 0xca, 0x26, 0x07, 0xc7, 0xf5, 0xc6, 0xf6, 0xe8, 0x0b, 0x20, 0x09,
  0xe9, 0x07, 0xf5, 0x21, 0xdf, 0x0a, 0x0f, 0xda, 0xf3, 0xf0, 0xf4, 0xde,
  0x09, 0xd7, 0x34, 0x26, 0x29, 0x23, 0xe0, 0xd1, 0x32, 0xff, 0x1f, 0x16,
  0x25, 0xff, 0xce, 0xe9, 0x24, 0xea, 0xcf, 0x14, 0xf2, 0xdf, 0x1e, 0x23,
  0xf5, 0x2b, 0xcb, 0xf4, 0x10, 0x25, 0x01, 0x1f, 0x08, 0xe1, 0xe4, 0xe7,
  0xfe, 0xed, 0x0f, 0xee, 0xfb, 0xe0, 0x21, 0x29, 0x0c, 0x3a, 0x1b, 0x11,
  0xff, 0x1e, 0x24, 0xd7, 0x17, 0xcd, 0xff, 0x2a, 0xe7, 0xfc, 0xeb, 0xda,
  0x36, 0xd2, 0x14, 0x24, 0x15, 0x09, 0xe6, 0x11, 0xf0, 0x26, 0xfa, 0x33,
  0x0f, 0x06, 0xcd, 0x2a, 0x25, 0x1a, 0x28, 0x2d, 0xf0, 0xcd, 0xe1, 0x00,
  0x35, 0x14, 0x2b, 0xd1, 0xf0, 0xef, 0x07, 0xf2, 0x29, 0x29, 0xdf, 0x21,
  0x00, 0xdf, 0x25, 0xd6, 0x25, 0x22, 0xf9, 0x21, 0xe5, 0xe8, 0x22, 0x06,
  0x3b, 0x29, 0x0c, 0xea, 0x25, 0x07, 0x0d, 0x17, 0x27, 0x14, 0x23, 0xe5,
  0x29, 0x09, 0xc4, 0x25, 0x2d, 0xef, 0x24, 0xeb, 0xe5, 0xcc, 0x14, 0xf6,
  0xe5, 0x0c, 0x2e, 0xd6, 0xdf, 0xc7, 0xcf, 0xe2, 0xbd, 0x0c, 0x08, 0xd0,
  0xbb, 0xe0, 0xdb, 0x12, 0x3d, 0x18, 0xdc, 0x06, 0x24, 0xfe, 0x1a, 0xe8,
  0x0a, 0x2a, 0xfa, 0x33, 0xf3, 0xd2, 0x43, 0x37, 0x26, 0x08, 0x19, 0x00,
  0x1f, 0xf3, 0xcc, 0xe3, 0x2c, 0xfd, 0x02, 0x17, 0x00, 0xf8, 0xe3, 0xec,
  0x16, 0x1a, 0xcb, 0x1d, 0xdc, 0x36, 0x05, 0x1a, 0x32, 0xd6, 0xf9, 0x00,
  0xf3, 0x21, 0x26, 0xe9, 0x15, 0x19, 0xeb, 0x3d, 0xea, 0x16, 0x1b, 0x1c,
  0xe6, 0x30, 0x1f, 0x06, 0x1f, 0xe1, 0xe0, 0xe0, 0x0b, 0xfb, 0x3c, 0x02,
  0x3d, 0xff, 0x19, 0x21, 0x16, 0xf5, 0xe0, 0x24, 0x36, 0x16, 0x23, 0x33,
  0x12, 0x07, 0xf3, 0xf9, 0x20, 0xf4, 0xf5, 0xe5, 0xed, 0xb3, 0xee, 0x00,
  0x1c, 0x29, 0xe4, 0xe8, 0xdd, 0xf5, 0x36, 0xcd, 0xb6, 0xc7, 0xfa, 0xd5,
  0xdf, 0x25, 0xd5, 0x35, 0xdd, 0x07, 0xfe, 0x11, 0xec, 0xe5, 0x18, 0x23,
  0x3b, 0xf1, 0xd5, 0x00, 0x0c, 0xe9, 0xf8, 0x46, 0xe3, 0x2c, 0x05, 0x12,
  0x18, 0xf4, 0xce, 0x1b, 0x23, 0xcd, 0xe5, 0x2f, 0xdd, 0xe6, 0x20, 0xe9,
  0xf8, 0xfd, 0x07, 0x32, 0xe6, 0xdb, 0xeb, 0xf9, 0x25, 0xde, 0x36, 0x1c,
  0xcc, 0x05, 0x00, 0xfc, 0x0a, 0x2e, 0xf7, 0x32, 0xdc, 0xe8, 0xf2, 0xca,
  0x2b, 0x2a, 0xd1, 0x0b, 0xde, 0xdd, 0x22, 0x17, 0x10, 0x19, 0xf3, 0x34,
  0xe4, 0x2b, 0x2b, 0xcf, 0xca, 0x0f, 0x25, 0x18, 0x2a, 0x30, 0xe8, 0xd7,
  0x06, 0xe9, 0xe6, 0xf7, 0x28, 0xf1, 0x01, 0x2e, 0x22, 0xd1, 0x2a, 0x36,
  0x08, 0xde, 0xfa, 0x23, 0xe5, 0xd3, 0xc6, 0x36, 0xcc, 0xcc, 0xde, 0x25,
  0x31, 0x30, 0x1e, 0xd9, 0x0d, 0x37, 0x19, 0xc8, 0x14, 0x07, 0xc7, 0xd0,
  0xf0, 0xf9, 0x20, 0xcc, 0x1c, 0xde, 0x15, 0xe8, 0xd7, 0x08, 0xcd, 0x05,
  0x13, 0x12, 0x16, 0xce, 0x26, 0x0c, 0xfa, 0xef, 0xec, 0x05, 0xea, 0xf8,
  0xdf, 0xd1, 0x37, 0x06, 0xd4, 0xec, 0xeb, 0xd5, 0x15, 0x05, 0x10, 0xe7,
  0x34, 0x14, 0x35, 0x04, 0x01, 0x27, 0xcc, 0xcf, 0xd2, 0xef, 0xd2, 0xec,
  0xfe, 0xfe, 0x08, 0xfe, 0xe8, 0xd7, 0xf9, 0x30, 0x15, 0x0f, 0x17, 0xd7,
  0xfd, 0x34, 0x2b, 0x01, 0x13, 0xf9, 0xe6, 0xee, 0xe9, 0x07, 0xce, 0x2f,
  0x08, 0x2e, 0x2d, 0xfe, 0xfa, 0xe5, 0xff, 0xea, 0x1e, 0xf9, 0x0c, 0x09,
  0x11, 0x12, 0xfc, 0x18, 0xe4, 0xf1, 0x02, 0xf9, 0xe7, 0xf2, 0x0a, 0xce,
  0xf8, 0x2e, 0x08, 0xdb, 0xfc, 0xdb, 0x15, 0xd4, 0x34, 0xd2, 0xe2, 0xd2,
  0x01, 0xda, 0x19, 0xe8, 0x1d, 0xf0, 0xe8, 0x21, 0xda, 0xe0, 0xf4, 0x35,
  0x15, 0xdb, 0x29, 0x21, 0x29, 0x33, 0x3a, 0xf8, 0xfe, 0xe2, 0x17, 0x27,
  0xf8, 0xcf, 0xe6, 0x0c, 0x2f, 0xfd, 0xe8, 0x3d, 0x1e, 0xd3, 0xed, 0x1c,
  0xd9, 0xe6, 0x0a, 0x15, 0x05, 0xe3, 0xf5, 0x0e, 0x27, 0x0c, 0x10, 0xf2,
  0x2c, 0xf2, 0x1a, 0xef, 0xe4, 0x21, 0xc8, 0xdf, 0xf0, 0xe8, 0x18, 0xfd,
  0x00, 0xf3, 0x18, 0x30, 0x0d, 0x35, 0xf7, 0xdc, 0xd4, 0xdb, 0x35, 0x0e,
  0xd8, 0x32, 0x0c, 0xf0, 0xea, 0xe3, 0x32, 0x07, 0x36, 0x32, 0x02, 0xf7,
  0x07, 0x0b, 0xe1, 0x0c, 0x36, 0x33, 0xe6, 0x0a, 0xf7, 0x21, 0x3c, 0xd9,
  0xc9, 0x2e, 0x44, 0x16, 0x2e, 0x06, 0x34, 0x14, 0x12, 0x35, 0xfc, 0x21,
  0x34, 0x17, 0xe4, 0x21, 0xed, 0x1a, 0xf8, 0x14, 0x27, 0x1c, 0x2e, 0x02,
  0xed, 0xd1, 0xd8, 0x0f, 0xc9, 0x1f, 0x12, 0x08, 0xd5, 0x04, 0xf3, 0xe7,
  0x31, 0x1d, 0x0b, 0x1f, 0xbd, 0x0c, 0x4a, 0xf8, 0xcf, 0xd2, 0xc3, 0xd1,
  0x1c, 0x1c, 0xfe, 0x11, 0xe4, 0x1d, 0x23, 0xd5, 0xbf, 0xd5, 0xea, 0xdd,
  0x30, 0x39, 0xe9, 0xd8, 0x2d, 0x30, 0x2b, 0xd7, 0xde, 0x02, 0xd5, 0x0f,
  0xf2, 0x30, 0x10, 0x19, 0x2e, 0xe2, 0xfe, 0x4e, 0x24, 0x31, 0x2e, 0x1e,
  0x09, 0xfb, 0xfd, 0xea, 0xde, 0x24, 0xbe, 0x20, 0x09, 0xf1, 0x04, 0xd0,
  0x1d, 0xeb, 0xfb, 0xed, 0xca, 0xdb, 0xce, 0x02, 0x37, 0x22, 0x00, 0xd4,
  0x41, 0xd9, 0x04, 0x42, 0x42, 0x33, 0xf6, 0x02, 0xf5, 0x0f, 0x0d, 0x37,
  0xf0, 0xf2, 0xdf, 0x3d, 0xe9, 0xfe, 0x0d, 0x19, 0xca, 0x04, 0x4b, 0xf9,
  0x21, 0xc9, 0x14, 0x2e, 0x12, 0xef, 0x09, 0x12, 0xeb, 0xed, 0x2e, 0xdc,
  0xe3, 0xff, 0xf7, 0xe4, 0x12, 0xdf, 0xe7, 0x22, 0x3e, 0xe8, 0x27, 0xef,
  0x36, 0x07, 0xef, 0xe0, 0x24, 0xd1, 0x24, 0xdf, 0x00, 0xfd, 0x36, 0xf0,
  0x27, 0x38, 0xff, 0xfd, 0x0d, 0xd4, 0x0a, 0xdf, 0xec, 0xf4, 0x35, 0xd4,
  0xc1, 0xef, 0x05, 0xdd, 0xb3, 0xe9, 0xe3, 0xfd, 0x0d, 0xe4, 0xe8, 0x30,
  0x2b, 0x34, 0xf1, 0xf4, 0x1a, 0x3c, 0xda, 0x17, 0x39, 0x37, 0xad, 0xe0,
  0x4d, 0xf8, 0x11, 0x44, 0xec, 0x3a, 0x1b, 0x24, 0x09, 0xe9, 0xd9, 0xed,
  0x0f, 0xee, 0xb3, 0x36, 0xe1, 0x2f, 0xfc, 0xc4, 0xdc, 0xc5, 0xc1, 0x2b,
  0x18, 0xcd, 0xe9, 0x1f, 0x32, 0x0b, 0xe8, 0xde, 0x23, 0xf1, 0xeb, 0xe6,
  0x23, 0x16, 0xf2, 0x25, 0xe6, 0xf6, 0x14, 0x2b, 0x29, 0x27, 0x1f, 0xcc,
  0xcd, 0x02, 0x36, 0x0f, 0x14, 0x16, 0xf8, 0x05, 0x21, 0x0e, 0x10, 0xfd,
  0x18, 0xf7, 0xd3, 0xde, 0x34, 0xf7, 0xcb, 0x06, 0xd3, 0xef, 0x29, 0x30,
  0xd6, 0x11, 0x1f, 0xff, 0xcc, 0xea, 0x1b, 0xc9, 0x10, 0xdb, 0xca, 0xd5,
  0x27, 0x30, 0x11, 0x2b, 0xef, 0xd9, 0xea, 0xd3, 0xea, 0x1e, 0xdc, 0x15,
  0xdb, 0x0f, 0xf2, 0x06, 0xfa, 0x19, 0xf5, 0x10, 0xee, 0xfe, 0x06, 0xd5,
  0xda, 0xe5, 0x34, 0xf7, 0x30, 0xe3, 0xeb, 0x26, 0x10, 0xd2, 0xe5, 0xdc,
  0xd5, 0x10, 0xe8, 0xea, 0xcb, 0x2e, 0x11, 0xd1, 0x2c, 0x04, 0xf6, 0xe1,
  0x0a, 0xe4, 0x05, 0x01, 0xde, 0xd1, 0xf5, 0x01, 0x0d, 0xce, 0xf3, 0xce,
  0x08, 0xe6, 0xef, 0xeb, 0x33, 0xd2, 0xd6, 0xef, 0xf7, 0x19, 0xee, 0x36,
  0x01, 0xee, 0x12, 0x25, 0xd8, 0x38, 0x23, 0xe0, 0xf1, 0xe3, 0x02, 0xde,
  0xf3, 0x0c, 0xca, 0xd7, 0x09, 0x29, 0x02, 0x41, 0xf0, 0x0d, 0x07, 0x0b,
  0x36, 0x30, 0x4c, 0x16, 0xfd, 0x25, 0x0f, 0xe2, 0x2c, 0xfe, 0x18, 0x07,
  0x3c, 0xf4, 0xf0, 0xef, 0x0f, 0x20, 0x27, 0x0e, 0x34, 0x0e, 0x0b, 0x0a,
  0x23, 0x1a, 0xcf, 0xf2, 0xca, 0x22, 0x13, 0xda, 0xea, 0x18, 0xee, 0x00,
  0x0b, 0x04, 0xf6, 0xfa, 0xca, 0x0d, 0xde, 0xf0, 0xff, 0xa2, 0xc0, 0xe9,
  0xd7, 0x26, 0x2e, 0x01, 0x0f, 0xc4, 0x21, 0xcc, 0xbc, 0x27, 0x28, 0xd4,
  0xf3, 0x00, 0xe8, 0x24, 0xef, 0xdd, 0x25, 0x14, 0xd4, 0xed, 0x27, 0x17,
  0x15, 0x20, 0xef, 0xde, 0x3d, 0x26, 0xb7, 0x34, 0x38, 0xd9, 0x2e, 0xfa,
  0xdb, 0x00, 0xf6, 0xd7, 0xda, 0xd4, 0xd0, 0x2c, 0x02, 0xd8, 0x05, 0x2f,
  0x11, 0x24, 0x03, 0x33, 0xf4, 0x01, 0x05, 0x13, 0x1f, 0x1f, 0xd5, 0x23,
  0x16, 0xfd, 0xc9, 0x2a, 0x1c, 0xdd, 0xf8, 0xe7, 0xf4, 0xdd, 0x24, 0x32,
  0x16, 0xd1, 0x27, 0x1b, 0xe5, 0xfa, 0x02, 0x0a, 0x09, 0xe8, 0x05, 0xdd,
  0x27, 0x11, 0xe0, 0xc9, 0xf8, 0xf3, 0x2c, 0xdd, 0x0b, 0x11, 0x28, 0x0c,
  0xf1, 0x2f, 0x05, 0xeb, 0x0b, 0xd8, 0xeb, 0x24, 0xd8, 0x2e, 0xf2, 0xcc,
  0x08, 0xdd, 0xf0, 0xe9, 0x1a, 0xc8, 0xca, 0xf4, 0xd3, 0x0c, 0x23, 0xe8,
  0xc6, 0x08, 0xff, 0xed, 0x1c, 0x1a, 0xe4, 0x12, 0x1e, 0x18, 0x01, 0x06,
  0x1c, 0x34, 0xcc, 0xca, 0x26, 0xc3, 0xee, 0x01, 0xf7, 0x06, 0x33, 0x0f,
  0x15, 0xe1, 0xce, 0x08, 0xfb, 0xef, 0xf9, 0x10, 0xe5, 0x03, 0x0f, 0xf6,
  0xe8, 0xe5, 0xf2, 0x03, 0x2c, 0x20, 0x27, 0x01, 0x0f, 0xd6, 0xfd, 0x18,
  0x2c, 0x35, 0x29, 0xcd, 0x2f, 0x20, 0x01, 0x00, 0x35, 0x03, 0x0f, 0xe4,
  0xf8, 0xf9, 0x36, 0x17, 0xfe, 0xeb, 0x2d, 0x43, 0x3f, 0xee, 0x19, 0x0a,
  0xfd, 0xfa, 0x0b, 0xfe, 0x30, 0x0b, 0xec, 0xfb, 0x2f, 0xf2, 0xef, 0xef,
  0x21, 0x2e, 0xf7, 0xd3, 0x2c, 0xcc, 0x45, 0xf6, 0xe7, 0xe0, 0xcf, 0xe0,
  0x31, 0x29, 0xe4, 0x04, 0x33, 0xed, 0x35, 0x11, 0xd0, 0xc8, 0x1b, 0xe6,
  0x2e, 0x1d, 0x33, 0xe4, 0x19, 0x2c, 0xef, 0x32, 0xd6, 0xd6, 0x03, 0xe4,
  0x2b, 0x04, 0xf2, 0x0e, 0xfb, 0xf1, 0xd2, 0x0d, 0xf9, 0x2a, 0xe0, 0x21,
  0xde, 0xed, 0xc6, 0xd0, 0xcc, 0x03, 0xd6, 0x0c, 0xeb, 0x10, 0x35, 0xf7,
  0xf4, 0x1b, 0x1d, 0x33, 0x34, 0x28, 0x19, 0xf4, 0xf4, 0x22, 0xe3, 0xcc,
  0x23, 0x0b, 0x11, 0x0c, 0x09, 0x10, 0xd4, 0x3e, 0x66, 0xf0, 0xfc, 0x3c,
  0xe8, 0x4b, 0xe6, 0xbf, 0xcb, 0x09, 0x07, 0xd4, 0x44, 0x1b, 0xe6, 0x29,
  0x01, 0xca, 0x22, 0x2b, 0x1f, 0x1b, 0xc5, 0xd2, 0xef, 0xc9, 0x11, 0x3f,
  0x3a, 0xd4, 0xcc, 0x06, 0xfd, 0x0c, 0x06, 0x06, 0xfc, 0xcd, 0x11, 0x1e,
  0xe7, 0xe4, 0xf3, 0xd4, 0xe3, 0x1f, 0x22, 0x2f, 0x10, 0xd3, 0xe3, 0xea,
  0x09, 0xcb, 0x03, 0xf1, 0x30, 0x02, 0x17, 0xfe, 0x06, 0x0e, 0x04, 0x1a,
  0x45, 0x20, 0xf3, 0x29, 0x07, 0xf0, 0x34, 0x09, 0xfa, 0x3b, 0x07, 0xf7,
  0x08, 0xef, 0xef, 0x06, 0xe4, 0xf6, 0xcd, 0x3c, 0x10, 0xd5, 0x1d, 0xd2,
  0xe0, 0xfd, 0xd3, 0xd5, 0xc8, 0x16, 0xdb, 0x02, 0xea, 0x04, 0xb4, 0x22,
  0xcf, 0xd1, 0x00, 0x24, 0x0f, 0x11, 0xee, 0xc9, 0xaa, 0xd3, 0x22, 0xe8,
  0x2d, 0x0d, 0xf7, 0xef, 0x2e, 0xe9, 0xe9, 0xd6, 0xef, 0x44, 0xda, 0x1c,
  0x3e, 0x2d, 0x20, 0x1a, 0x0b, 0x21, 0x11, 0x2e, 0xfc, 0x3f, 0x1a, 0x2a,
  0x1d, 0x4a, 0xb9, 0xff, 0x34, 0x2a, 0xd9, 0x16, 0xef, 0x0b, 0xf9, 0xc2,
  0x13, 0xdc, 0x06, 0xe9, 0xf1, 0x08, 0x36, 0x41, 0xb6, 0xfb, 0xff, 0xff,
  0x04, 0x00, 0x00, 0x00, 0x0c, 0x00, 0x00, 0x00, 0xff, 0xff, 0xff, 0xff,
  0x04, 0x00, 0x00, 0x00, 0x40, 0x00, 0x00, 0x00, 0xce, 0xfb, 0xff, 0xff,
  0x04, 0x00, 0x00, 0x00, 0x00, 0x02, 0x00, 0x00, 0x74, 0x7c, 0x77, 0xbc,
  0xa5, 0xb7, 0xfd, 0x3d, 0x27, 0xbd, 0x09, 0x3e, 0xe2, 0x2e, 0x8a, 0xbd,
  0x6e, 0xb7, 0x51, 0x3e, 0x9d, 0x2c, 0x4b, 0xbe, 0x78, 0x58, 0x5b, 0x3e,
  0x3f, 0x1d, 0x71, 0x3d, 0x4c, 0x67, 0x58, 0x3d, 0xe5, 0xa4, 0xa5, 0x3d,
  0x3b, 0xa1, 0x17, 0xbe, 0xd5, 0xbb, 0x4f, 0x3e, 0x95, 0x7a, 0xc1, 0xbd,
  0x22, 0x72, 0x23, 0x3e, 0x7a, 0x3c, 0x09, 0x3e, 0xa1, 0xf6, 0xb1, 0x3c,
  0x55, 0xdd, 0x12, 0x3e, 0x9e, 0x6f, 0x0e, 0x3e, 0x6a, 0xa3, 0x20, 0xbe,
  0x7c, 0x03, 0x15, 0x3b, 0x37, 0xff, 0xbb, 0xbd, 0x75, 0x84, 0x59, 0xbd,
  0xb3, 0x20, 0x93, 0x3d, 0x67, 0x40, 0x1f, 0x3e, 0xa8, 0x80, 0x0e, 0x3d,
  0xac, 0x1d, 0xa6, 0x3d, 0x5b, 0x13, 0x74, 0xbe, 0x90, 0xa0, 0x34, 0x3d,
  0x64, 0xe8, 0xec, 0xbd, 0xb2, 0x72, 0x82, 0x3d, 0x7c, 0x43, 0x46, 0x3e,
  0x3b, 0xa0, 0x36, 0x3e, 0x12, 0x9b, 0x2d, 0xbe, 0x8b, 0xe8, 0x28, 0x3e,
  0x51, 0x50, 0xc3, 0x3c, 0xec, 0x82, 0x44, 0x3e, 0xe9, 0xb1, 0x11, 0xbe,
  0x14, 0x56, 0x5c, 0xbe, 0x07, 0x28, 0x47, 0x3e, 0xb7, 0x7b, 0x6d, 0x3d,
  0xec, 0xdf, 0x13, 0xbe, 0xef, 0x3d, 0x27, 0x3d, 0xc0, 0x5b, 0xcb, 0xbd,
  0x00, 0xe1, 0xcc, 0xbd, 0xe5, 0xe4, 0xa0, 0xbd, 0x02, 0x80, 0x02, 0x3e,
  0x49, 0xd5, 0xf3, 0xbd, 0x7a, 0x5b, 0x61, 0xbe, 0x76, 0x14, 0x2a, 0x3d,
  0x78, 0x0c, 0xbb, 0xbc, 0x6d, 0x60, 0x31, 0xbe, 0x62, 0x52, 0x76, 0xbe,
  0x0f, 0x83, 0x57, 0x3d, 0x51, 0x9a, 0xd6, 0xbc, 0xff, 0xec, 0x0e, 0x3d,
  0x93, 0x2b, 0xfe, 0x3d, 0xb2, 0x26, 0xd7, 0x3d, 0x82, 0xd0, 0x19, 0x3e,
  0x8a, 0x10, 0x41, 0xbd, 0x2e, 0xc2, 0x26, 0xbe, 0xb8, 0x13, 0xed, 0xbd,
  0x8e, 0x1d, 0x44, 0x3d, 0x3a, 0x40, 0x42, 0xbe, 0x9f, 0x69, 0xad, 0xbd,
  0x34, 0x15, 0x25, 0xbe, 0x36, 0xe1, 0x59, 0xbe, 0x85, 0x11, 0x55, 0x3e,
  0xec, 0x23, 0x6b, 0xbe, 0xe8, 0x08, 0x0f, 0xbd, 0xd8, 0x8b, 0x30, 0x3e,
  0xa5, 0xe9, 0x85, 0xbb, 0xab, 0x12, 0x94, 0xbd, 0xf6, 0xf7, 0x25, 0x3e,
  0x0a, 0x5b, 0x2d, 0xbe, 0x45, 0xf2, 0x2c, 0x3e, 0xf1, 0xce, 0xcf, 0x3d,
  0x3f, 0x84, 0x57, 0xbe, 0x4f, 0x63, 0xec, 0x3d, 0xdc, 0x49, 0x87, 0x3d,
  0x09, 0x5d, 0x32, 0xbe, 0xdf, 0xd3, 0xef, 0x3b, 0x1b, 0x50, 0x1c, 0xbe,
  0x63, 0xd9, 0xa4, 0x3d, 0x29, 0xe5, 0x25, 0xbd, 0x23, 0x27, 0x5c, 0x3e,
  0x33, 0x4c, 0x22, 0x3d, 0x92, 0x26, 0x53, 0x3c, 0xe8, 0x1e, 0x00, 0x3e,
  0xcf, 0x90, 0x12, 0x3e, 0x00, 0xb2, 0x2c, 0x3e, 0xcd, 0x3c, 0xb6, 0xbd,
  0x06, 0x73, 0x3a, 0xbe, 0x7c, 0x9d, 0xa9, 0xbd, 0xfb, 0xe9, 0x0e, 0x3e,
  0xa7, 0xb7, 0x5d, 0xbd, 0xa5, 0x1b, 0xea, 0xbd, 0xf1, 0xe6, 0x36, 0x3e,
  0xe4, 0xd6, 0xe8, 0xbd, 0xa9, 0x65, 0x15, 0x3d, 0x91, 0xf6, 0xc5, 0x3d,
  0x5f, 0x6e, 0xdb, 0xbd, 0xfb, 0x5a, 0xd8, 0x3d, 0xf1, 0xb2, 0x4c, 0x3e,
  0xca, 0x42, 0x35, 0xbe, 0xb9, 0xc2, 0xc1, 0x3d, 0xbb, 0x65, 0x5c, 0xbe,
  0x39, 0x61, 0xa1, 0xbc, 0xef, 0xe3, 0x97, 0x3d, 0x61, 0xaf, 0xc7, 0x3d,
  0xb2, 0x87, 0x3d, 0xbe, 0xc2, 0xb1, 0x2f, 0x3d, 0xbe, 0x39, 0x56, 0x3e,
  0x8b, 0xcf, 0xf0, 0xbd, 0xdb, 0xc7, 0x5d, 0xbe, 0xa7, 0x23, 0x88, 0x3d,
  0x13, 0xb6, 0x4f, 0x3e, 0xb9, 0x6c, 0xdb, 0xbd, 0xc4, 0x9d, 0x40, 0x3e,
  0xbc, 0xc5, 0x3b, 0xbe, 0xbd, 0x98, 0xab, 0xbd, 0xbe, 0x15, 0x26, 0x3e,
  0x36, 0x6b, 0xc0, 0x3d, 0xb5, 0xc6, 0xe2, 0x3d, 0xd9, 0x14, 0x2b, 0x3e,
  0xa9, 0xa9, 0xc4, 0xba, 0xe2, 0x62, 0x69, 0xbe, 0xac, 0x2c, 0x3a, 0x3e,
  0x9d, 0x23, 0x01, 0xbe, 0xda, 0xfd, 0xff, 0xff, 0x04, 0x00, 0x00, 0x00,
  0xc8, 0x00, 0x00, 0x00, 0x48, 0x38, 0x38, 0xbe, 0xb4, 0x14, 0xfc, 0x3d,
  0x0b, 0xfd, 0xa6, 0xbe, 0x78, 0xce, 0x38, 0x3e, 0xef, 0xce, 0x23, 0x3e,
  0x5f, 0x79, 0x3d, 0x3e, 0xde, 0xd6, 0x93, 0xbd, 0x70, 0x36, 0xc0, 0x3e,
  0xd1, 0xf3, 0x57, 0x3e, 0x28, 0x2c, 0x13, 0x3e, 0xf2, 0xd6, 0xad, 0x3e,
  0x94, 0x42, 0xc5, 0x3c, 0xd0, 0x00, 0x2e, 0xbe, 0x54, 0x61, 0x20, 0x3d,
  0x77, 0x4a, 0xba, 0xbe, 0xc7, 0xe0, 0x96, 0x3e, 0xad, 0x3d, 0xbe, 0x3e,
  0x24, 0xc3, 0xb8, 0x3e, 0x80, 0x60, 0xa1, 0xbe, 0xf7, 0xfe, 0xa0, 0xbe,
  0x03, 0xd5, 0x4f, 0xbe, 0x89, 0xd9, 0x96, 0x3e, 0x70, 0xba, 0x7b, 0x3e,
  0xab, 0x6e, 0x6b, 0xbe, 0xc0, 0x83, 0x6b, 0x3c, 0x5b, 0x56, 0xa0, 0xbe,
  0x91, 0xe9, 0xb9, 0xbe, 0xdc, 0xe4, 0xde, 0x3d, 0x22, 0xc4, 0x07, 0xbe,
  0x04, 0x6c, 0x8a, 0x3e, 0xcd, 0x2f, 0x9f, 0x3e, 0x8d, 0xb9, 0x61, 0x3e,
  0x17, 0x86, 0xd9, 0x3e, 0xf1, 0x38, 0x8e, 0xbe, 0x38, 0xae, 0x79, 0xbd,
  0x1d, 0x21, 0x9a, 0xbe, 0xba, 0xa6, 0x8c, 0x3e, 0x3b, 0xeb, 0xa1, 0xbe,
  0x79, 0xc6, 0x98, 0xbe, 0xd2, 0x59, 0x41, 0x3e, 0xe7, 0xb0, 0x90, 0xbe,
  0xb6, 0xd1, 0x3c, 0x3e, 0xe8, 0xba, 0x47, 0xbe, 0x32, 0x6e, 0x03, 0xbe,
  0xc9, 0x11, 0xa0, 0xbe, 0x50, 0x3c, 0xa6, 0x3e, 0x0c, 0x9f, 0x63, 0xbe,
  0x60, 0x4d, 0x7c, 0xbd, 0xa0, 0xdc, 0xa8, 0xbe, 0x7b, 0xaf, 0x91, 0xbe,
  0xae, 0xfe, 0xff, 0xff, 0x04, 0x00, 0x00, 0x00, 0x04, 0x00, 0x00, 0x00,
  0xfd, 0xff, 0xff, 0xff, 0xbe, 0xfe, 0xff, 0xff, 0x04, 0x00, 0x00, 0x00,
  0x08, 0x00, 0x00, 0x00, 0xff, 0xff, 0xff, 0xff, 0x80, 0x00, 0x00, 0x00,
  0xd2, 0xfe, 0xff, 0xff, 0x04, 0x00, 0x00, 0x00, 0x04, 0x00, 0x00, 0x00,
  0x02, 0x00, 0x00, 0x00, 0xe2, 0xfe, 0xff, 0xff, 0x04, 0x00, 0x00, 0x00,
  0x00, 0x01, 0x00, 0x00, 0x3d, 0x1d, 0xa5, 0x3b, 0x7a, 0xb6, 0x54, 0x3c,
  0xe5, 0xc2, 0x92, 0x3b, 0x6e, 0x6f, 0xca, 0xbb, 0x4a, 0xff, 0xa7, 0x3b,
  0xb3, 0xce, 0x36, 0x3c, 0x99, 0xad, 0x59, 0x3c, 0xbd, 0x99, 0xb6, 0x39,
  0xed, 0x8b, 0x59, 0xbc, 0x6f, 0xc0, 0x14, 0x3d, 0xdc, 0xa9, 0x93, 0xbc,
  0xb0, 0x5b, 0x2a, 0xbc, 0x09, 0xf0, 0x9c, 0xbc, 0xdd, 0x23, 0xd3, 0x3c,
  0xe6, 0x17, 0x2c, 0xbc, 0xbd, 0x37, 0x73, 0x3a, 0x48, 0x12, 0x3c, 0x3b,
  0xaf, 0x03, 0x33, 0xbc, 0x08, 0x6e, 0xfe, 0xbc, 0x79, 0xf1, 0xa0, 0x3b,
  0xcc, 0x6b, 0x08, 0x3d, 0xd5, 0xc7, 0x03, 0xbd, 0x5a, 0x17, 0x10, 0x3c,
  0x31, 0x14, 0x9c, 0xbc, 0x48, 0xc9, 0x8e, 0xba, 0x9b, 0xb0, 0x91, 0xbb,
  0xf7, 0x48, 0x21, 0xbb, 0xa3, 0x4b, 0x82, 0xbb, 0x8f, 0x27, 0x25, 0xbb,
  0xed, 0x4c, 0x96, 0xbc, 0x13, 0xfb, 0x4e, 0xbc, 0x99, 0x94, 0x5e, 0x3c,
  0x7f, 0x08, 0x78, 0xbc, 0x39, 0x29, 0xdd, 0x3c, 0x5b, 0xc7, 0xff, 0xbb,
  0xbf, 0x2e, 0xc2, 0x3c, 0x30, 0x8b, 0xc6, 0x3b, 0xb4, 0x9e, 0x45, 0x3a,
  0xea, 0x99, 0xbb, 0x3c, 0x41, 0xb8, 0x15, 0x3d, 0xa2, 0x97, 0xe2, 0xbc,
  0xc0, 0xf3, 0xfb, 0x3a, 0xfa, 0x0c, 0x61, 0xbb, 0x46, 0x84, 0x89, 0x3b,
  0x3f, 0x33, 0x9b, 0x3c, 0xa0, 0xa5, 0x82, 0xbc, 0xfb, 0x1d, 0x6f, 0x3c,
  0x3d, 0x59, 0x1c, 0xbd, 0x5b, 0xa3, 0x22, 0x3c, 0x09, 0xc2, 0x62, 0xbc,
  0x0f, 0xda, 0x35, 0x3c, 0x4f, 0x27, 0x84, 0x3c, 0x07, 0x6f, 0x89, 0xbb,
  0xf0, 0xd8, 0x2e, 0x3c, 0x19, 0xe5, 0xfe, 0x3c, 0x2c, 0x55, 0x7f, 0x3c,
  0xb3, 0xac, 0xaf, 0xbc, 0x62, 0x91, 0xac, 0xbc, 0x79, 0x68, 0x4f, 0x3c,
  0x46, 0xc7, 0x9c, 0xbc, 0x6d, 0x7c, 0x33, 0x3c, 0x43, 0x0d, 0xe1, 0xbb,
  0xf3, 0x26, 0xe4, 0x3c, 0x83, 0x81, 0x3c, 0x3c, 0xee, 0xff, 0xff, 0xff,
  0x04, 0x00, 0x00, 0x00, 0x04, 0x00, 0x00, 0x00, 0x4f, 0x16, 0x35, 0x3c,
  0x00, 0x00, 0x06, 0x00, 0x08, 0x00, 0x04, 0x00, 0x06, 0x00, 0x00, 0x00,
  0x04, 0x00, 0x00, 0x00, 0xc8, 0x00, 0x00, 0x00, 0x46, 0xd2, 0x03, 0xbb,
  0x16, 0x97, 0x3e, 0x3c, 0x1e, 0x06, 0x47, 0xbc, 0x9a, 0xe7, 0x42, 0x3c,
  0x3b, 0x9a, 0xcb, 0xba, 0xc2, 0x14, 0x41, 0x3c, 0x14, 0x8e, 0x1f, 0x3c,
  0x56, 0x61, 0x82, 0x3c, 0x36, 0x4d, 0xa8, 0x3c, 0x00, 0x00, 0x00, 0x00,
  0xd9, 0x8c, 0x49, 0xbb, 0x99, 0xc6, 0x70, 0x3c, 0xbf, 0x1d, 0x37, 0x3c,
  0x84, 0xa0, 0x55, 0x3c, 0xac, 0x03, 0xb6, 0xbb, 0xc0, 0x99, 0x38, 0x3c,
  0x04, 0xed, 0x39, 0x3c, 0x37, 0x30, 0x3d, 0x3c, 0x72, 0x2b, 0x2c, 0xbc,
  0xf5, 0xeb, 0x7f, 0x3c, 0x8c, 0x07, 0x9a, 0x3c, 0x0f, 0x6a, 0x1d, 0xbc,
  0x01, 0xe9, 0x98, 0xbb, 0xcc, 0x60, 0x85, 0x3b, 0x00, 0x00, 0x00, 0x00,
  0x04, 0x16, 0x18, 0xbc, 0xfe, 0xb5, 0x03, 0x3a, 0x85, 0xdd, 0x20, 0xbb,
  0xa9, 0xde, 0xa7, 0xbb, 0x94, 0x8e, 0x3e, 0x3c, 0x0e, 0x5a, 0x4e, 0xbb,
  0x14, 0xb1, 0xcc, 0xbb, 0xef, 0x27, 0x90, 0x3c, 0x42, 0x59, 0x31, 0xbc,
  0x00, 0x00, 0x00, 0x00, 0x8f, 0x15, 0xf5, 0xba, 0x13, 0xa7, 0xb8, 0x38,
  0xae, 0xb4, 0x45, 0xbc, 0x00, 0x5e, 0xbf, 0xbb, 0x0c, 0x2c, 0x3a, 0x3c,
  0x10, 0xb8, 0xac, 0x3c, 0x32, 0xdc, 0xf6, 0xbb, 0x7a, 0xbb, 0xb8, 0xbb,
  0x2f, 0x0e, 0x97, 0x3c, 0xde, 0x60, 0x99, 0x3c, 0x0a, 0x02, 0x5b, 0xbb,
  0x8d, 0xc7, 0x5f, 0x3c, 0xa3, 0xd6, 0x43, 0xbc, 0x3f, 0xc0, 0xb3, 0x3c,
  0xb4, 0x59, 0xe6, 0x3b, 0xcc, 0xf5, 0xff, 0xff, 0xd0, 0xf5, 0xff, 0xff,
  0x0f, 0x00, 0x00, 0x00, 0x4d, 0x4c, 0x49, 0x52, 0x20, 0x43, 0x6f, 0x6e,
  0x76, 0x65, 0x72, 0x74, 0x65, 0x64, 0x2e, 0x00, 0x01, 0x00, 0x00, 0x00,
  0x14, 0x00, 0x00, 0x00, 0x00, 0x00, 0x0e, 0x00, 0x18, 0x00, 0x14, 0x00,
  0x10, 0x00, 0x0c, 0x00, 0x08, 0x00, 0x04, 0x00, 0x0e, 0x00, 0x00, 0x00,
  0x14, 0x00, 0x00, 0x00, 0x1c, 0x00, 0x00, 0x00, 0x20, 0x02, 0x00, 0x00,
  0x24, 0x02, 0x00, 0x00, 0x28, 0x02, 0x00, 0x00, 0x04, 0x00, 0x00, 0x00,
  0x6d, 0x61, 0x69, 0x6e, 0x00, 0x00, 0x00, 0x00, 0x08, 0x00, 0x00, 0x00,
  0xd8, 0x01, 0x00, 0x00, 0x74, 0x01, 0x00, 0x00, 0x3c, 0x01, 0x00, 0x00,
  0x00, 0x01, 0x00, 0x00, 0xac, 0x00, 0x00, 0x00, 0x84, 0x00, 0x00, 0x00,
  0x3c, 0x00, 0x00, 0x00, 0x04, 0x00, 0x00, 0x00, 0xb6, 0xfe, 0xff, 0xff,
  0x14, 0x00, 0x00, 0x00, 0x00, 0x00, 0x00, 0x08, 0x10, 0x00, 0x00, 0x00,
  0x14, 0x00, 0x00, 0x00, 0x04, 0x00, 0x00, 0x00, 0x60, 0xf6, 0xff, 0xff,
  0x01, 0x00, 0x00, 0x00, 0x12, 0x00, 0x00, 0x00, 0x03, 0x00, 0x00, 0x00,
  0x11, 0x00, 0x00, 0x00, 0x07, 0x00, 0x00, 0x00, 0x02, 0x00, 0x00, 0x00,
  0xea, 0xfe, 0xff, 0xff, 0x20, 0x00, 0x00, 0x00, 0x00, 0x00, 0x00, 0x08,
  0x20, 0x00, 0x00, 0x00, 0x24, 0x00, 0x00, 0x00, 0x04, 0x00, 0x00, 0x00,
  0x0c, 0x00, 0x08, 0x00, 0x07, 0x00, 0x00, 0x00, 0x00, 0x00, 0x06, 0x00,
  0x0c, 0x00, 0x00, 0x00, 0x00, 0x00, 0x01, 0x01, 0x01, 0x00, 0x00, 0x00,
  0x11, 0x00, 0x00, 0x00, 0x03, 0x00, 0x00, 0x00, 0x10, 0x00, 0x00, 0x00,
  0x0a, 0x00, 0x00, 0x00, 0x01, 0x00, 0x00, 0x00, 0x5e, 0xff, 0xff, 0xff,
  0x0c, 0x00, 0x00, 0x00, 0x10, 0x00, 0x00, 0x00, 0x02, 0x00, 0x00, 0x00,
  0x01, 0x00, 0x00, 0x00, 0x10, 0x00, 0x00, 0x00, 0x02, 0x00, 0x00, 0x00,
  0x0f, 0x00, 0x00, 0x00, 0x05, 0x00, 0x00, 0x00, 0x52, 0xff, 0xff, 0xff,
  0x24, 0x00, 0x00, 0x00, 0x00, 0x00, 0x00, 0x05, 0x34, 0x00, 0x00, 0x00,
  0x38, 0x00, 0x00, 0x00, 0x03, 0x00, 0x00, 0x00, 0x00, 0x00, 0x0e, 0x00,
  0x18, 0x00, 0x17, 0x00, 0x10, 0x00, 0x0c, 0x00, 0x08, 0x00, 0x04, 0x00,
  0x0e, 0x00, 0x00, 0x00, 0x02, 0x00, 0x00, 0x00, 0x01, 0x00, 0x00, 0x00,
  0x02, 0x00, 0x00, 0x00, 0x01, 0x00, 0x00, 0x00, 0x00, 0x00, 0x00, 0x01,
  0x01, 0x00, 0x00, 0x00, 0x0f, 0x00, 0x00, 0x00, 0x01, 0x00, 0x00, 0x00,
  0x0e, 0x00, 0x00, 0x00, 0x42, 0xff, 0xff, 0xff, 0x10, 0x00, 0x00, 0x00,
  0x00, 0x00, 0x00, 0x34, 0x0c, 0x00, 0x00, 0x00, 0x10, 0x00, 0x00, 0x00,
  0x48, 0xf7, 0xff, 0xff, 0x01, 0x00, 0x00, 0x00, 0x0e, 0x00, 0x00, 0x00,
  0x02, 0x00, 0x00, 0x00, 0x0d, 0x00, 0x00, 0x00, 0x04, 0x00, 0x00, 0x00,
  0x00, 0x00, 0x0a, 0x00, 0x10, 0x00, 0x0c, 0x00, 0x08, 0x00, 0x04, 0x00,
  0x0a, 0x00, 0x00, 0x00, 0x0c, 0x00, 0x00, 0x00, 0x10, 0x00, 0x00, 0x00,
  0x02, 0x00, 0x00, 0x00, 0x01, 0x00, 0x00, 0x00, 0x0d, 0x00, 0x00, 0x00,
  0x02, 0x00, 0x00, 0x00, 0x0c, 0x00, 0x00, 0x00, 0x09, 0x00, 0x00, 0x00,
  0x00, 0x00, 0x0e, 0x00, 0x18, 0x00, 0x14, 0x00, 0x10, 0x00, 0x0c, 0x00,
  0x0b, 0x00, 0x04, 0x00, 0x0e, 0x00, 0x00, 0x00, 0x20, 0x00, 0x00, 0x00,
  0x00, 0x00, 0x00, 0x01, 0x2c, 0x00, 0x00, 0x00, 0x30, 0x00, 0x00, 0x00,
  0x01, 0x00, 0x00, 0x00, 0x0c, 0x00, 0x14, 0x00, 0x13, 0x00, 0x0c, 0x00,
  0x08, 0x00, 0x07, 0x00, 0x0c, 0x00, 0x00, 0x00, 0x00, 0x00, 0x00, 0x01,
  0x01, 0x00, 0x00, 0x00, 0x01, 0x00, 0x00, 0x00, 0x00, 0x00, 0x00, 0x01,
  0x01, 0x00, 0x00, 0x00, 0x0c, 0x00, 0x00, 0x00, 0x03, 0x00, 0x00, 0x00,
  0x0b, 0x00, 0x00, 0x00, 0x08, 0x00, 0x00, 0x00, 0x03, 0x00, 0x00, 0x00,
  0x00, 0x00, 0x0e, 0x00, 0x14, 0x00, 0x00, 0x00, 0x10, 0x00, 0x0c, 0x00,
  0x0b, 0x00, 0x04, 0x00, 0x0e, 0x00, 0x00, 0x00, 0x10, 0x00, 0x00, 0x00,
  0x00, 0x00, 0x00, 0x34, 0x0c, 0x00, 0x00, 0x00, 0x10, 0x00, 0x00, 0x00,
  0x14, 0xf8, 0xff, 0xff, 0x01, 0x00, 0x00, 0x00, 0x0b, 0x00, 0x00, 0x00,
  0x02, 0x00, 0x00, 0x00, 0x00, 0x00, 0x00, 0x00, 0x06, 0x00, 0x00, 0x00,
  0x01, 0x00, 0x00, 0x00, 0x12, 0x00, 0x00, 0x00, 0x01, 0x00, 0x00, 0x00,
  0x00, 0x00, 0x00, 0x00, 0x13, 0x00, 0x00, 0x00, 0x98, 0x07, 0x00, 0x00,
  0x34, 0x07, 0x00, 0x00, 0xd0, 0x06, 0x00, 0x00, 0x7c, 0x06, 0x00, 0x00,
  0x2c, 0x06, 0x00, 0x00, 0xd4, 0x05, 0x00, 0x00, 0x84, 0x05, 0x00, 0x00,
  0x3c, 0x05, 0x00, 0x00, 0xec, 0x04, 0x00, 0x00, 0x9c, 0x04, 0x00, 0x00,
  0x28, 0x04, 0x00, 0x00, 0xb8, 0x03, 0x00, 0x00, 0xd8, 0x02, 0x00, 0x00,
  0x18, 0x02, 0x00, 0x00, 0xa8, 0x01, 0x00, 0x00, 0x38, 0x01, 0x00, 0x00,
  0xe0, 0x00, 0x00, 0x00, 0x5c, 0x00, 0x00, 0x00, 0x04, 0x00, 0x00, 0x00,
  0xc8, 0xf8, 0xff, 0xff, 0x14, 0x00, 0x00, 0x00, 0x1c, 0x00, 0x00, 0x00,
  0x1c, 0x00, 0x00, 0x00, 0x13, 0x00, 0x00, 0x00, 0x34, 0x00, 0x00, 0x00,
  0x02, 0x00, 0x00, 0x00, 0xff, 0xff, 0xff, 0xff, 0x01, 0x00, 0x00, 0x00,
  0xb0, 0xf8, 0xff, 0xff, 0x19, 0x00, 0x00, 0x00, 0x53, 0x74, 0x61, 0x74,
  0x65, 0x66, 0x75, 0x6c, 0x50, 0x61, 0x72, 0x74, 0x69, 0x74, 0x69, 0x6f,
  0x6e, 0x65, 0x64, 0x43, 0x61, 0x6c, 0x6c, 0x3a, 0x30, 0x00, 0x00, 0x00,
  0x02, 0x00, 0x00, 0x00, 0x01, 0x00, 0x00, 0x00, 0x01, 0x00, 0x00, 0x00,
  0x1c, 0xf9, 0xff, 0xff, 0x14, 0x00, 0x00, 0x00, 0x1c, 0x00, 0x00, 0x00,
  0x1c, 0x00, 0x00, 0x00, 0x12, 0x00, 0x00, 0x00, 0x60, 0x00, 0x00, 0x00,
  0x02, 0x00, 0x00, 0x00, 0xff, 0xff, 0xff, 0xff, 0x32, 0x00, 0x00, 0x00,
  0x04, 0xf9, 0xff, 0xff, 0x46, 0x00, 0x00, 0x00, 0x73, 0x65, 0x71, 0x75,
  0x65, 0x6e, 0x74, 0x69, 0x61, 0x6c, 0x2f, 0x64, 0x65, 0x6e, 0x73, 0x65,
  0x2f, 0x4d, 0x61, 0x74, 0x4d, 0x75, 0x6c, 0x3b, 0x73, 0x65, 0x71, 0x75,
  0x65, 0x6e, 0x74, 0x69, 0x61, 0x6c, 0x2f, 0x64, 0x65, 0x6e, 0x73, 0x65,
  0x2f, 0x52, 0x65, 0x6c, 0x75, 0x3b, 0x73, 0x65, 0x71, 0x75, 0x65, 0x6e,
  0x74, 0x69, 0x61, 0x6c, 0x2f, 0x64, 0x65, 0x6e, 0x73, 0x65, 0x2f, 0x42,
  0x69, 0x61, 0x73, 0x41, 0x64, 0x64, 0x00, 0x00, 0x02, 0x00, 0x00, 0x00,
  0x01, 0x00, 0x00, 0x00, 0x32, 0x00, 0x00, 0x00, 0x9c, 0xf9, 0xff, 0xff,
  0x14, 0x00, 0x00, 0x00, 0x1c, 0x00, 0x00, 0x00, 0x1c, 0x00, 0x00, 0x00,
  0x11, 0x00, 0x00, 0x00, 0x34, 0x00, 0x00, 0x00, 0x02, 0x00, 0x00, 0x00,
  0xff, 0xff, 0xff, 0xff, 0x80, 0x00, 0x00, 0x00, 0x84, 0xf9, 0xff, 0xff,
  0x1a, 0x00, 0x00, 0x00, 0x73, 0x65, 0x71, 0x75, 0x65, 0x6e, 0x74, 0x69,
  0x61, 0x6c, 0x2f, 0x66, 0x6c, 0x61, 0x74, 0x74, 0x65, 0x6e, 0x2f, 0x52,
  0x65, 0x73, 0x68, 0x61, 0x70, 0x65, 0x00, 0x00, 0x02, 0x00, 0x00, 0x00,
  0x01, 0x00, 0x00, 0x00, 0x80, 0x00, 0x00, 0x00, 0xf0, 0xf9, 0xff, 0xff,
  0x14, 0x00, 0x00, 0x00, 0x24, 0x00, 0x00, 0x00, 0x24, 0x00, 0x00, 0x00,
  0x10, 0x00, 0x00, 0x00, 0x44, 0x00, 0x00, 0x00, 0x04, 0x00, 0x00, 0x00,
  0xff, 0xff, 0xff, 0xff, 0x02, 0x00, 0x00, 0x00, 0x01, 0x00, 0x00, 0x00,
  0x40, 0x00, 0x00, 0x00, 0xe0, 0xf9, 0xff, 0xff, 0x20, 0x00, 0x00, 0x00,
  0x73, 0x65, 0x71, 0x75, 0x65, 0x6e, 0x74, 0x69, 0x61, 0x6c, 0x2f, 0x6d,
  0x61, 0x78, 0x5f, 0x70, 0x6f, 0x6f, 0x6c, 0x69, 0x6e, 0x67, 0x31, 0x64,
  0x2f, 0x4d, 0x61, 0x78, 0x50, 0x6f, 0x6f, 0x6c, 0x00, 0x00, 0x00, 0x00,
  0x04, 0x00, 0x00, 0x00, 0x01, 0x00, 0x00, 0x00, 0x02, 0x00, 0x00, 0x00,
  0x01, 0x00, 0x00, 0x00, 0x40, 0x00, 0x00, 0x00, 0x5c, 0xfa, 0xff, 0xff,
  0x14, 0x00, 0x00, 0x00, 0x24, 0x00, 0x00, 0x00, 0x24, 0x00, 0x00, 0x00,
  0x0f, 0x00, 0x00, 0x00, 0x44, 0x00, 0x00, 0x00, 0x04, 0x00, 0x00, 0x00,
  0xff, 0xff, 0xff, 0xff, 0x04, 0x00, 0x00, 0x00, 0x01, 0x00, 0x00, 0x00,
  0x40, 0x00, 0x00, 0x00, 0x4c, 0xfa, 0xff, 0xff, 0x23, 0x00, 0x00, 0x00,
  0x73, 0x65, 0x71, 0x75, 0x65, 0x6e, 0x74, 0x69, 0x61, 0x6c, 0x2f, 0x6d,
  0x61, 0x78, 0x5f, 0x70, 0x6f, 0x6f, 0x6c, 0x69, 0x6e, 0x67, 0x31, 0x64,
  0x2f, 0x45, 0x78, 0x70, 0x61, 0x6e, 0x64, 0x44, 0x69, 0x6d, 0x73, 0x00,
  0x04, 0x00, 0x00, 0x00, 0x01, 0x00, 0x00, 0x00, 0x04, 0x00, 0x00, 0x00,
  0x01, 0x00, 0x00, 0x00, 0x40, 0x00, 0x00, 0x00, 0xc8, 0xfa, 0xff, 0xff,
  0x14, 0x00, 0x00, 0x00, 0x20, 0x00, 0x00, 0x00, 0x20, 0x00, 0x00, 0x00,
  0x0e, 0x00, 0x00, 0x00, 0x98, 0x00, 0x00, 0x00, 0x03, 0x00, 0x00, 0x00,
  0xff, 0xff, 0xff, 0xff, 0x04, 0x00, 0x00, 0x00, 0x40, 0x00, 0x00, 0x00,
  0xb4, 0xfa, 0xff, 0xff, 0x7a, 0x00, 0x00, 0x00, 0x73, 0x65, 0x71, 0x75,
  0x65, 0x6e, 0x74, 0x69, 0x61, 0x6c, 0x2f, 0x63, 0x6f, 0x6e, 0x76, 0x31,
  0x64, 0x2f, 0x52, 0x65, 0x6c, 0x75, 0x3b, 0x73, 0x65, 0x71, 0x75, 0x65,
  0x6e, 0x74, 0x69, 0x61, 0x6c, 0x2f, 0x63, 0x6f, 0x6e, 0x76, 0x31, 0x64,
  0x2f, 0x42, 0x69, 0x61, 0x73, 0x41, 0x64, 0x64, 0x3b, 0x73, 0x65, 0x71,
  0x75, 0x65, 0x6e, 0x74, 0x69, 0x61, 0x6c, 0x2f, 0x63, 0x6f, 0x6e, 0x76,
  0x31, 0x64, 0x2f, 0x43, 0x6f, 0x6e, 0x76, 0x31, 0x44, 0x2f, 0x53, 0x71,
  0x75, 0x65, 0x65, 0x7a, 0x65, 0x3b, 0x73, 0x65, 0x71, 0x75, 0x65, 0x6e,
  0x74, 0x69, 0x61, 0x6c, 0x2f, 0x63, 0x6f, 0x6e, 0x76, 0x31, 0x64, 0x2f,
  0x42, 0x69, 0x61, 0x73, 0x41, 0x64, 0x64, 0x2f, 0x52, 0x65, 0x61, 0x64,
  0x56, 0x61, 0x72, 0x69, 0x61, 0x62, 0x6c, 0x65, 0x4f, 0x70, 0x00, 0x00,
  0x03, 0x00, 0x00, 0x00, 0x01, 0x00, 0x00, 0x00, 0x04, 0x00, 0x00, 0x00,
  0x40, 0x00, 0x00, 0x00, 0x84, 0xfb, 0xff, 0xff, 0x14, 0x00, 0x00, 0x00,
  0x24, 0x00, 0x00, 0x00, 0x24, 0x00, 0x00, 0x00, 0x0d, 0x00, 0x00, 0x00,
  0xb4, 0x00, 0x00, 0x00, 0x04, 0x00, 0x00, 0x00, 0xff, 0xff, 0xff, 0xff,
  0x01, 0x00, 0x00, 0x00, 0x04, 0x00, 0x00, 0x00, 0x40, 0x00, 0x00, 0x00,
  0x74, 0xfb, 0xff, 0xff, 0x93, 0x00, 0x00, 0x00, 0x73, 0x65, 0x71, 0x75,
  0x65, 0x6e, 0x74, 0x69, 0x61, 0x6c, 0x2f, 0x63, 0x6f, 0x6e, 0x76, 0x31,
  0x64, 0x2f, 0x52, 0x65, 0x6c, 0x75, 0x3b, 0x73, 0x65, 0x71, 0x75, 0x65,
  0x6e, 0x74, 0x69, 0x61, 0x6c, 0x2f, 0x63, 0x6f, 0x6e, 0x76, 0x31, 0x64,
  0x2f, 0x42, 0x69, 0x61, 0x73, 0x41, 0x64, 0x64, 0x3b, 0x73, 0x65, 0x71,
  0x75, 0x65, 0x6e, 0x74, 0x69, 0x61, 0x6c, 0x2f, 0x63, 0x6f, 0x6e, 0x76,
  0x31, 0x64, 0x2f, 0x43, 0x6f, 0x6e, 0x76, 0x31, 0x44, 0x2f, 0x53, 0x71,
  0x75, 0x65, 0x65, 0x7a, 0x65, 0x3b, 0x73, 0x65, 0x71, 0x75, 0x65, 0x6e,
  0x74, 0x69, 0x61, 0x6c, 0x2f, 0x63, 0x6f, 0x6e, 0x76, 0x31, 0x64, 0x2f,
  0x42, 0x69, 0x61, 0x73, 0x41, 0x64, 0x64, 0x2f, 0x52, 0x65, 0x61, 0x64,
  0x56, 0x61, 0x72, 0x69, 0x61, 0x62, 0x6c, 0x65, 0x4f, 0x70, 0x3b, 0x73,
  0x65, 0x71, 0x75, 0x65, 0x6e, 0x74, 0x69, 0x61, 0x6c, 0x2f, 0x63, 0x6f,
  0x6e, 0x76, 0x31, 0x64, 0x2f, 0x43, 0x6f, 0x6e, 0x76, 0x31, 0x44, 0x00,
  0x04, 0x00, 0x00, 0x00, 0x01, 0x00, 0x00, 0x00, 0x01, 0x00, 0x00, 0x00,
  0x04, 0x00, 0x00, 0x00, 0x40, 0x00, 0x00, 0x00, 0x60, 0xfc, 0xff, 0xff,
  0x14, 0x00, 0x00, 0x00, 0x24, 0x00, 0x00, 0x00, 0x24, 0x00, 0x00, 0x00,
  0x0c, 0x00, 0x00, 0x00, 0x44, 0x00, 0x00, 0x00, 0x04, 0x00, 0x00, 0x00,
  0xff, 0xff, 0xff, 0xff, 0x01, 0x00, 0x00, 0x00, 0x05, 0x00, 0x00, 0x00,
  0x01, 0x00, 0x00, 0x00, 0x50, 0xfc, 0xff, 0xff, 0x23, 0x00, 0x00, 0x00,
  0x73, 0x65, 0x71, 0x75, 0x65, 0x6e, 0x74, 0x69, 0x61, 0x6c, 0x2f, 0x63,
  0x6f, 0x6e, 0x76, 0x31, 0x64, 0x2f, 0x43, 0x6f, 0x6e, 0x76, 0x31, 0x44,
  0x2f, 0x45, 0x78, 0x70, 0x61, 0x6e, 0x64, 0x44, 0x69, 0x6d, 0x73, 0x00,
  0x04, 0x00, 0x00, 0x00, 0x01, 0x00, 0x00, 0x00, 0x01, 0x00, 0x00, 0x00,
  0x05, 0x00, 0x00, 0x00, 0x01, 0x00, 0x00, 0x00, 0x22, 0xfe, 0xff, 0xff,
  0x20, 0x00, 0x00, 0x00, 0x40, 0x00, 0x00, 0x00, 0x0b, 0x00, 0x00, 0x00,
  0x00, 0x00, 0x00, 0x09, 0x50, 0x00, 0x00, 0x00, 0x0c, 0x00, 0x0c, 0x00,
  0x00, 0x00, 0x00, 0x00, 0x08, 0x00, 0x04, 0x00, 0x0c, 0x00, 0x00, 0x00,
  0x08, 0x00, 0x00, 0x00, 0x14, 0x00, 0x00, 0x00, 0x01, 0x00, 0x00, 0x00,
  0x00, 0x00, 0x00, 0x00, 0x00, 0x00, 0x00, 0x00, 0x00, 0x00, 0x00, 0x00,
  0x01, 0x00, 0x00, 0x00, 0x3f, 0x15, 0x53, 0x3b, 0x17, 0x00, 0x00, 0x00,
  0x73, 0x65, 0x71, 0x75, 0x65, 0x6e, 0x74, 0x69, 0x61, 0x6c, 0x2f, 0x64,
  0x65, 0x6e, 0x73, 0x65, 0x2f, 0x4d, 0x61, 0x74, 0x4d, 0x75, 0x6c, 0x00,
  0x02, 0x00, 0x00, 0x00, 0x32, 0x00, 0x00, 0x00, 0x80, 0x00, 0x00, 0x00,
  0x92, 0xfe, 0xff, 0xff, 0x14, 0x00, 0x00, 0x00, 0x14, 0x00, 0x00, 0x00,
  0x0a, 0x00, 0x00, 0x00, 0x00, 0x00, 0x00, 0x02, 0x30, 0x00, 0x00, 0x00,
  0x18, 0xfd, 0xff, 0xff, 0x20, 0x00, 0x00, 0x00, 0x73, 0x65, 0x71, 0x75,
  0x65, 0x6e, 0x74, 0x69, 0x61, 0x6c, 0x2f, 0x63, 0x6f, 0x6e, 0x76, 0x31,
  0x64, 0x2f, 0x43, 0x6f, 0x6e, 0x76, 0x31, 0x44, 0x2f, 0x53, 0x71, 0x75,
  0x65, 0x65, 0x7a, 0x65, 0x00, 0x00, 0x00, 0x00, 0x01, 0x00, 0x00, 0x00,
  0x03, 0x00, 0x00, 0x00, 0xe2, 0xfd, 0xff, 0xff, 0x10, 0x00, 0x00, 0x00,
  0x10, 0x00, 0x00, 0x00, 0x09, 0x00, 0x00, 0x00, 0x28, 0x00, 0x00, 0x00,
  0x60, 0xfd, 0xff, 0xff, 0x18, 0x00, 0x00, 0x00, 0x73, 0x65, 0x71, 0x75,
  0x65, 0x6e, 0x74, 0x69, 0x61, 0x6c, 0x2f, 0x63, 0x6f, 0x6e, 0x76, 0x31,
  0x64, 0x2f, 0x43, 0x6f, 0x6e, 0x76, 0x31, 0x44, 0x00, 0x00, 0x00, 0x00,
  0x04, 0x00, 0x00, 0x00, 0x40, 0x00, 0x00, 0x00, 0x01, 0x00, 0x00, 0x00,
  0x02, 0x00, 0x00, 0x00, 0x01, 0x00, 0x00, 0x00, 0x2e, 0xfe, 0xff, 0xff,
  0x10, 0x00, 0x00, 0x00, 0x10, 0x00, 0x00, 0x00, 0x08, 0x00, 0x00, 0x00,
  0x28, 0x00, 0x00, 0x00, 0xac, 0xfd, 0xff, 0xff, 0x19, 0x00, 0x00, 0x00,
  0x73, 0x65, 0x71, 0x75, 0x65, 0x6e, 0x74, 0x69, 0x61, 0x6c, 0x2f, 0x64,
  0x65, 0x6e, 0x73, 0x65, 0x5f, 0x31, 0x2f, 0x4d, 0x61, 0x74, 0x4d, 0x75,
  0x6c, 0x00, 0x00, 0x00, 0x02, 0x00, 0x00, 0x00, 0x01, 0x00, 0x00, 0x00,
  0x32, 0x00, 0x00, 0x00, 0x6e, 0xff, 0xff, 0xff, 0x14, 0x00, 0x00, 0x00,
  0x14, 0x00, 0x00, 0x00, 0x07, 0x00, 0x00, 0x00, 0x00, 0x00, 0x00, 0x02,
  0x34, 0x00, 0x00, 0x00, 0xf4, 0xfd, 0xff, 0xff, 0x27, 0x00, 0x00, 0x00,
  0x73, 0x65, 0x71, 0x75, 0x65, 0x6e, 0x74, 0x69, 0x61, 0x6c, 0x2f, 0x63,
  0x6f, 0x6e, 0x76, 0x31, 0x64, 0x2f, 0x43, 0x6f, 0x6e, 0x76, 0x31, 0x44,
  0x2f, 0x45, 0x78, 0x70, 0x61, 0x6e, 0x64, 0x44, 0x69, 0x6d, 0x73, 0x2f,
  0x64, 0x69, 0x6d, 0x00, 0x00, 0x00, 0x00, 0x00, 0xba, 0xff, 0xff, 0xff,
  0x14, 0x00, 0x00, 0x00, 0x14, 0x00, 0x00, 0x00, 0x06, 0x00, 0x00, 0x00,
  0x00, 0x00, 0x00, 0x02, 0x28, 0x00, 0x00, 0x00, 0x40, 0xfe, 0xff, 0xff,
  0x18, 0x00, 0x00, 0x00, 0x73, 0x65, 0x71, 0x75, 0x65, 0x6e, 0x74, 0x69,
  0x61, 0x6c, 0x2f, 0x66, 0x6c, 0x61, 0x74, 0x74, 0x65, 0x6e, 0x2f, 0x43,
  0x6f, 0x6e, 0x73, 0x74, 0x00, 0x00, 0x00, 0x00, 0x01, 0x00, 0x00, 0x00,
  0x02, 0x00, 0x00, 0x00, 0x00, 0x00, 0x0e, 0x00, 0x18, 0x00, 0x14, 0x00,
  0x13, 0x00, 0x0c, 0x00, 0x08, 0x00, 0x04, 0x00, 0x0e, 0x00, 0x00, 0x00,
  0x14, 0x00, 0x00, 0x00, 0x14, 0x00, 0x00, 0x00, 0x05, 0x00, 0x00, 0x00,
  0x00, 0x00, 0x00, 0x02, 0x34, 0x00, 0x00, 0x00, 0x94, 0xfe, 0xff, 0xff,
  0x27, 0x00, 0x00, 0x00, 0x73, 0x65, 0x71, 0x75, 0x65, 0x6e, 0x74, 0x69,
  0x61, 0x6c, 0x2f, 0x6d, 0x61, 0x78, 0x5f, 0x70, 0x6f, 0x6f, 0x6c, 0x69,
  0x6e, 0x67, 0x31, 0x64, 0x2f, 0x45, 0x78, 0x70, 0x61, 0x6e, 0x64, 0x44,
  0x69, 0x6d, 0x73, 0x2f, 0x64, 0x69, 0x6d, 0x00, 0x00, 0x00, 0x00, 0x00,
  0x5e, 0xff, 0xff, 0xff, 0x10, 0x00, 0x00, 0x00, 0x10, 0x00, 0x00, 0x00,
  0x04, 0x00, 0x00, 0x00, 0x38, 0x00, 0x00, 0x00, 0xdc, 0xfe, 0xff, 0xff,
  0x28, 0x00, 0x00, 0x00, 0x73, 0x65, 0x71, 0x75, 0x65, 0x6e, 0x74, 0x69,
  0x61, 0x6c, 0x2f, 0x63, 0x6f, 0x6e, 0x76, 0x31, 0x64, 0x2f, 0x42, 0x69,
  0x61, 0x73, 0x41, 0x64, 0x64, 0x2f, 0x52, 0x65, 0x61, 0x64, 0x56, 0x61,
  0x72, 0x69, 0x61, 0x62, 0x6c, 0x65, 0x4f, 0x70, 0x00, 0x00, 0x00, 0x00,
  0x01, 0x00, 0x00, 0x00, 0x40, 0x00, 0x00, 0x00, 0xae, 0xff, 0xff, 0xff,
  0x10, 0x00, 0x00, 0x00, 0x10, 0x00, 0x00, 0x00, 0x03, 0x00, 0x00, 0x00,
  0x38, 0x00, 0x00, 0x00, 0x2c, 0xff, 0xff, 0xff, 0x29, 0x00, 0x00, 0x00,
  0x73, 0x65, 0x71, 0x75, 0x65, 0x6e, 0x74, 0x69, 0x61, 0x6c, 0x2f, 0x64,
  0x65, 0x6e, 0x73, 0x65, 0x5f, 0x31, 0x2f, 0x42, 0x69, 0x61, 0x73, 0x41,
  0x64, 0x64, 0x2f, 0x52, 0x65, 0x61, 0x64, 0x56, 0x61, 0x72, 0x69, 0x61,
  0x62, 0x6c, 0x65, 0x4f, 0x70, 0x00, 0x00, 0x00, 0x01, 0x00, 0x00, 0x00,
  0x01, 0x00, 0x00, 0x00, 0x00, 0x00, 0x0e, 0x00, 0x14, 0x00, 0x10, 0x00,
  0x00, 0x00, 0x0c, 0x00, 0x08, 0x00, 0x04, 0x00, 0x0e, 0x00, 0x00, 0x00,
  0x10, 0x00, 0x00, 0x00, 0x10, 0x00, 0x00, 0x00, 0x02, 0x00, 0x00, 0x00,
  0x34, 0x00, 0x00, 0x00, 0x8c, 0xff, 0xff, 0xff, 0x27, 0x00, 0x00, 0x00,
  0x73, 0x65, 0x71, 0x75, 0x65, 0x6e, 0x74, 0x69, 0x61, 0x6c, 0x2f, 0x64,
  0x65, 0x6e, 0x73, 0x65, 0x2f, 0x42, 0x69, 0x61, 0x73, 0x41, 0x64, 0x64,
  0x2f, 0x52, 0x65, 0x61, 0x64, 0x56, 0x61, 0x72, 0x69, 0x61, 0x62, 0x6c,
  0x65, 0x4f, 0x70, 0x00, 0x01, 0x00, 0x00, 0x00, 0x32, 0x00, 0x00, 0x00,
  0x14, 0x00, 0x18, 0x00, 0x14, 0x00, 0x00, 0x00, 0x10, 0x00, 0x0c, 0x00,
  0x08, 0x00, 0x00, 0x00, 0x00, 0x00, 0x04, 0x00, 0x14, 0x00, 0x00, 0x00,
  0x14, 0x00, 0x00, 0x00, 0x24, 0x00, 0x00, 0x00, 0x24, 0x00, 0x00, 0x00,
  0x01, 0x00, 0x00, 0x00, 0x40, 0x00, 0x00, 0x00, 0x03, 0x00, 0x00, 0x00,
  0xff, 0xff, 0xff, 0xff, 0x05, 0x00, 0x00, 0x00, 0x01, 0x00, 0x00, 0x00,
  0x04, 0x00, 0x04, 0x00, 0x04, 0x00, 0x00, 0x00, 0x1e, 0x00, 0x00, 0x00,
  0x73, 0x65, 0x72, 0x76, 0x69, 0x6e, 0x67, 0x5f, 0x64, 0x65, 0x66, 0x61,
  0x75, 0x6c, 0x74, 0x5f, 0x63, 0x6f, 0x6e, 0x76, 0x31, 0x64, 0x5f, 0x69,
  0x6e, 0x70, 0x75, 0x74, 0x3a, 0x30, 0x00, 0x00, 0x03, 0x00, 0x00, 0x00,
  0x01, 0x00, 0x00, 0x00, 0x05, 0x00, 0x00, 0x00, 0x01, 0x00, 0x00, 0x00,
  0x05, 0x00, 0x00, 0x00, 0x60, 0x00, 0x00, 0x00, 0x44, 0x00, 0x00, 0x00,
  0x34, 0x00, 0x00, 0x00, 0x24, 0x00, 0x00, 0x00, 0x10, 0x00, 0x00, 0x00,
  0x0c, 0x00, 0x10, 0x00, 0x0f, 0x00, 0x00, 0x00, 0x08, 0x00, 0x04, 0x00,
  0x0c, 0x00, 0x00, 0x00, 0x09, 0x00, 0x00, 0x00, 0x09, 0x00, 0x00, 0x00,
  0x00, 0x00, 0x00, 0x09, 0xdc, 0xff, 0xff, 0xff, 0x11, 0x00, 0x00, 0x00,
  0x00, 0x00, 0x00, 0x11, 0xe8, 0xff, 0xff, 0xff, 0x16, 0x00, 0x00, 0x00,
  0x00, 0x00, 0x00, 0x16, 0xf4, 0xff, 0xff, 0xff, 0x03, 0x00, 0x00, 0x00,
  0x00, 0x00, 0x00, 0x03, 0x0c, 0x00, 0x0c, 0x00, 0x0b, 0x00, 0x00, 0x00,
  0x00, 0x00, 0x04, 0x00, 0x0c, 0x00, 0x00, 0x00, 0x46, 0x00, 0x00, 0x00,
  0x00, 0x00, 0x00, 0x46
};
unsigned int conv_model2_tflite_len = 11032;
