unsigned char dense_model_10m_tflite[] = {
  0x1c, 0x00, 0x00, 0x00, 0x54, 0x46, 0x4c, 0x33, 0x14, 0x00, 0x20, 0x00,
  0x1c, 0x00, 0x18, 0x00, 0x14, 0x00, 0x10, 0x00, 0x0c, 0x00, 0x00, 0x00,
  0x08, 0x00, 0x04, 0x00, 0x14, 0x00, 0x00, 0x00, 0x1c, 0x00, 0x00, 0x00,
  0x98, 0x00, 0x00, 0x00, 0xf0, 0x00, 0x00, 0x00, 0xdc, 0x0c, 0x00, 0x00,
  0xec, 0x0c, 0x00, 0x00, 0x80, 0x10, 0x00, 0x00, 0x03, 0x00, 0x00, 0x00,
  0x01, 0x00, 0x00, 0x00, 0x10, 0x00, 0x00, 0x00, 0x00, 0x00, 0x0a, 0x00,
  0x10, 0x00, 0x0c, 0x00, 0x08, 0x00, 0x04, 0x00, 0x0a, 0x00, 0x00, 0x00,
  0x0c, 0x00, 0x00, 0x00, 0x1c, 0x00, 0x00, 0x00, 0x3c, 0x00, 0x00, 0x00,
  0x0f, 0x00, 0x00, 0x00, 0x73, 0x65, 0x72, 0x76, 0x69, 0x6e, 0x67, 0x5f,
  0x64, 0x65, 0x66, 0x61, 0x75, 0x6c, 0x74, 0x00, 0x01, 0x00, 0x00, 0x00,
  0x04, 0x00, 0x00, 0x00, 0x90, 0xff, 0xff, 0xff, 0x06, 0x00, 0x00, 0x00,
  0x04, 0x00, 0x00, 0x00, 0x08, 0x00, 0x00, 0x00, 0x64, 0x65, 0x6e, 0x73,
  0x65, 0x5f, 0x34, 0x33, 0x00, 0x00, 0x00, 0x00, 0x01, 0x00, 0x00, 0x00,
  0x04, 0x00, 0x00, 0x00, 0xb6, 0xf3, 0xff, 0xff, 0x04, 0x00, 0x00, 0x00,
  0x0e, 0x00, 0x00, 0x00, 0x64, 0x65, 0x6e, 0x73, 0x65, 0x5f, 0x34, 0x32,
  0x5f, 0x69, 0x6e, 0x70, 0x75, 0x74, 0x00, 0x00, 0x02, 0x00, 0x00, 0x00,
  0x34, 0x00, 0x00, 0x00, 0x04, 0x00, 0x00, 0x00, 0xdc, 0xff, 0xff, 0xff,
  0x09, 0x00, 0x00, 0x00, 0x04, 0x00, 0x00, 0x00, 0x13, 0x00, 0x00, 0x00,
  0x43, 0x4f, 0x4e, 0x56, 0x45, 0x52, 0x53, 0x49, 0x4f, 0x4e, 0x5f, 0x4d,
  0x45, 0x54, 0x41, 0x44, 0x41, 0x54, 0x41, 0x00, 0x08, 0x00, 0x0c, 0x00,
  0x08, 0x00, 0x04, 0x00, 0x08, 0x00, 0x00, 0x00, 0x08, 0x00, 0x00, 0x00,
  0x04, 0x00, 0x00, 0x00, 0x13, 0x00, 0x00, 0x00, 0x6d, 0x69, 0x6e, 0x5f,
  0x72, 0x75, 0x6e, 0x74, 0x69, 0x6d, 0x65, 0x5f, 0x76, 0x65, 0x72, 0x73,
  0x69, 0x6f, 0x6e, 0x00, 0x0a, 0x00, 0x00, 0x00, 0xe8, 0x0b, 0x00, 0x00,
  0xe0, 0x0b, 0x00, 0x00, 0xcc, 0x0b, 0x00, 0x00, 0x24, 0x0a, 0x00, 0x00,
  0x44, 0x02, 0x00, 0x00, 0xa4, 0x00, 0x00, 0x00, 0x9c, 0x00, 0x00, 0x00,
  0x94, 0x00, 0x00, 0x00, 0x74, 0x00, 0x00, 0x00, 0x04, 0x00, 0x00, 0x00,
  0x5a, 0xf4, 0xff, 0xff, 0x04, 0x00, 0x00, 0x00, 0x60, 0x00, 0x00, 0x00,
  0x0c, 0x00, 0x00, 0x00, 0x08, 0x00, 0x0e, 0x00, 0x08, 0x00, 0x04, 0x00,
  0x08, 0x00, 0x00, 0x00, 0x14, 0x00, 0x00, 0x00, 0x30, 0x00, 0x00, 0x00,
  0x00, 0x00, 0x0a, 0x00, 0x0c, 0x00, 0x08, 0x00, 0x00, 0x00, 0x07, 0x00,
  0x0a, 0x00, 0x00, 0x00, 0x00, 0x00, 0x00, 0x01, 0x04, 0x00, 0x00, 0x00,
  0x01, 0x00, 0x00, 0x00, 0xea, 0x03, 0x00, 0x00, 0x00, 0x00, 0x0a, 0x00,
  0x10, 0x00, 0x0c, 0x00, 0x08, 0x00, 0x04, 0x00, 0x0a, 0x00, 0x00, 0x00,
  0x02, 0x00, 0x00, 0x00, 0x02, 0x00, 0x00, 0x00, 0x04, 0x00, 0x00, 0x00,
  0x05, 0x00, 0x00, 0x00, 0x32, 0x2e, 0x39, 0x2e, 0x32, 0x00, 0x00, 0x00,
  0xc6, 0xf4, 0xff, 0xff, 0x04, 0x00, 0x00, 0x00, 0x10, 0x00, 0x00, 0x00,
  0x31, 0x2e, 0x35, 0x2e, 0x30, 0x00, 0x00, 0x00, 0x00, 0x00, 0x00, 0x00,
  0x00, 0x00, 0x00, 0x00, 0x54, 0xf1, 0xff, 0xff, 0x58, 0xf1, 0xff, 0xff,
  0xea, 0xf4, 0xff, 0xff, 0x04, 0x00, 0x00, 0x00, 0x90, 0x01, 0x00, 0x00,
  0xe8, 0x1a, 0x34, 0x3d, 0x18, 0x39, 0x40, 0x3e, 0xeb, 0x9e, 0x66, 0xbe,
  0xcd, 0xa9, 0x84, 0xbd, 0x69, 0x56, 0x8e, 0x3d, 0x10, 0x5e, 0x25, 0xbe,
  0xd2, 0xde, 0x26, 0x3e, 0x64, 0x95, 0xc9, 0xbf, 0xd4, 0xce, 0xfa, 0x3d,
  0x93, 0x75, 0x2a, 0x3e, 0x92, 0xb1, 0x2c, 0x3e, 0x7a, 0x44, 0x36, 0xbe,
  0xbc, 0x84, 0x85, 0x3d, 0x0e, 0x8f, 0x40, 0xbe, 0x67, 0xa2, 0x26, 0xbe,
  0xcb, 0xdd, 0xb0, 0xbe, 0x5c, 0x28, 0x2d, 0x3e, 0x28, 0x8d, 0xa4, 0xbc,
  0x16, 0x81, 0x28, 0x3e, 0x5a, 0x48, 0xe0, 0xbc, 0x3b, 0x2a, 0xbb, 0x3d,
  0xbb, 0x22, 0xb2, 0xbe, 0x6e, 0x2e, 0x1a, 0xbd, 0x00, 0x44, 0xd8, 0x3d,
  0xfc, 0x01, 0x5b, 0xbe, 0x9b, 0x89, 0xff, 0xbd, 0xb1, 0xd3, 0x31, 0xbe,
  0xfe, 0x6b, 0x96, 0xbf, 0x8a, 0x08, 0xaf, 0x3d, 0xb4, 0xea, 0x3e, 0xbe,
  0x5e, 0x91, 0x02, 0xbe, 0x96, 0xd8, 0x3c, 0x3e, 0xc4, 0x1a, 0x08, 0xbe,
  0xa1, 0x9b, 0x6b, 0x3e, 0xd2, 0xa5, 0x6d, 0x3e, 0xf3, 0x27, 0x6c, 0xbc,
  0x7d, 0x4c, 0x0f, 0x3e, 0xaf, 0x45, 0x2c, 0xbb, 0xcc, 0x18, 0xd9, 0x3d,
  0xbb, 0xf5, 0x0f, 0xbe, 0x24, 0x2a, 0x2b, 0xbe, 0xc7, 0x1a, 0x4d, 0x3e,
  0x20, 0xa4, 0xbc, 0x3c, 0x28, 0x44, 0x3e, 0xbe, 0x6e, 0x22, 0x05, 0xbd,
  0x02, 0x00, 0x04, 0xbe, 0x12, 0x8f, 0x28, 0x3e, 0x40, 0x33, 0x62, 0x3b,
  0xa8, 0x6d, 0x54, 0x3e, 0x79, 0x5b, 0xc2, 0x3c, 0x04, 0xfe, 0x1b, 0x3e,
  0xf6, 0x82, 0x5d, 0xbe, 0x69, 0x16, 0xb3, 0xbd, 0xc0, 0xf9, 0x31, 0xbe,
  0x16, 0xc3, 0x15, 0xbe, 0xc9, 0x49, 0x35, 0xbe, 0x0e, 0xa5, 0x9c, 0xbe,
  0xdc, 0x31, 0xe9, 0x3d, 0x68, 0x82, 0xf4, 0x3d, 0xaa, 0x5d, 0xc3, 0xbd,
  0x62, 0xe4, 0x73, 0x3e, 0xc0, 0xfd, 0xc7, 0x3d, 0x48, 0xc2, 0x6d, 0x3e,
  0x6e, 0x2a, 0x52, 0x3e, 0xe1, 0x7a, 0xd0, 0x3d, 0xee, 0x3b, 0x4b, 0xbe,
  0xc0, 0xea, 0x95, 0x3d, 0xec, 0x5c, 0x17, 0x3e, 0xbe, 0x2d, 0x2f, 0xbf,
  0xc5, 0xe6, 0x7f, 0x3d, 0xe4, 0x46, 0x28, 0xbd, 0x42, 0x3b, 0x81, 0xbe,
  0xd6, 0xa8, 0x29, 0x3d, 0xe7, 0x22, 0x3f, 0xbe, 0x44, 0xfd, 0xb8, 0xbd,
  0x9e, 0xf5, 0x8d, 0xbd, 0xab, 0xa9, 0x7f, 0xbe, 0x59, 0x2d, 0x19, 0xbe,
  0xa5, 0x2d, 0x22, 0x3e, 0x85, 0x05, 0x6f, 0xbe, 0x84, 0xc7, 0x45, 0x3e,
  0x9a, 0xcb, 0x48, 0xbf, 0x07, 0x2d, 0x06, 0xc0, 0xb2, 0xa5, 0x95, 0xbe,
  0x10, 0x5e, 0xb5, 0xbc, 0x78, 0xb1, 0x4e, 0x3d, 0xc4, 0x38, 0x8a, 0xbf,
  0x1c, 0xeb, 0xc3, 0xbd, 0xc2, 0xfd, 0x6b, 0xbe, 0xd0, 0x2c, 0xa5, 0xbd,
  0xfc, 0xd2, 0x27, 0x3e, 0xc8, 0xa0, 0x73, 0xbc, 0xd7, 0x10, 0x50, 0x3e,
  0xe7, 0xfe, 0x45, 0x3e, 0x42, 0x74, 0xbb, 0x3f, 0xed, 0x2d, 0xff, 0x3c,
  0x33, 0x5d, 0x4e, 0x3e, 0x38, 0x95, 0x81, 0xbc, 0x74, 0xeb, 0x24, 0xbe,
  0x33, 0xe9, 0x32, 0xbd, 0x86, 0xf6, 0xff, 0xff, 0x04, 0x00, 0x00, 0x00,
  0xd0, 0x07, 0x00, 0x00, 0xd4, 0x89, 0x10, 0xbe, 0xcf, 0x72, 0x24, 0x3e,
  0xea, 0xce, 0xd4, 0x3d, 0xb8, 0x09, 0x48, 0xbe, 0x04, 0x70, 0x43, 0x3d,
  0xac, 0x41, 0x2a, 0xbe, 0x3b, 0xf1, 0x68, 0x3e, 0xe8, 0x32, 0x15, 0xbe,
  0x31, 0x45, 0x0b, 0xbe, 0x8c, 0xcf, 0x6c, 0x3d, 0x6c, 0xc6, 0x13, 0xbe,
  0xfc, 0x96, 0x35, 0x3e, 0xca, 0xa8, 0x61, 0xbe, 0x79, 0x28, 0x6d, 0x3e,
  0x67, 0x1f, 0x4f, 0x3d, 0x61, 0xc0, 0xf4, 0x3d, 0x48, 0x7b, 0xae, 0x3d,
  0x62, 0x5b, 0x0d, 0xbd, 0xdd, 0x7c, 0xe8, 0xbb, 0xb2, 0xd8, 0x55, 0xbe,
  0xf4, 0xc5, 0x5f, 0xbd, 0x86, 0xdd, 0x5c, 0x3e, 0x01, 0xe3, 0x2a, 0x3e,
  0x97, 0x97, 0x4c, 0x3d, 0xfd, 0x20, 0x95, 0x3a, 0x60, 0x37, 0xc8, 0xbd,
  0xb8, 0x4b, 0xe5, 0xbc, 0xfc, 0x18, 0x41, 0xbd, 0xb7, 0x71, 0x63, 0x3e,
  0xd3, 0x07, 0x26, 0xbe, 0x29, 0xa1, 0x00, 0xbe, 0x5e, 0xfb, 0xc0, 0xbd,
  0xa0, 0xba, 0xeb, 0xbc, 0xee, 0x7e, 0x31, 0xbe, 0xba, 0xed, 0x92, 0xbd,
  0xb3, 0x75, 0xd9, 0xbd, 0xbb, 0xac, 0x84, 0xbe, 0xec, 0xf2, 0x91, 0x3e,
  0x89, 0x75, 0x80, 0x3d, 0xb2, 0xb3, 0x12, 0xbc, 0xb6, 0x74, 0x17, 0xbe,
  0xd6, 0xf5, 0xb6, 0x3d, 0x4c, 0x93, 0xe3, 0xbd, 0x58, 0x60, 0x86, 0xbc,
  0xf6, 0xd3, 0xae, 0x3d, 0x34, 0x45, 0x91, 0xbd, 0x96, 0xcc, 0x78, 0x3d,
  0x81, 0xaa, 0xbd, 0xbd, 0x56, 0xea, 0x21, 0x3e, 0x06, 0x99, 0xf0, 0x3d,
  0x87, 0x38, 0x61, 0x3e, 0x98, 0xce, 0x5e, 0xbe, 0x00, 0x22, 0x7d, 0x3a,
  0xe8, 0xd8, 0xc6, 0xbc, 0x82, 0xb3, 0x27, 0xbe, 0x78, 0x47, 0xb3, 0xbc,
  0x62, 0xb3, 0x8c, 0xbd, 0x70, 0x71, 0x6a, 0xbc, 0xda, 0xe0, 0xa3, 0x3d,
  0x88, 0x50, 0x28, 0xbd, 0x6c, 0x2d, 0x14, 0xbd, 0xf2, 0x92, 0x0e, 0xbe,
  0x5c, 0xc9, 0x0d, 0x3e, 0x6b, 0xf0, 0x0e, 0x3e, 0x5a, 0x1a, 0x6d, 0x3e,
  0xcc, 0x40, 0xca, 0xbd, 0xb0, 0x42, 0x8d, 0xbd, 0xc1, 0xec, 0xf0, 0xbd,
  0x6a, 0x71, 0x4f, 0xbe, 0x41, 0x2a, 0x28, 0x3e, 0x43, 0xaf, 0x95, 0xbe,
  0x28, 0x7e, 0x30, 0x3e, 0xe8, 0x5f, 0xea, 0x3d, 0xe6, 0x1f, 0x53, 0x3e,
  0x67, 0x55, 0x0c, 0xbd, 0x3f, 0xd9, 0x1b, 0x3e, 0xcd, 0xda, 0x89, 0xbb,
  0x02, 0x3f, 0x9b, 0x3b, 0x88, 0x57, 0x9e, 0x3d, 0xf0, 0xeb, 0x9b, 0xbe,
  0x87, 0x16, 0x27, 0xbe, 0xb2, 0x1d, 0xc4, 0xbd, 0x44, 0xbe, 0x93, 0xbd,
  0x3d, 0x3e, 0x30, 0x3e, 0x8a, 0x6b, 0xbf, 0xbd, 0x2b, 0xee, 0x29, 0x3e,
  0xa3, 0x76, 0x26, 0xbe, 0x3a, 0xee, 0xde, 0xbd, 0xfa, 0x22, 0xe3, 0x3d,
  0x8c, 0x5e, 0xb2, 0xbd, 0x46, 0x7e, 0x1e, 0x3c, 0x20, 0x8b, 0xb3, 0x3d,
  0x0d, 0x2c, 0x3b, 0x3e, 0x11, 0x30, 0x08, 0xbe, 0x9a, 0x39, 0xc7, 0x3d,
  0x1f, 0xcb, 0xed, 0x3d, 0xf2, 0x4b, 0x9d, 0xbd, 0xf7, 0x28, 0x08, 0x3e,
  0xbf, 0xdb, 0x0f, 0x3e, 0x1d, 0xbc, 0xc1, 0x3d, 0xae, 0xfe, 0x38, 0x3e,
  0x38, 0x31, 0xf1, 0x3d, 0xaa, 0x17, 0x5b, 0xbe, 0xfd, 0x5d, 0x21, 0x3d,
  0xb5, 0x26, 0xef, 0x3c, 0xfc, 0x94, 0xaf, 0x3c, 0x5d, 0x0a, 0x28, 0xbd,
  0x24, 0xad, 0x11, 0x3e, 0xba, 0x6e, 0xd0, 0x3d, 0x8d, 0x75, 0x9c, 0xbe,
  0x05, 0x63, 0xd1, 0x3c, 0xfb, 0x53, 0xab, 0x3c, 0x10, 0x74, 0x0d, 0xbe,
  0xbb, 0xfa, 0x3c, 0x3c, 0x94, 0xb9, 0x87, 0x3d, 0x1c, 0x9c, 0x41, 0x3c,
  0x49, 0xc9, 0xab, 0xbc, 0x15, 0x6c, 0x8b, 0xbd, 0x0e, 0x59, 0x9a, 0xbc,
  0x09, 0xe2, 0xa5, 0x3e, 0x57, 0x59, 0x32, 0xbb, 0x88, 0xd4, 0x1f, 0x3e,
  0xc2, 0x56, 0x88, 0xbd, 0x66, 0x46, 0x46, 0x3c, 0x1e, 0x08, 0x2d, 0xbd,
  0x97, 0xbd, 0x9a, 0xbd, 0xe7, 0x0b, 0x56, 0x3e, 0xd9, 0x46, 0x29, 0xbe,
  0x51, 0x6d, 0x42, 0x3e, 0x70, 0x9f, 0x59, 0x3c, 0x76, 0x3d, 0x50, 0x3e,
  0xe5, 0x76, 0xe5, 0x3c, 0x8f, 0xd9, 0x76, 0xbe, 0x18, 0x62, 0x15, 0x3e,
  0xdd, 0xbe, 0xd4, 0x3d, 0x6a, 0x35, 0x3a, 0xbc, 0x49, 0x99, 0x91, 0xbe,
  0x1c, 0x3f, 0x39, 0x3e, 0x06, 0x1f, 0x03, 0x3e, 0x63, 0x70, 0x12, 0x3e,
  0x23, 0x24, 0xf0, 0x3d, 0x50, 0x98, 0xb6, 0x3d, 0x0f, 0xc3, 0x5e, 0x3e,
  0x21, 0xd1, 0x85, 0xbd, 0x23, 0xd1, 0x0d, 0xbe, 0xe8, 0x66, 0xa0, 0x3d,
  0xaf, 0x9c, 0x40, 0x3e, 0x9a, 0x53, 0x61, 0xbe, 0xf0, 0x56, 0x40, 0x3e,
  0xa1, 0x41, 0x44, 0x3d, 0xcf, 0xa3, 0xd4, 0x3c, 0x82, 0x09, 0x2f, 0xbc,
  0x3a, 0x8d, 0xcd, 0x3d, 0xee, 0x92, 0x58, 0x3e, 0x2c, 0x14, 0x23, 0x3e,
  0x4a, 0x0a, 0x28, 0x3e, 0xc7, 0x0b, 0x47, 0x3e, 0x06, 0x72, 0xec, 0xbc,
  0x04, 0x5c, 0xe2, 0xbd, 0x15, 0x3f, 0x57, 0x3e, 0x87, 0xc5, 0x4f, 0xbe,
  0xc3, 0xec, 0x55, 0xbe, 0xeb, 0x9f, 0x4e, 0x3e, 0x7c, 0x80, 0x36, 0xbe,
  0x79, 0xf0, 0x52, 0x3e, 0x00, 0xd7, 0x3e, 0x3e, 0xe3, 0x9a, 0x4e, 0x3e,
  0x16, 0x67, 0x50, 0xbe, 0xfe, 0xff, 0x68, 0x3e, 0x2c, 0xdf, 0x1e, 0x3e,
  0x02, 0xc8, 0x37, 0xbe, 0xc0, 0xff, 0x5d, 0x3b, 0xc0, 0xb7, 0x46, 0xbb,
  0x60, 0x3f, 0x35, 0xbe, 0xed, 0x26, 0x6a, 0xbe, 0xff, 0x83, 0x1d, 0x3e,
  0xdc, 0x78, 0xb5, 0x3d, 0x7f, 0x3b, 0x36, 0xbe, 0xe2, 0x68, 0x76, 0xbe,
  0xec, 0xd8, 0x42, 0x3e, 0x15, 0x6d, 0x31, 0xbe, 0xf1, 0xae, 0xac, 0x3d,
  0x93, 0xf2, 0x68, 0x3e, 0xb4, 0x39, 0x6d, 0x3e, 0x61, 0xb0, 0x21, 0xbe,
  0x20, 0x69, 0xf1, 0xbd, 0x30, 0x5a, 0x0d, 0x3d, 0xba, 0x65, 0xf0, 0x3d,
  0x1c, 0x08, 0x86, 0x3e, 0x58, 0xc2, 0x46, 0xbe, 0xde, 0xb4, 0x10, 0x3e,
  0x2b, 0x06, 0x45, 0xbe, 0x50, 0xf5, 0x79, 0x3e, 0xe6, 0xe7, 0x64, 0x3d,
  0xf0, 0x47, 0x70, 0x3e, 0x4f, 0x9f, 0x18, 0x3e, 0x4c, 0x4f, 0x2b, 0xbe,
  0xcd, 0x25, 0x55, 0xbe, 0x04, 0x1c, 0x23, 0xbe, 0x3b, 0x1f, 0x0c, 0x3e,
  0xea, 0xb6, 0xb8, 0xbd, 0x45, 0xea, 0xbd, 0x3d, 0xf7, 0x32, 0x5f, 0x3e,
  0xff, 0x50, 0x3c, 0x3e, 0xaa, 0x97, 0xad, 0x3d, 0x22, 0xa2, 0x66, 0xbc,
  0x60, 0xc0, 0x16, 0x3e, 0x65, 0x9e, 0x64, 0x3d, 0xe5, 0x0a, 0xb0, 0xbc,
  0x72, 0xe6, 0x3f, 0x3e, 0x0f, 0xce, 0x62, 0x3e, 0x06, 0xec, 0xbf, 0xbd,
  0xa0, 0x39, 0x7d, 0xbc, 0x56, 0x52, 0x2c, 0xbe, 0x87, 0x93, 0x25, 0xbe,
  0x08, 0x7a, 0x82, 0xbe, 0x16, 0xa8, 0x0e, 0x3d, 0x21, 0x36, 0x5e, 0x3e,
  0x9e, 0x52, 0xa3, 0x3d, 0xc3, 0x44, 0x23, 0x3e, 0xf1, 0x22, 0x10, 0x3e,
  0x84, 0x57, 0x20, 0x3d, 0x9c, 0x94, 0x98, 0xbd, 0xde, 0x1a, 0x18, 0x3e,
  0x6d, 0xd5, 0xc0, 0x3d, 0x1a, 0xa1, 0x1d, 0x3c, 0xb2, 0x8e, 0x28, 0x3e,
  0x26, 0xd8, 0xbf, 0xbd, 0x7f, 0x47, 0xa5, 0x3d, 0xa5, 0x1b, 0xcb, 0xbc,
  0xe6, 0xc4, 0x93, 0x3e, 0x55, 0xa1, 0x5a, 0xbd, 0x10, 0x69, 0x56, 0xbe,
  0xf0, 0x8b, 0x9b, 0x3d, 0xc3, 0xc8, 0x52, 0x3e, 0xd7, 0xa7, 0x0f, 0xbe,
  0x26, 0x8b, 0x6f, 0xbe, 0x29, 0xe3, 0x08, 0x3e, 0x64, 0xd5, 0x3d, 0xbd,
  0xf5, 0x01, 0x44, 0x3e, 0x4b, 0xbe, 0x8c, 0x3e, 0x25, 0x5a, 0x2b, 0x3e,
  0x26, 0xdf, 0x93, 0xbc, 0x4f, 0xd0, 0x8a, 0xbd, 0x66, 0x68, 0x34, 0x3e,
  0xed, 0x53, 0x96, 0x3d, 0x21, 0x89, 0x11, 0xbe, 0x74, 0xab, 0xe7, 0x3d,
  0xdc, 0x28, 0xa6, 0x3d, 0x32, 0x44, 0xb4, 0x3d, 0xbe, 0xa1, 0x4e, 0xbe,
  0x48, 0x6e, 0x33, 0xbe, 0x0b, 0x1a, 0x1f, 0x3e, 0x04, 0x2a, 0x3d, 0xbe,
  0x14, 0x06, 0xb1, 0xbd, 0x84, 0xa2, 0x90, 0x3d, 0x22, 0x05, 0x89, 0x3d,
  0x97, 0xc9, 0x37, 0x3e, 0x07, 0xd9, 0x4d, 0x3e, 0x56, 0xc4, 0xc7, 0xbc,
  0x9b, 0x76, 0x0c, 0x3e, 0x3a, 0x6c, 0xbc, 0x3d, 0xfe, 0xff, 0xfd, 0x3d,
  0x15, 0xc0, 0xf8, 0x3d, 0x57, 0xf9, 0x91, 0xbe, 0xbd, 0xd8, 0x2b, 0xbe,
  0x3f, 0x9a, 0x3e, 0x3e, 0x7f, 0x20, 0x6b, 0xbe, 0x0b, 0x39, 0x02, 0xbd,
  0x09, 0xaf, 0x55, 0x3e, 0xca, 0x42, 0x91, 0xbd, 0xb2, 0xe7, 0xb2, 0x3d,
  0x38, 0xfa, 0x26, 0xbe, 0x7a, 0xaf, 0xb8, 0xbd, 0xa2, 0xc6, 0x9f, 0xbd,
  0x64, 0x75, 0x4c, 0x3d, 0x4a, 0xcc, 0x90, 0x3d, 0xc9, 0xc4, 0x5b, 0xbe,
  0xa0, 0x31, 0x74, 0xbd, 0x40, 0xeb, 0x11, 0xbd, 0x9a, 0x62, 0x4a, 0x3d,
  0x30, 0x6c, 0x5f, 0xbd, 0x56, 0x3b, 0xb3, 0x3c, 0x69, 0x92, 0x71, 0x3e,
  0xfd, 0x98, 0x49, 0xbe, 0xe0, 0x46, 0x8e, 0xbb, 0x80, 0xc1, 0x17, 0x3c,
  0xea, 0x91, 0x34, 0xbe, 0x46, 0x8d, 0xdb, 0x3d, 0xe2, 0x50, 0x48, 0xbe,
  0x61, 0x64, 0x30, 0xbe, 0x79, 0xec, 0xf6, 0xbd, 0x04, 0x56, 0xd9, 0xbd,
  0xe7, 0x3e, 0x05, 0x3e, 0xfa, 0x16, 0x9c, 0x3d, 0xcd, 0xc4, 0xea, 0x3d,
  0xe2, 0x42, 0xbf, 0x3d, 0xe0, 0x09, 0xa8, 0xbd, 0x4f, 0x6d, 0x4c, 0x3e,
  0x6a, 0x79, 0xc6, 0x3d, 0xc6, 0x81, 0x25, 0xbe, 0x95, 0xba, 0x69, 0xbd,
  0x7b, 0x3e, 0x94, 0x3d, 0xa8, 0x36, 0x1a, 0x3e, 0x08, 0x75, 0x17, 0x3e,
  0x40, 0xce, 0x67, 0xbe, 0xf8, 0xe7, 0x2f, 0xbe, 0x70, 0xe4, 0x6d, 0xbe,
  0x94, 0x92, 0x7f, 0x3d, 0xc0, 0x22, 0x5a, 0xbd, 0x9e, 0x88, 0x4e, 0x3e,
  0x6c, 0x90, 0x30, 0x3e, 0xaa, 0x41, 0xb0, 0xbd, 0xb9, 0x34, 0x7a, 0x3d,
  0xab, 0xb0, 0x60, 0x3e, 0x65, 0x3d, 0x1e, 0x3e, 0xf8, 0xff, 0x40, 0x3e,
  0x16, 0x72, 0x76, 0x3e, 0xf2, 0x4f, 0x1e, 0xbe, 0x3d, 0x2f, 0x59, 0x3e,
  0x61, 0x65, 0x65, 0x3e, 0x17, 0xec, 0x03, 0x3e, 0x8e, 0xe2, 0xf3, 0x3c,
  0x8b, 0xf9, 0xe7, 0x3d, 0x1d, 0x19, 0xa0, 0x3d, 0x60, 0x9b, 0x05, 0x3c,
  0x5e, 0xc7, 0x8a, 0xbd, 0x7c, 0x62, 0x76, 0x3d, 0x42, 0xed, 0x1b, 0xbe,
  0x80, 0xd6, 0xf1, 0x3b, 0x57, 0x77, 0x72, 0x3e, 0x43, 0x11, 0x08, 0xbd,
  0x1c, 0xfe, 0x6c, 0x3e, 0x19, 0xe3, 0x11, 0xbe, 0x0a, 0x1e, 0x16, 0xbe,
  0xbc, 0x0f, 0x0d, 0xbd, 0x31, 0x48, 0x3b, 0xbe, 0xf4, 0x2d, 0xc9, 0xbd,
  0xf4, 0x9b, 0x56, 0xbe, 0xad, 0x06, 0x0f, 0x3e, 0xb3, 0xc2, 0x8d, 0xbc,
  0x83, 0x83, 0x22, 0x3e, 0xff, 0xce, 0xc1, 0xbd, 0x40, 0x6b, 0x16, 0x3d,
  0x88, 0x18, 0x30, 0xbe, 0x56, 0xc5, 0x91, 0x3e, 0x7d, 0x6a, 0x6f, 0x3d,
  0xf4, 0x55, 0x6a, 0xbd, 0xdc, 0x44, 0x15, 0x3d, 0x24, 0xe6, 0xc0, 0x3b,
  0xc6, 0x2f, 0x74, 0xbe, 0x60, 0xc3, 0x09, 0xbd, 0x84, 0x31, 0xe4, 0xbd,
  0x35, 0xfb, 0x0f, 0x3e, 0x74, 0x4d, 0x1e, 0xbe, 0x5e, 0x02, 0x37, 0x3e,
  0x22, 0xfb, 0x05, 0x3e, 0x23, 0x4a, 0x56, 0xbe, 0x0a, 0xda, 0x90, 0xbd,
  0x93, 0x6b, 0x81, 0x3c, 0xe3, 0xa8, 0x11, 0xbe, 0xd4, 0x35, 0x63, 0x3e,
  0x58, 0x8c, 0x4d, 0x3e, 0xa7, 0x3f, 0x37, 0xbe, 0xa8, 0x43, 0x17, 0x3e,
  0x74, 0xfa, 0x1c, 0xbe, 0x9b, 0x23, 0x41, 0x3e, 0x08, 0x86, 0x5e, 0xbd,
  0xe0, 0x57, 0xc3, 0xbb, 0xc2, 0xc3, 0x08, 0xbe, 0xb9, 0xbb, 0x62, 0xbe,
  0x74, 0x24, 0x05, 0x3d, 0xc0, 0xad, 0xd3, 0xbc, 0xe7, 0x60, 0x46, 0x3e,
  0xc6, 0xf0, 0xe2, 0xbd, 0x9a, 0x5c, 0x0a, 0xbe, 0xff, 0x06, 0x24, 0xbe,
  0xeb, 0x56, 0x30, 0xbe, 0xe3, 0xdd, 0x25, 0x3e, 0xaf, 0x66, 0x3b, 0x3e,
  0x3b, 0x00, 0x08, 0x3e, 0x97, 0x9b, 0xf4, 0x3d, 0x5f, 0x7e, 0x38, 0x3e,
  0x11, 0x55, 0x56, 0xbe, 0xae, 0x8a, 0x56, 0xbe, 0x43, 0x1d, 0x11, 0xbd,
  0xd9, 0x1c, 0x88, 0xba, 0x4a, 0x83, 0x55, 0x3e, 0x3e, 0x97, 0xf9, 0x3d,
  0xf2, 0xea, 0x80, 0xbd, 0x98, 0xc9, 0x94, 0x3d, 0x8e, 0x0f, 0x32, 0x3e,
  0x00, 0xf3, 0x9e, 0xbc, 0xbc, 0x3d, 0xeb, 0x3d, 0xef, 0x95, 0xcb, 0xbd,
  0x1d, 0x21, 0x4d, 0x3e, 0x61, 0x2c, 0x11, 0x3e, 0x8c, 0xe2, 0xc9, 0xbd,
  0xfb, 0xcc, 0xdf, 0xba, 0xbe, 0x15, 0x61, 0xbe, 0x73, 0xbd, 0x4d, 0x3e,
  0x0b, 0x29, 0x33, 0x3e, 0x88, 0x40, 0xd0, 0xbb, 0xd8, 0xe4, 0x4c, 0x3e,
  0x23, 0xdd, 0x92, 0x3e, 0x10, 0x85, 0x8e, 0x3d, 0xdc, 0x95, 0x35, 0x3c,
  0xbf, 0x36, 0xa6, 0x3c, 0xee, 0xf5, 0x52, 0x3d, 0x32, 0x74, 0xa9, 0xbe,
  0xf2, 0xdf, 0xb2, 0xbd, 0x7c, 0x32, 0x67, 0xbe, 0x77, 0xe0, 0x84, 0x3e,
  0xd0, 0x7a, 0x04, 0x3d, 0xf2, 0xe6, 0xca, 0xba, 0x6e, 0x02, 0x42, 0x3e,
  0xa2, 0xb5, 0x99, 0x3d, 0x8b, 0x20, 0x55, 0xba, 0xab, 0xe5, 0x8a, 0xbe,
  0x98, 0x2c, 0x96, 0xbe, 0x03, 0x44, 0x66, 0xbc, 0x4f, 0xe8, 0x3d, 0xbc,
  0xd6, 0xd0, 0xa0, 0xbd, 0x99, 0x93, 0x0a, 0x3e, 0xad, 0xe4, 0x5f, 0x3d,
  0x5e, 0x48, 0xc4, 0x3d, 0x54, 0x1d, 0x1d, 0xbe, 0xd1, 0x8a, 0x4c, 0xbe,
  0xe6, 0x78, 0x1f, 0xbe, 0x93, 0x35, 0x67, 0xbe, 0x24, 0x77, 0xd3, 0xbd,
  0xfd, 0xbf, 0xe2, 0x3d, 0x7e, 0x0a, 0x09, 0x3e, 0xe7, 0x90, 0x77, 0xbe,
  0xc1, 0x6a, 0x6d, 0x3e, 0x31, 0x83, 0x1f, 0x3e, 0x96, 0xa8, 0xba, 0xbd,
  0x97, 0x5a, 0x5b, 0xbe, 0x68, 0x3b, 0x99, 0x3c, 0x40, 0xb8, 0x07, 0xbe,
  0x4a, 0x00, 0x6f, 0xbe, 0xb5, 0xf3, 0x13, 0x3e, 0xd8, 0xb9, 0x40, 0xbe,
  0x79, 0x3c, 0x12, 0x3e, 0xb0, 0x60, 0xfd, 0xbc, 0xc9, 0x94, 0x85, 0x3d,
  0xdc, 0xe5, 0x81, 0xbd, 0x4d, 0x9d, 0x64, 0xbe, 0x1c, 0x44, 0x66, 0x3e,
  0xd8, 0x2d, 0xe9, 0x3d, 0x4c, 0x1c, 0x1b, 0xbd, 0x3a, 0x10, 0xa3, 0xbd,
  0xaa, 0x84, 0x16, 0xbe, 0x85, 0x3f, 0x74, 0xbe, 0x56, 0x79, 0xa1, 0x3d,
  0xc4, 0x85, 0x20, 0x3e, 0x56, 0xf8, 0x68, 0xbd, 0x6b, 0xb0, 0x24, 0xbd,
  0x75, 0x24, 0x53, 0xbe, 0x2a, 0x8d, 0xff, 0x3d, 0xb3, 0x54, 0x37, 0xbe,
  0x7b, 0x2c, 0x08, 0x3e, 0x8a, 0xf9, 0x69, 0xbb, 0xd3, 0x9a, 0x06, 0xbd,
  0x85, 0xdd, 0x77, 0x3e, 0x50, 0xe5, 0x5f, 0xbc, 0xaf, 0x79, 0xb2, 0x3d,
  0x70, 0x44, 0x49, 0x3e, 0x0c, 0xed, 0xe0, 0x3d, 0x02, 0x25, 0xed, 0xbd,
  0x05, 0xed, 0x4e, 0xbe, 0x1b, 0xe9, 0x3c, 0xbe, 0x93, 0xea, 0x38, 0x3d,
  0xc6, 0x7e, 0x93, 0xbc, 0x96, 0x04, 0x85, 0x3e, 0x65, 0x56, 0x7a, 0x3e,
  0x1b, 0x04, 0xb2, 0x3d, 0x80, 0xfe, 0x1e, 0x3e, 0xa7, 0xf9, 0xc4, 0xbd,
  0x75, 0xc7, 0x85, 0x3d, 0x5d, 0x61, 0x7b, 0xbd, 0x2b, 0x51, 0x09, 0x3e,
  0x73, 0xa2, 0x40, 0xbe, 0x1f, 0xf2, 0xd3, 0x3d, 0xac, 0x9c, 0x24, 0x3e,
  0x28, 0x15, 0xb4, 0xbc, 0x24, 0x0c, 0x3f, 0xbe, 0xf6, 0xa3, 0xdf, 0xbd,
  0x46, 0xc3, 0xe6, 0x3d, 0x0d, 0xb3, 0x33, 0xbe, 0x9f, 0xb4, 0x17, 0x3e,
  0x90, 0xba, 0xff, 0x3d, 0x6a, 0xb0, 0x2d, 0x3e, 0xb4, 0x0f, 0xc2, 0xbd,
  0x34, 0xa6, 0x0f, 0x3b, 0x2a, 0x6e, 0x9f, 0xbc, 0x5d, 0x0e, 0xce, 0xbb,
  0x90, 0x66, 0x96, 0xbd, 0x32, 0x66, 0x9d, 0xbd, 0xa7, 0xff, 0x57, 0x3e,
  0x62, 0xfe, 0xff, 0xff, 0x04, 0x00, 0x00, 0x00, 0x90, 0x01, 0x00, 0x00,
  0x00, 0x00, 0x00, 0x00, 0x00, 0x00, 0x00, 0x00, 0x6a, 0x94, 0x5e, 0xbc,
  0xb6, 0x59, 0x4f, 0xbb, 0x57, 0xb9, 0xf2, 0x3b, 0x00, 0x00, 0x00, 0x00,
  0x00, 0x00, 0x00, 0x00, 0x2f, 0xa5, 0x5d, 0x3a, 0x00, 0x00, 0x00, 0x00,
  0xb7, 0xcc, 0x38, 0x3c, 0x00, 0x00, 0x00, 0x00, 0x00, 0x00, 0x00, 0x00,
  0xb2, 0xbb, 0xe0, 0x3b, 0x00, 0x00, 0x00, 0x00, 0x8b, 0xc7, 0x8d, 0xbc,
  0x86, 0x7b, 0x01, 0x3d, 0x00, 0x00, 0x00, 0x00, 0x00, 0x00, 0x00, 0x00,
  0x38, 0x5f, 0x35, 0x3c, 0x58, 0x19, 0xda, 0xbc, 0x40, 0x29, 0x49, 0x3c,
  0xbd, 0xf6, 0x03, 0x3d, 0xf0, 0xe6, 0xde, 0xba, 0x5a, 0xfd, 0xd1, 0x3b,
  0xcd, 0x16, 0xbb, 0xbc, 0x33, 0x12, 0x95, 0xbc, 0x2c, 0x61, 0x55, 0xbd,
  0x19, 0xaa, 0x4d, 0xbd, 0x61, 0x61, 0xfa, 0x3b, 0x91, 0xd4, 0x87, 0xbc,
  0x43, 0x17, 0x91, 0xbc, 0x3d, 0x5d, 0x3b, 0x3c, 0x00, 0x00, 0x00, 0x00,
  0x97, 0x54, 0x44, 0x3c, 0x00, 0x00, 0x00, 0x00, 0x10, 0xc2, 0x8b, 0xbc,
  0xae, 0x5c, 0x2f, 0x3c, 0x3f, 0x86, 0x43, 0xbc, 0x7d, 0xf3, 0x17, 0x3c,
  0x00, 0x00, 0x00, 0x00, 0x6a, 0x33, 0x8a, 0xbc, 0x4a, 0x1f, 0x3f, 0x3c,
  0x00, 0x00, 0x00, 0x00, 0x47, 0xad, 0x88, 0xbc, 0x9a, 0x76, 0xd5, 0xbc,
  0x7f, 0x74, 0xed, 0xbc, 0xf6, 0x8d, 0x35, 0x3c, 0x00, 0x00, 0x00, 0x00,
  0x62, 0xc1, 0x3f, 0x3c, 0x77, 0x2d, 0x39, 0xbd, 0x00, 0x00, 0x00, 0x00,
  0xa8, 0x86, 0x84, 0xbc, 0x3b, 0xda, 0x8e, 0xbc, 0xa1, 0xe7, 0xb9, 0xbb,
  0x00, 0x00, 0x00, 0x00, 0x00, 0x00, 0x00, 0x00, 0x34, 0x30, 0xe3, 0xbb,
  0x00, 0x00, 0x00, 0x00, 0x00, 0x00, 0x00, 0x00, 0xf2, 0x57, 0x9a, 0xbc,
  0xc6, 0x64, 0x87, 0x3c, 0x00, 0x00, 0x00, 0x00, 0x40, 0x46, 0x44, 0x3c,
  0x97, 0xfa, 0x3e, 0x3c, 0xeb, 0x90, 0x17, 0x3c, 0x00, 0x00, 0x00, 0x00,
  0x06, 0x21, 0x44, 0x3b, 0x00, 0x00, 0x00, 0x00, 0x49, 0x44, 0x00, 0x3d,
  0x94, 0x3f, 0xc0, 0x3b, 0x00, 0x00, 0x00, 0x00, 0xf8, 0x06, 0xae, 0xbb,
  0xe6, 0x9d, 0x85, 0x3b, 0x00, 0x00, 0x00, 0x00, 0x00, 0x00, 0x00, 0x00,
  0x00, 0x00, 0x00, 0x00, 0x2c, 0x32, 0x8c, 0x3c, 0xf3, 0x19, 0x8a, 0xbc,
  0x64, 0x46, 0x35, 0x3c, 0xe5, 0x43, 0x4d, 0x3c, 0x53, 0x54, 0x3d, 0x3c,
  0xb0, 0x8d, 0x7a, 0x3d, 0x1b, 0x2e, 0x68, 0x3a, 0x73, 0xf9, 0xcb, 0x3d,
  0xb9, 0x59, 0x70, 0xbc, 0x00, 0x00, 0x00, 0x00, 0x2f, 0x03, 0x12, 0xbd,
  0x00, 0x00, 0x00, 0x00, 0x00, 0x00, 0x00, 0x00, 0x84, 0x03, 0xa5, 0xbc,
  0x00, 0x00, 0x00, 0x00, 0xac, 0x0d, 0x60, 0xbb, 0x44, 0x1e, 0x40, 0x3c,
  0xcf, 0xc8, 0x3c, 0x3c, 0x06, 0x01, 0xc6, 0x3c, 0xde, 0xcb, 0x8e, 0xbc,
  0xf8, 0xba, 0x40, 0x3c, 0x00, 0x00, 0x00, 0x00, 0xc1, 0x5f, 0x88, 0xbc,
  0x48, 0xe9, 0xae, 0xbc, 0x00, 0x00, 0x06, 0x00, 0x08, 0x00, 0x04, 0x00,
  0x06, 0x00, 0x00, 0x00, 0x04, 0x00, 0x00, 0x00, 0x04, 0x00, 0x00, 0x00,
  0x5d, 0x42, 0x66, 0x3c, 0x88, 0xfc, 0xff, 0xff, 0x8c, 0xfc, 0xff, 0xff,
  0x0f, 0x00, 0x00, 0x00, 0x4d, 0x4c, 0x49, 0x52, 0x20, 0x43, 0x6f, 0x6e,
  0x76, 0x65, 0x72, 0x74, 0x65, 0x64, 0x2e, 0x00, 0x01, 0x00, 0x00, 0x00,
  0x14, 0x00, 0x00, 0x00, 0x00, 0x00, 0x0e, 0x00, 0x18, 0x00, 0x14, 0x00,
  0x10, 0x00, 0x0c, 0x00, 0x08, 0x00, 0x04, 0x00, 0x0e, 0x00, 0x00, 0x00,
  0x14, 0x00, 0x00, 0x00, 0x1c, 0x00, 0x00, 0x00, 0xa0, 0x00, 0x00, 0x00,
  0xa4, 0x00, 0x00, 0x00, 0xa8, 0x00, 0x00, 0x00, 0x04, 0x00, 0x00, 0x00,
  0x6d, 0x61, 0x69, 0x6e, 0x00, 0x00, 0x00, 0x00, 0x02, 0x00, 0x00, 0x00,
  0x48, 0x00, 0x00, 0x00, 0x04, 0x00, 0x00, 0x00, 0xce, 0xff, 0xff, 0xff,
  0x10, 0x00, 0x00, 0x00, 0x00, 0x00, 0x00, 0x08, 0x0c, 0x00, 0x00, 0x00,
  0x10, 0x00, 0x00, 0x00, 0x00, 0xfd, 0xff, 0xff, 0x01, 0x00, 0x00, 0x00,
  0x06, 0x00, 0x00, 0x00, 0x03, 0x00, 0x00, 0x00, 0x05, 0x00, 0x00, 0x00,
  0x04, 0x00, 0x00, 0x00, 0x01, 0x00, 0x00, 0x00, 0x00, 0x00, 0x0e, 0x00,
  0x16, 0x00, 0x00, 0x00, 0x10, 0x00, 0x0c, 0x00, 0x0b, 0x00, 0x04, 0x00,
  0x0e, 0x00, 0x00, 0x00, 0x18, 0x00, 0x00, 0x00, 0x00, 0x00, 0x00, 0x08,
  0x18, 0x00, 0x00, 0x00, 0x1c, 0x00, 0x00, 0x00, 0x00, 0x00, 0x06, 0x00,
  0x08, 0x00, 0x07, 0x00, 0x06, 0x00, 0x00, 0x00, 0x00, 0x00, 0x00, 0x01,
  0x01, 0x00, 0x00, 0x00, 0x05, 0x00, 0x00, 0x00, 0x03, 0x00, 0x00, 0x00,
  0x00, 0x00, 0x00, 0x00, 0x03, 0x00, 0x00, 0x00, 0x02, 0x00, 0x00, 0x00,
  0x01, 0x00, 0x00, 0x00, 0x06, 0x00, 0x00, 0x00, 0x01, 0x00, 0x00, 0x00,
  0x00, 0x00, 0x00, 0x00, 0x07, 0x00, 0x00, 0x00, 0x60, 0x02, 0x00, 0x00,
  0xf4, 0x01, 0x00, 0x00, 0x8c, 0x01, 0x00, 0x00, 0x40, 0x01, 0x00, 0x00,
  0xf4, 0x00, 0x00, 0x00, 0x5c, 0x00, 0x00, 0x00, 0x04, 0x00, 0x00, 0x00,
  0xd0, 0xfd, 0xff, 0xff, 0x14, 0x00, 0x00, 0x00, 0x1c, 0x00, 0x00, 0x00,
  0x1c, 0x00, 0x00, 0x00, 0x07, 0x00, 0x00, 0x00, 0x34, 0x00, 0x00, 0x00,
  0x02, 0x00, 0x00, 0x00, 0xff, 0xff, 0xff, 0xff, 0x01, 0x00, 0x00, 0x00,
  0xbc, 0xfd, 0xff, 0xff, 0x19, 0x00, 0x00, 0x00, 0x53, 0x74, 0x61, 0x74,
  0x65, 0x66, 0x75, 0x6c, 0x50, 0x61, 0x72, 0x74, 0x69, 0x74, 0x69, 0x6f,
  0x6e, 0x65, 0x64, 0x43, 0x61, 0x6c, 0x6c, 0x3a, 0x30, 0x00, 0x00, 0x00,
  0x02, 0x00, 0x00, 0x00, 0x01, 0x00, 0x00, 0x00, 0x01, 0x00, 0x00, 0x00,
  0x24, 0xfe, 0xff, 0xff, 0x14, 0x00, 0x00, 0x00, 0x1c, 0x00, 0x00, 0x00,
  0x1c, 0x00, 0x00, 0x00, 0x06, 0x00, 0x00, 0x00, 0x74, 0x00, 0x00, 0x00,
  0x02, 0x00, 0x00, 0x00, 0xff, 0xff, 0xff, 0xff, 0x64, 0x00, 0x00, 0x00,
  0x10, 0xfe, 0xff, 0xff, 0x58, 0x00, 0x00, 0x00, 0x73, 0x65, 0x71, 0x75,
  0x65, 0x6e, 0x74, 0x69, 0x61, 0x6c, 0x5f, 0x32, 0x31, 0x2f, 0x64, 0x65,
  0x6e, 0x73, 0x65, 0x5f, 0x34, 0x32, 0x2f, 0x4d, 0x61, 0x74, 0x4d, 0x75,
  0x6c, 0x3b, 0x73, 0x65, 0x71, 0x75, 0x65, 0x6e, 0x74, 0x69, 0x61, 0x6c,
  0x5f, 0x32, 0x31, 0x2f, 0x64, 0x65, 0x6e, 0x73, 0x65, 0x5f, 0x34, 0x32,
  0x2f, 0x52, 0x65, 0x6c, 0x75, 0x3b, 0x73, 0x65, 0x71, 0x75, 0x65, 0x6e,
  0x74, 0x69, 0x61, 0x6c, 0x5f, 0x32, 0x31, 0x2f, 0x64, 0x65, 0x6e, 0x73,
  0x65, 0x5f, 0x34, 0x32, 0x2f, 0x42, 0x69, 0x61, 0x73, 0x41, 0x64, 0x64,
  0x00, 0x00, 0x00, 0x00, 0x02, 0x00, 0x00, 0x00, 0x01, 0x00, 0x00, 0x00,
  0x64, 0x00, 0x00, 0x00, 0x1a, 0xff, 0xff, 0xff, 0x10, 0x00, 0x00, 0x00,
  0x10, 0x00, 0x00, 0x00, 0x05, 0x00, 0x00, 0x00, 0x2c, 0x00, 0x00, 0x00,
  0x94, 0xfe, 0xff, 0xff, 0x1d, 0x00, 0x00, 0x00, 0x73, 0x65, 0x71, 0x75,
  0x65, 0x6e, 0x74, 0x69, 0x61, 0x6c, 0x5f, 0x32, 0x31, 0x2f, 0x64, 0x65,
  0x6e, 0x73, 0x65, 0x5f, 0x34, 0x33, 0x2f, 0x4d, 0x61, 0x74, 0x4d, 0x75,
  0x6c, 0x00, 0x00, 0x00, 0x02, 0x00, 0x00, 0x00, 0x01, 0x00, 0x00, 0x00,
  0x64, 0x00, 0x00, 0x00, 0x62, 0xff, 0xff, 0xff, 0x10, 0x00, 0x00, 0x00,
  0x10, 0x00, 0x00, 0x00, 0x04, 0x00, 0x00, 0x00, 0x2c, 0x00, 0x00, 0x00,
  0xdc, 0xfe, 0xff, 0xff, 0x1d, 0x00, 0x00, 0x00, 0x73, 0x65, 0x71, 0x75,
  0x65, 0x6e, 0x74, 0x69, 0x61, 0x6c, 0x5f, 0x32, 0x31, 0x2f, 0x64, 0x65,
  0x6e, 0x73, 0x65, 0x5f, 0x34, 0x32, 0x2f, 0x4d, 0x61, 0x74, 0x4d, 0x75,
  0x6c, 0x00, 0x00, 0x00, 0x02, 0x00, 0x00, 0x00, 0x64, 0x00, 0x00, 0x00,
  0x05, 0x00, 0x00, 0x00, 0xaa, 0xff, 0xff, 0xff, 0x10, 0x00, 0x00, 0x00,
  0x10, 0x00, 0x00, 0x00, 0x03, 0x00, 0x00, 0x00, 0x3c, 0x00, 0x00, 0x00,
  0x24, 0xff, 0xff, 0xff, 0x2d, 0x00, 0x00, 0x00, 0x73, 0x65, 0x71, 0x75,
  0x65, 0x6e, 0x74, 0x69, 0x61, 0x6c, 0x5f, 0x32, 0x31, 0x2f, 0x64, 0x65,
  0x6e, 0x73, 0x65, 0x5f, 0x34, 0x32, 0x2f, 0x42, 0x69, 0x61, 0x73, 0x41,
  0x64, 0x64, 0x2f, 0x52, 0x65, 0x61, 0x64, 0x56, 0x61, 0x72, 0x69, 0x61,
  0x62, 0x6c, 0x65, 0x4f, 0x70, 0x00, 0x00, 0x00, 0x01, 0x00, 0x00, 0x00,
  0x64, 0x00, 0x00, 0x00, 0x00, 0x00, 0x0e, 0x00, 0x14, 0x00, 0x10, 0x00,
  0x00, 0x00, 0x0c, 0x00, 0x08, 0x00, 0x04, 0x00, 0x0e, 0x00, 0x00, 0x00,
  0x10, 0x00, 0x00, 0x00, 0x10, 0x00, 0x00, 0x00, 0x02, 0x00, 0x00, 0x00,
  0x3c, 0x00, 0x00, 0x00, 0x88, 0xff, 0xff, 0xff, 0x2d, 0x00, 0x00, 0x00,
  0x73, 0x65, 0x71, 0x75, 0x65, 0x6e, 0x74, 0x69, 0x61, 0x6c, 0x5f, 0x32,
  0x31, 0x2f, 0x64, 0x65, 0x6e, 0x73, 0x65, 0x5f, 0x34, 0x33, 0x2f, 0x42,
  0x69, 0x61, 0x73, 0x41, 0x64, 0x64, 0x2f, 0x52, 0x65, 0x61, 0x64, 0x56,
  0x61, 0x72, 0x69, 0x61, 0x62, 0x6c, 0x65, 0x4f, 0x70, 0x00, 0x00, 0x00,
  0x01, 0x00, 0x00, 0x00, 0x01, 0x00, 0x00, 0x00, 0x14, 0x00, 0x18, 0x00,
  0x14, 0x00, 0x00, 0x00, 0x10, 0x00, 0x0c, 0x00, 0x08, 0x00, 0x00, 0x00,
  0x00, 0x00, 0x04, 0x00, 0x14, 0x00, 0x00, 0x00, 0x14, 0x00, 0x00, 0x00,
  0x20, 0x00, 0x00, 0x00, 0x20, 0x00, 0x00, 0x00, 0x01, 0x00, 0x00, 0x00,
  0x40, 0x00, 0x00, 0x00, 0x02, 0x00, 0x00, 0x00, 0xff, 0xff, 0xff, 0xff,
  0x05, 0x00, 0x00, 0x00, 0x04, 0x00, 0x04, 0x00, 0x04, 0x00, 0x00, 0x00,
  0x20, 0x00, 0x00, 0x00, 0x73, 0x65, 0x72, 0x76, 0x69, 0x6e, 0x67, 0x5f,
  0x64, 0x65, 0x66, 0x61, 0x75, 0x6c, 0x74, 0x5f, 0x64, 0x65, 0x6e, 0x73,
  0x65, 0x5f, 0x34, 0x32, 0x5f, 0x69, 0x6e, 0x70, 0x75, 0x74, 0x3a, 0x30,
  0x00, 0x00, 0x00, 0x00, 0x02, 0x00, 0x00, 0x00, 0x01, 0x00, 0x00, 0x00,
  0x05, 0x00, 0x00, 0x00, 0x01, 0x00, 0x00, 0x00, 0x10, 0x00, 0x00, 0x00,
  0x0c, 0x00, 0x0c, 0x00, 0x0b, 0x00, 0x00, 0x00, 0x00, 0x00, 0x04, 0x00,
  0x0c, 0x00, 0x00, 0x00, 0x09, 0x00, 0x00, 0x00, 0x00, 0x00, 0x00, 0x09
};
unsigned int dense_model_10m_tflite_len = 4308;
