unsigned char dense_modelr3_tflite[] = {
  0x1c, 0x00, 0x00, 0x00, 0x54, 0x46, 0x4c, 0x33, 0x14, 0x00, 0x20, 0x00,
  0x1c, 0x00, 0x18, 0x00, 0x14, 0x00, 0x10, 0x00, 0x0c, 0x00, 0x00, 0x00,
  0x08, 0x00, 0x04, 0x00, 0x14, 0x00, 0x00, 0x00, 0x1c, 0x00, 0x00, 0x00,
  0x94, 0x00, 0x00, 0x00, 0xec, 0x00, 0x00, 0x00, 0xd8, 0x0c, 0x00, 0x00,
  0xe8, 0x0c, 0x00, 0x00, 0x60, 0x10, 0x00, 0x00, 0x03, 0x00, 0x00, 0x00,
  0x01, 0x00, 0x00, 0x00, 0x10, 0x00, 0x00, 0x00, 0x00, 0x00, 0x0a, 0x00,
  0x10, 0x00, 0x0c, 0x00, 0x08, 0x00, 0x04, 0x00, 0x0a, 0x00, 0x00, 0x00,
  0x0c, 0x00, 0x00, 0x00, 0x1c, 0x00, 0x00, 0x00, 0x38, 0x00, 0x00, 0x00,
  0x0f, 0x00, 0x00, 0x00, 0x73, 0x65, 0x72, 0x76, 0x69, 0x6e, 0x67, 0x5f,
  0x64, 0x65, 0x66, 0x61, 0x75, 0x6c, 0x74, 0x00, 0x01, 0x00, 0x00, 0x00,
  0x04, 0x00, 0x00, 0x00, 0x94, 0xff, 0xff, 0xff, 0x06, 0x00, 0x00, 0x00,
  0x04, 0x00, 0x00, 0x00, 0x07, 0x00, 0x00, 0x00, 0x64, 0x65, 0x6e, 0x73,
  0x65, 0x5f, 0x34, 0x00, 0x01, 0x00, 0x00, 0x00, 0x04, 0x00, 0x00, 0x00,
  0xb6, 0xf3, 0xff, 0xff, 0x04, 0x00, 0x00, 0x00, 0x0d, 0x00, 0x00, 0x00,
  0x64, 0x65, 0x6e, 0x73, 0x65, 0x5f, 0x33, 0x5f, 0x69, 0x6e, 0x70, 0x75,
  0x74, 0x00, 0x00, 0x00, 0x02, 0x00, 0x00, 0x00, 0x34, 0x00, 0x00, 0x00,
  0x04, 0x00, 0x00, 0x00, 0xdc, 0xff, 0xff, 0xff, 0x09, 0x00, 0x00, 0x00,
  0x04, 0x00, 0x00, 0x00, 0x13, 0x00, 0x00, 0x00, 0x43, 0x4f, 0x4e, 0x56,
  0x45, 0x52, 0x53, 0x49, 0x4f, 0x4e, 0x5f, 0x4d, 0x45, 0x54, 0x41, 0x44,
  0x41, 0x54, 0x41, 0x00, 0x08, 0x00, 0x0c, 0x00, 0x08, 0x00, 0x04, 0x00,
  0x08, 0x00, 0x00, 0x00, 0x08, 0x00, 0x00, 0x00, 0x04, 0x00, 0x00, 0x00,
  0x13, 0x00, 0x00, 0x00, 0x6d, 0x69, 0x6e, 0x5f, 0x72, 0x75, 0x6e, 0x74,
  0x69, 0x6d, 0x65, 0x5f, 0x76, 0x65, 0x72, 0x73, 0x69, 0x6f, 0x6e, 0x00,
  0x0a, 0x00, 0x00, 0x00, 0xe8, 0x0b, 0x00, 0x00, 0xe0, 0x0b, 0x00, 0x00,
  0xcc, 0x0b, 0x00, 0x00, 0x24, 0x0a, 0x00, 0x00, 0x44, 0x02, 0x00, 0x00,
  0xa4, 0x00, 0x00, 0x00, 0x9c, 0x00, 0x00, 0x00, 0x94, 0x00, 0x00, 0x00,
  0x74, 0x00, 0x00, 0x00, 0x04, 0x00, 0x00, 0x00, 0x5a, 0xf4, 0xff, 0xff,
  0x04, 0x00, 0x00, 0x00, 0x60, 0x00, 0x00, 0x00, 0x0c, 0x00, 0x00, 0x00,
  0x08, 0x00, 0x0e, 0x00, 0x08, 0x00, 0x04, 0x00, 0x08, 0x00, 0x00, 0x00,
  0x14, 0x00, 0x00, 0x00, 0x30, 0x00, 0x00, 0x00, 0x00, 0x00, 0x0a, 0x00,
  0x0c, 0x00, 0x08, 0x00, 0x00, 0x00, 0x07, 0x00, 0x0a, 0x00, 0x00, 0x00,
  0x00, 0x00, 0x00, 0x01, 0x04, 0x00, 0x00, 0x00, 0x01, 0x00, 0x00, 0x00,
  0xea, 0x03, 0x00, 0x00, 0x00, 0x00, 0x0a, 0x00, 0x10, 0x00, 0x0c, 0x00,
  0x08, 0x00, 0x04, 0x00, 0x0a, 0x00, 0x00, 0x00, 0x02, 0x00, 0x00, 0x00,
  0x02, 0x00, 0x00, 0x00, 0x04, 0x00, 0x00, 0x00, 0x05, 0x00, 0x00, 0x00,
  0x32, 0x2e, 0x39, 0x2e, 0x32, 0x00, 0x00, 0x00, 0xc6, 0xf4, 0xff, 0xff,
  0x04, 0x00, 0x00, 0x00, 0x10, 0x00, 0x00, 0x00, 0x31, 0x2e, 0x35, 0x2e,
  0x30, 0x00, 0x00, 0x00, 0x00, 0x00, 0x00, 0x00, 0x00, 0x00, 0x00, 0x00,
  0x6c, 0xf1, 0xff, 0xff, 0x70, 0xf1, 0xff, 0xff, 0xea, 0xf4, 0xff, 0xff,
  0x04, 0x00, 0x00, 0x00, 0x90, 0x01, 0x00, 0x00, 0x8a, 0x4a, 0x06, 0x3e,
  0xa7, 0x23, 0x3a, 0xbe, 0x28, 0xb0, 0x7e, 0xbe, 0x6d, 0x5a, 0x91, 0x3e,
  0x28, 0xaf, 0x2f, 0xbe, 0x1b, 0x2b, 0x11, 0xbe, 0xb5, 0x78, 0x84, 0xbe,
  0x5f, 0x59, 0xf4, 0xbd, 0x8e, 0xe0, 0x8f, 0xbd, 0xea, 0x95, 0xa4, 0xbe,
  0xe0, 0x02, 0x05, 0xbe, 0x72, 0x9e, 0xc0, 0xbd, 0x4e, 0x74, 0x1b, 0x3e,
  0xf4, 0x72, 0x37, 0xbe, 0xb8, 0x42, 0x8a, 0xbc, 0x14, 0xf9, 0x04, 0xbd,
  0xf4, 0xfc, 0x1d, 0x3e, 0x89, 0x04, 0x8b, 0x3e, 0x76, 0x06, 0xf3, 0xbd,
  0xc2, 0xba, 0xea, 0xbe, 0x78, 0x68, 0x5e, 0xbe, 0xe9, 0x12, 0x31, 0x3e,
  0x2a, 0x04, 0xbd, 0xbd, 0xb8, 0x43, 0xa8, 0xbc, 0x10, 0xf7, 0x1d, 0x3e,
  0x1f, 0xbe, 0x82, 0xbd, 0xed, 0x99, 0xb6, 0x3c, 0x41, 0x45, 0x52, 0xbe,
  0xdb, 0xcf, 0x09, 0xbf, 0x8f, 0xdc, 0xff, 0x3d, 0x8b, 0xa8, 0x61, 0xbe,
  0x16, 0xa5, 0x55, 0x3e, 0xc3, 0x7d, 0x5e, 0x3d, 0x18, 0x49, 0x57, 0x3d,
  0x5b, 0xc0, 0x41, 0x3d, 0x3f, 0x1c, 0x54, 0x3e, 0xb0, 0x53, 0x85, 0x3d,
  0x87, 0x24, 0x18, 0x3d, 0x14, 0xc0, 0xd3, 0xbd, 0x40, 0xe2, 0x56, 0x3e,
  0x18, 0x37, 0x39, 0x3e, 0xb0, 0x30, 0xb7, 0xbe, 0xbc, 0x1b, 0xcc, 0xbd,
  0x85, 0x69, 0x45, 0x3e, 0x50, 0x6c, 0x33, 0xbe, 0xdf, 0x82, 0x5b, 0xbe,
  0x6c, 0x9c, 0x15, 0x3e, 0x42, 0x94, 0x10, 0xbd, 0x10, 0x08, 0x05, 0x3d,
  0x3e, 0x72, 0x6a, 0x3e, 0x4c, 0xe6, 0x5d, 0xbe, 0x88, 0x09, 0x82, 0x3d,
  0x54, 0x9b, 0x21, 0x3e, 0x8a, 0x4a, 0xb5, 0xbd, 0x2b, 0xd2, 0x2c, 0x3e,
  0x12, 0xd1, 0x75, 0x3e, 0xb4, 0x87, 0x75, 0x3e, 0x48, 0x80, 0x63, 0xbe,
  0x7f, 0x9c, 0x86, 0x3e, 0xb7, 0x45, 0x09, 0x3e, 0x7a, 0x6c, 0x3e, 0x3d,
  0xdc, 0x04, 0xff, 0x3d, 0xf4, 0xd7, 0xce, 0x3d, 0x00, 0x64, 0x85, 0x3c,
  0xf4, 0x32, 0x0f, 0xbf, 0x78, 0x10, 0x2b, 0xbe, 0x4c, 0x06, 0x38, 0x3c,
  0xd8, 0xf2, 0x68, 0x3d, 0x5e, 0xb1, 0x8a, 0x3d, 0xf4, 0x8d, 0x4f, 0x3e,
  0x00, 0xcf, 0xd8, 0x3a, 0xd3, 0xe1, 0x65, 0x3e, 0x4b, 0x3c, 0xdc, 0xbe,
  0x28, 0x7e, 0xe8, 0xbd, 0xeb, 0xf4, 0xf4, 0xbd, 0xe8, 0x7f, 0x46, 0x3d,
  0xcc, 0x81, 0x81, 0x3e, 0x6a, 0xc7, 0xc9, 0xbe, 0x0e, 0x6a, 0x1c, 0xbe,
  0x54, 0x3b, 0xdf, 0xbd, 0x47, 0x2c, 0x53, 0xbe, 0xcd, 0x53, 0x0b, 0x3e,
  0xed, 0x05, 0xc2, 0x3d, 0x1e, 0x7d, 0x41, 0x3e, 0xe0, 0x5d, 0x27, 0x3c,
  0x4c, 0x8c, 0x48, 0x3e, 0xfc, 0x27, 0xfc, 0xbd, 0x2a, 0xee, 0x4b, 0x3e,
  0xfe, 0x4b, 0x35, 0x3e, 0x7e, 0xbe, 0x51, 0xbe, 0x7b, 0x34, 0x1d, 0x3e,
  0xc8, 0x10, 0x2a, 0x3e, 0xd5, 0x1f, 0x80, 0xbe, 0x81, 0xc7, 0x3b, 0xbe,
  0xd0, 0x4c, 0xe1, 0x3b, 0x06, 0x3a, 0x00, 0xbf, 0x3f, 0x68, 0x73, 0xbe,
  0x98, 0x8a, 0x57, 0x3e, 0x0f, 0x7c, 0xb1, 0xbe, 0xcc, 0x9f, 0x45, 0xbe,
  0x86, 0xf6, 0xff, 0xff, 0x04, 0x00, 0x00, 0x00, 0xd0, 0x07, 0x00, 0x00,
  0x50, 0xc3, 0x31, 0xbe, 0xf2, 0xc7, 0xbb, 0xbd, 0x10, 0x87, 0x2a, 0xbd,
  0xc1, 0xe6, 0x01, 0x3e, 0x9b, 0xc6, 0x73, 0xbe, 0x37, 0x40, 0xd2, 0x3c,
  0x15, 0xec, 0x4b, 0xbe, 0x7e, 0xcd, 0x1b, 0x3e, 0x6b, 0xea, 0xb6, 0xbd,
  0x6b, 0x27, 0x1a, 0x3e, 0x4d, 0x4c, 0x16, 0xbe, 0x19, 0x4e, 0x6c, 0xbe,
  0x33, 0xc2, 0x5e, 0x3e, 0x2b, 0x18, 0x1f, 0x3d, 0x45, 0x25, 0x78, 0x3e,
  0x11, 0xbd, 0x1e, 0xbe, 0x2d, 0x31, 0x39, 0xbe, 0x85, 0xb3, 0x4b, 0x3e,
  0x4a, 0x56, 0xdc, 0x3c, 0xe6, 0xc0, 0x44, 0x3e, 0x62, 0xf0, 0x4d, 0xbe,
  0xe0, 0x41, 0x2b, 0xbd, 0xe4, 0x42, 0x86, 0xbd, 0xe2, 0xd6, 0x6b, 0xbe,
  0xfe, 0x7c, 0x2d, 0xbe, 0xa7, 0x0e, 0xa4, 0xbd, 0x82, 0x0a, 0xad, 0x3d,
  0x5e, 0x5e, 0x89, 0xbd, 0x1d, 0xf1, 0x11, 0x3e, 0x3b, 0xcb, 0x8e, 0xbd,
  0x00, 0x90, 0x5d, 0x3e, 0x75, 0x98, 0x1c, 0x3e, 0x97, 0xd3, 0x32, 0xbd,
  0xc9, 0x8a, 0x8a, 0xbb, 0x8d, 0xcb, 0x83, 0xbe, 0x56, 0x36, 0x0e, 0xbe,
  0xf0, 0xdb, 0x56, 0xbd, 0x86, 0xfd, 0xc2, 0x3d, 0x54, 0xad, 0xbd, 0xbd,
  0x90, 0x94, 0x73, 0x3c, 0x47, 0x55, 0x36, 0xbe, 0x40, 0x6d, 0x63, 0xbc,
  0xf0, 0x5e, 0x16, 0x3c, 0xd4, 0x48, 0x35, 0xbe, 0xad, 0x31, 0x0f, 0xbe,
  0x0f, 0xb1, 0xd0, 0xbd, 0x5f, 0xaa, 0x3e, 0xbe, 0x8c, 0xf6, 0x0e, 0xbc,
  0xfe, 0xc9, 0xa3, 0x3d, 0x5d, 0xfe, 0x8d, 0x3e, 0xc0, 0x28, 0xe8, 0xbc,
  0xd4, 0xdf, 0x34, 0xbe, 0xc3, 0x8c, 0x5c, 0xbe, 0xe8, 0xbf, 0xf9, 0x3c,
  0xfd, 0x9c, 0x0e, 0x3e, 0xb5, 0x36, 0x2c, 0x3d, 0x98, 0xc1, 0x8f, 0x3d,
  0x98, 0xb3, 0xf6, 0x3d, 0xc6, 0xfd, 0xb8, 0x3d, 0xf7, 0xd7, 0x6e, 0x3d,
  0xd2, 0x8a, 0xa1, 0xbd, 0xbc, 0xd2, 0x3e, 0x3d, 0xd0, 0x6b, 0x58, 0xbd,
  0xa0, 0x1e, 0x35, 0xbe, 0x20, 0x55, 0xf4, 0xbb, 0xec, 0x02, 0xbd, 0xbd,
  0x42, 0x11, 0x9d, 0x3d, 0xea, 0x58, 0x0c, 0xbe, 0xb4, 0x74, 0x51, 0xbd,
  0x4c, 0xc1, 0xdd, 0xbd, 0xa8, 0xb6, 0x3f, 0xbe, 0xcb, 0x02, 0x62, 0xbe,
  0x36, 0xeb, 0x81, 0x3d, 0x5b, 0x88, 0x03, 0x3e, 0x6c, 0xd6, 0x09, 0xbe,
  0x7d, 0xba, 0x0b, 0xbe, 0xcd, 0x5f, 0x33, 0x3e, 0xa4, 0x77, 0x0e, 0xbe,
  0xdf, 0xa6, 0x41, 0xbe, 0x87, 0xf1, 0x45, 0x3e, 0xf5, 0x63, 0x52, 0x3e,
  0xd3, 0x14, 0x68, 0x3e, 0x34, 0x16, 0x1b, 0xbe, 0xf5, 0xbd, 0x1f, 0xbe,
  0x9c, 0x7e, 0xb4, 0x3d, 0xe3, 0x88, 0xe2, 0xbd, 0x46, 0x50, 0x77, 0x3e,
  0xb0, 0x00, 0x61, 0xbe, 0x5a, 0xeb, 0xed, 0x3c, 0xb0, 0x1f, 0x73, 0x3e,
  0x6c, 0x8e, 0x9b, 0xbd, 0x00, 0x06, 0xac, 0x3a, 0x86, 0x0e, 0x37, 0xbe,
  0x1e, 0x2f, 0xdd, 0x3d, 0x84, 0x59, 0x26, 0xbd, 0xe0, 0x27, 0x33, 0x3e,
  0xd7, 0x18, 0x92, 0x3c, 0x29, 0x32, 0xbc, 0xbd, 0xfd, 0x9a, 0x84, 0x3e,
  0xc5, 0x80, 0x95, 0xbe, 0xd5, 0x9d, 0x1a, 0x3e, 0x07, 0x9b, 0x3b, 0x3e,
  0xf2, 0xee, 0xd2, 0xbd, 0x13, 0xd4, 0xe9, 0x3c, 0xd4, 0x52, 0x9d, 0x3d,
  0x5c, 0x86, 0x0c, 0x3e, 0xb6, 0xc1, 0x6c, 0x3e, 0xd9, 0xfb, 0xbb, 0xbb,
  0x73, 0xe5, 0x75, 0x3e, 0x77, 0xf1, 0xd9, 0xbd, 0x68, 0xc9, 0x2e, 0x3d,
  0x68, 0x57, 0xfb, 0xbd, 0xcb, 0x1c, 0x62, 0xbd, 0x03, 0xb1, 0xe7, 0xbd,
  0x6e, 0x18, 0x48, 0x3e, 0x0b, 0xef, 0x28, 0x3e, 0xb2, 0x2f, 0x11, 0xbe,
  0xde, 0x99, 0x2c, 0xbe, 0xa0, 0x90, 0x04, 0xbc, 0xe8, 0x2e, 0x8f, 0xbc,
  0x67, 0xea, 0x10, 0x3d, 0x70, 0x48, 0xf7, 0x3d, 0x82, 0xb0, 0x96, 0x3d,
  0x3d, 0xc4, 0x01, 0x3c, 0x13, 0x35, 0x43, 0x3e, 0xbd, 0x82, 0xc7, 0x3d,
  0xb9, 0x52, 0xdb, 0x3d, 0x40, 0x6a, 0x23, 0x3e, 0x52, 0x6f, 0x51, 0x3d,
  0x84, 0x2c, 0xd9, 0xbd, 0xbb, 0xe7, 0xc3, 0xbd, 0xfc, 0x53, 0xec, 0xbc,
  0xbf, 0xce, 0x9f, 0xbc, 0x02, 0xdf, 0xd7, 0x3d, 0xf7, 0xd7, 0x01, 0x3e,
  0xcd, 0x64, 0x06, 0xbd, 0x59, 0x27, 0x4b, 0x3d, 0xe7, 0xba, 0x82, 0xbe,
  0x63, 0x7b, 0x48, 0x3e, 0xf4, 0xca, 0x7a, 0x3d, 0x13, 0x9c, 0xa2, 0xbd,
  0xc1, 0xac, 0x9d, 0xbd, 0x97, 0xff, 0x89, 0xbe, 0x8f, 0x6e, 0xa9, 0x3d,
  0x0e, 0xb8, 0x71, 0x3e, 0x2c, 0x3e, 0x38, 0x3e, 0x1f, 0xe3, 0xd2, 0x3d,
  0xab, 0x58, 0x1b, 0xbb, 0x11, 0x56, 0xbd, 0xbd, 0x91, 0x12, 0x87, 0xbd,
  0x9c, 0x52, 0x48, 0x3e, 0xfd, 0x08, 0xce, 0x3d, 0xd4, 0xad, 0xdd, 0xbb,
  0xd0, 0x28, 0xd5, 0x3d, 0x0e, 0x18, 0xbe, 0xbd, 0xa0, 0x63, 0x0e, 0x3e,
  0x94, 0xa0, 0x47, 0x3d, 0x32, 0xaf, 0x6f, 0x3e, 0xfb, 0xa2, 0x70, 0x3d,
  0x20, 0xfd, 0x5f, 0xbd, 0xf3, 0x8e, 0x24, 0x3e, 0x19, 0x5d, 0x8d, 0xbd,
  0x55, 0x82, 0x00, 0x3e, 0xd9, 0x47, 0x02, 0x3e, 0xb1, 0x43, 0x1c, 0x3e,
  0xb1, 0x07, 0x58, 0x3e, 0x4d, 0xc3, 0x40, 0xbe, 0x80, 0x6a, 0xdd, 0x3b,
  0x9b, 0xc4, 0x6f, 0xbe, 0xc0, 0x3b, 0x56, 0x3b, 0x6a, 0x07, 0x27, 0x3e,
  0x30, 0xfb, 0xe7, 0x3d, 0x77, 0x95, 0x26, 0xbd, 0x2d, 0x5f, 0x56, 0x3e,
  0xb3, 0x4a, 0x20, 0xbd, 0xa2, 0x58, 0x32, 0x3e, 0x39, 0x48, 0xf9, 0xbd,
  0x5a, 0x3e, 0xb3, 0xbd, 0x91, 0x41, 0x94, 0x3d, 0x9e, 0x28, 0x16, 0x3e,
  0x6f, 0x5f, 0xc8, 0xbd, 0xc3, 0xef, 0x63, 0x3e, 0x50, 0xce, 0x1f, 0xbd,
  0x3b, 0x5f, 0x0f, 0x3b, 0xdd, 0xc0, 0x81, 0x3e, 0xac, 0x81, 0x49, 0x3e,
  0x0e, 0xc5, 0xcd, 0x3d, 0xea, 0xfa, 0x70, 0x3b, 0x0d, 0x2d, 0xeb, 0x3d,
  0x75, 0xf1, 0x9a, 0xbd, 0x46, 0xad, 0x72, 0x3e, 0xd5, 0x2f, 0xed, 0xbc,
  0xc8, 0xed, 0x27, 0x3e, 0x26, 0x4a, 0x50, 0x3e, 0xcc, 0x05, 0xc3, 0x3d,
  0x5f, 0x4d, 0x70, 0xbe, 0x19, 0x29, 0x3a, 0xbe, 0xa0, 0xd7, 0xb8, 0x3b,
  0x6c, 0x8e, 0x27, 0xbe, 0xe8, 0xd4, 0x94, 0xbc, 0xbe, 0xc2, 0xf0, 0xbd,
  0xb8, 0xb0, 0x82, 0xbc, 0x5d, 0xbf, 0x25, 0x3e, 0x90, 0x4a, 0xb4, 0xbd,
  0x06, 0x2e, 0x34, 0xbe, 0x5c, 0xdc, 0x57, 0x3e, 0xd6, 0x95, 0x85, 0x3d,
  0xec, 0x16, 0x65, 0x3e, 0x6f, 0x29, 0x94, 0xbd, 0x48, 0xec, 0x86, 0xbe,
  0x4d, 0x17, 0x0c, 0x3e, 0x9c, 0x8e, 0x09, 0x3d, 0x70, 0x0b, 0x03, 0xbe,
  0x2c, 0xcf, 0x43, 0xbe, 0x9b, 0x01, 0xfe, 0xbd, 0x7a, 0x8c, 0xdc, 0xbd,
  0x27, 0x33, 0xc1, 0x3d, 0x4a, 0xfe, 0xf9, 0x3d, 0x9a, 0xa0, 0x4d, 0x3d,
  0x47, 0x00, 0x11, 0x3e, 0xc0, 0x4e, 0x2c, 0xbd, 0x8a, 0x6c, 0x9d, 0x3d,
  0xd0, 0xdc, 0x52, 0xbe, 0xca, 0xd4, 0x0d, 0xbe, 0x86, 0x08, 0xa7, 0x3d,
  0xc0, 0xc7, 0xea, 0xbc, 0x7f, 0xab, 0x5d, 0xbe, 0x54, 0xbf, 0x8a, 0xbd,
  0xe5, 0x91, 0x4a, 0x3e, 0x22, 0xae, 0xe8, 0xbd, 0x77, 0x54, 0x6f, 0xbe,
  0xaa, 0x5f, 0x8e, 0x3d, 0xed, 0x40, 0x6b, 0x3e, 0x0c, 0x3c, 0x5f, 0xbe,
  0x44, 0x59, 0x54, 0x3d, 0xfc, 0x1d, 0xe9, 0x3d, 0xae, 0x9d, 0x39, 0xbc,
  0xa1, 0x89, 0x34, 0x3e, 0xe1, 0x08, 0x63, 0xbe, 0x98, 0xf0, 0xd5, 0x3d,
  0xf2, 0x18, 0x9c, 0x3d, 0x78, 0x93, 0xe2, 0x3c, 0x5b, 0xc8, 0x56, 0xbe,
  0x20, 0x98, 0x99, 0xbd, 0xca, 0x86, 0xbf, 0x3d, 0xa7, 0x7a, 0x4c, 0xbe,
  0x1c, 0xb1, 0x2a, 0xbe, 0x3d, 0x1f, 0x36, 0x3e, 0x60, 0x7e, 0x17, 0xbe,
  0x91, 0x06, 0x60, 0xbe, 0x7f, 0x1e, 0xf8, 0x3d, 0xa5, 0xb6, 0x35, 0xbe,
  0x29, 0xc0, 0x86, 0xbe, 0x9f, 0xe8, 0x35, 0x3e, 0x60, 0xef, 0x42, 0x3e,
  0xb7, 0xad, 0x28, 0x3e, 0x28, 0x5e, 0x75, 0x3e, 0x3c, 0x8a, 0x04, 0xbe,
  0x2e, 0x59, 0x20, 0x3e, 0xfd, 0xf6, 0x7f, 0x3e, 0x40, 0x42, 0xb0, 0x3b,
  0x4b, 0xd5, 0x3d, 0xbe, 0xd0, 0x15, 0x71, 0xbc, 0xae, 0x05, 0x6d, 0xbe,
  0x23, 0x77, 0x14, 0x3e, 0x1d, 0xd5, 0x3c, 0xbe, 0x1e, 0xc6, 0x4c, 0xbc,
  0x4c, 0x97, 0x02, 0xbe, 0x3b, 0x61, 0x50, 0x3e, 0x2c, 0xf9, 0x92, 0x3d,
  0x0e, 0x69, 0xdd, 0xbc, 0x6a, 0x27, 0x43, 0x3e, 0xb7, 0x4a, 0x10, 0x3e,
  0x9e, 0x01, 0x4a, 0x3e, 0xe1, 0x57, 0xcd, 0x3d, 0xe0, 0x40, 0x4e, 0xbc,
  0xd1, 0xf8, 0x45, 0xbe, 0x58, 0x2a, 0x3c, 0xbe, 0xae, 0x80, 0xe1, 0xbd,
  0x5f, 0x6c, 0x18, 0x3e, 0xa7, 0xd9, 0x95, 0xbd, 0x2c, 0xd4, 0x6b, 0x3e,
  0x6f, 0x38, 0x47, 0xbe, 0xcc, 0x84, 0x90, 0xbc, 0x5b, 0xff, 0x38, 0x3e,
  0xda, 0x8d, 0xc8, 0xbd, 0x4a, 0xd7, 0xfb, 0xbd, 0xc9, 0x0d, 0x17, 0x3e,
  0x1b, 0xf7, 0x65, 0xbe, 0xc4, 0xcd, 0x65, 0x3d, 0xb5, 0x19, 0xf2, 0x3c,
  0x7d, 0x26, 0x01, 0x3e, 0x63, 0x84, 0xe4, 0x3c, 0x37, 0xe0, 0x5a, 0x3e,
  0x86, 0x60, 0x88, 0x3e, 0x4a, 0xcd, 0x10, 0xbe, 0x57, 0x8e, 0xb1, 0x3d,
  0x1f, 0x82, 0x46, 0xbd, 0xe5, 0x7d, 0xcf, 0x3d, 0x25, 0xad, 0xc5, 0x3d,
  0x4b, 0x65, 0x95, 0x3d, 0xb8, 0x27, 0xb3, 0xbc, 0x2f, 0xd2, 0x6b, 0x3d,
  0x29, 0x06, 0xb6, 0x3d, 0x6e, 0x4e, 0x38, 0xbd, 0xe4, 0x8c, 0x39, 0xbd,
  0x6a, 0x8e, 0x33, 0xbe, 0x33, 0x4e, 0x2d, 0xbe, 0xa2, 0x86, 0xc5, 0x3d,
  0xe2, 0xb6, 0xcf, 0x3d, 0xf2, 0x6b, 0xcd, 0x3d, 0x80, 0x05, 0x8d, 0x3a,
  0x80, 0xf6, 0x5b, 0xbd, 0xaa, 0x92, 0xc8, 0xbd, 0xe0, 0xc1, 0xf5, 0xbd,
  0x4c, 0xb0, 0x30, 0xbd, 0xf7, 0xa8, 0x50, 0x3e, 0x40, 0x31, 0xdc, 0xbd,
  0xf0, 0xfb, 0xa5, 0xbc, 0xc8, 0x4d, 0x2e, 0xbe, 0xbe, 0x67, 0x25, 0x3e,
  0xb4, 0x7d, 0x93, 0xbd, 0x0c, 0xd8, 0xb6, 0x3d, 0xab, 0xda, 0x2b, 0x3e,
  0x98, 0xb8, 0x91, 0xbe, 0x8c, 0x2c, 0x0e, 0xbe, 0x54, 0x7c, 0xd1, 0xbd,
  0x14, 0x99, 0x2c, 0x3d, 0x2c, 0x51, 0x3f, 0x3d, 0xc0, 0x77, 0xac, 0xbb,
  0xf5, 0x49, 0x29, 0x3e, 0xb5, 0x13, 0xfc, 0x3d, 0x7f, 0x5c, 0xa8, 0x3b,
  0xfd, 0xa6, 0x10, 0x3e, 0xf5, 0x63, 0x1a, 0x3e, 0x3a, 0xa4, 0xd2, 0x3d,
  0xed, 0x22, 0x3f, 0xbe, 0x00, 0x88, 0x9d, 0xb9, 0x39, 0xf8, 0x29, 0xbe,
  0xd4, 0xa9, 0xe8, 0xbd, 0x6a, 0xf6, 0x59, 0xbd, 0x20, 0x9c, 0x26, 0x3e,
  0xc3, 0x1c, 0x38, 0x3e, 0x8e, 0xa0, 0x18, 0x3e, 0x19, 0x01, 0x4d, 0x3e,
  0x16, 0x3d, 0x51, 0xbd, 0x38, 0x49, 0x57, 0xbe, 0xa5, 0xa2, 0xb5, 0x3b,
  0xd2, 0xbf, 0x07, 0x3e, 0x67, 0xb3, 0x70, 0x3e, 0x20, 0x05, 0xc0, 0xbc,
  0x0b, 0xc4, 0x0d, 0x3e, 0x80, 0x23, 0x85, 0xbd, 0x5e, 0xb8, 0xe9, 0xbd,
  0x54, 0xc0, 0x81, 0xbd, 0xd8, 0xc4, 0xcf, 0xbd, 0x60, 0x88, 0x47, 0x3e,
  0x4b, 0xc6, 0x57, 0x3e, 0x29, 0x55, 0x09, 0x3e, 0x91, 0xf1, 0xea, 0x3d,
  0x34, 0x3d, 0x78, 0x3e, 0x5e, 0x25, 0x5a, 0x3d, 0x4d, 0xab, 0xff, 0xbd,
  0x08, 0x41, 0xeb, 0xbb, 0xdc, 0xa0, 0x02, 0xbe, 0xdc, 0xb4, 0x07, 0x3d,
  0x80, 0x3a, 0x70, 0xbe, 0x34, 0xed, 0x43, 0xbe, 0xec, 0x25, 0xc6, 0xbd,
  0xb6, 0xf2, 0xcc, 0x3d, 0x96, 0x19, 0x2a, 0x3c, 0xaf, 0x83, 0x29, 0xbe,
  0x61, 0x04, 0x25, 0x3e, 0x10, 0x1c, 0x70, 0x3d, 0xd9, 0x2c, 0x7b, 0xbd,
  0xb0, 0x93, 0x53, 0xbc, 0x5f, 0x17, 0x3d, 0xbe, 0x6a, 0x9c, 0xde, 0x3d,
  0x28, 0x64, 0x61, 0xbe, 0x0f, 0x6f, 0x25, 0x3e, 0xce, 0x36, 0x13, 0x3e,
  0x21, 0x94, 0x45, 0x3d, 0x77, 0xed, 0x73, 0xbd, 0x79, 0x25, 0x0b, 0x3e,
  0x5a, 0xb5, 0xfa, 0x3c, 0xb6, 0xf8, 0x44, 0x3d, 0xc8, 0xc7, 0xf1, 0x3c,
  0x41, 0x1b, 0x71, 0x3b, 0x18, 0x8c, 0x74, 0x3e, 0x53, 0xcc, 0x86, 0xbe,
  0xa8, 0x2e, 0x89, 0x3c, 0x8e, 0x2a, 0xe4, 0x3d, 0x86, 0xd5, 0x61, 0xbe,
  0xf8, 0x1d, 0xed, 0x3c, 0x42, 0x00, 0x38, 0xbe, 0x62, 0x42, 0x73, 0x3e,
  0x93, 0xc3, 0x39, 0xbe, 0x02, 0x7e, 0x6e, 0x3e, 0x94, 0x78, 0x67, 0x3e,
  0x99, 0x21, 0xac, 0xbc, 0x80, 0xc0, 0x0d, 0x3e, 0xf8, 0x78, 0xc7, 0xbd,
  0x76, 0x75, 0x17, 0x3e, 0x2b, 0xb8, 0x74, 0xbe, 0x45, 0xb7, 0x30, 0x3e,
  0x9d, 0x95, 0x37, 0x3e, 0x0e, 0x85, 0x30, 0xbe, 0x63, 0x7b, 0x39, 0x3e,
  0xc0, 0x50, 0x32, 0x3e, 0x85, 0xad, 0xe8, 0xbd, 0x95, 0x49, 0x3c, 0x3e,
  0x20, 0x39, 0x2a, 0xbe, 0x5e, 0x02, 0x0e, 0x3d, 0x4b, 0x97, 0x50, 0x3e,
  0x37, 0x45, 0x01, 0xbe, 0x0d, 0x7a, 0x06, 0x3e, 0x6c, 0x39, 0x29, 0xbd,
  0x00, 0xbe, 0xf5, 0xb9, 0x30, 0x45, 0x58, 0xbe, 0x26, 0x7b, 0xa7, 0x3d,
  0x3c, 0xf5, 0x23, 0xbe, 0x22, 0x1e, 0x89, 0xbd, 0xe4, 0x2b, 0x07, 0x3d,
  0xe4, 0x40, 0x3d, 0xbe, 0x66, 0xe1, 0xaa, 0x3d, 0xbb, 0x7b, 0xb2, 0x3d,
  0x92, 0xd6, 0x44, 0xbe, 0x2c, 0x42, 0x6d, 0x3e, 0xf4, 0xea, 0xc2, 0x3c,
  0xc0, 0xe5, 0x6b, 0xbc, 0xc7, 0x02, 0x5c, 0x3e, 0x20, 0x13, 0x16, 0x3e,
  0x63, 0x96, 0xaa, 0x3d, 0xe7, 0xb5, 0x6d, 0xbe, 0x77, 0x1a, 0x1c, 0xbe,
  0x95, 0x2e, 0x81, 0x3d, 0x34, 0x1c, 0x90, 0xbd, 0xca, 0x92, 0x13, 0x3e,
  0x8a, 0x1f, 0xff, 0xbc, 0xf3, 0xdb, 0x38, 0x3d, 0x38, 0x4a, 0x9c, 0xbd,
  0x08, 0xeb, 0x8f, 0x3c, 0xd0, 0xfa, 0x58, 0xbc, 0xc0, 0x85, 0xa3, 0xbd,
  0x2c, 0xf5, 0x5d, 0x3d, 0x8a, 0x01, 0x5f, 0x3e, 0xf0, 0x43, 0xc5, 0x3d,
  0x3a, 0x56, 0x09, 0xbe, 0x4b, 0xb4, 0x31, 0x3e, 0x70, 0x43, 0x44, 0x3e,
  0x6f, 0xca, 0x3c, 0x3d, 0xc2, 0x89, 0xd9, 0x3d, 0xcf, 0x3b, 0x81, 0x3c,
  0xfd, 0x76, 0x68, 0xbe, 0x0b, 0x05, 0x48, 0x3e, 0xc0, 0x24, 0x40, 0xbc,
  0xff, 0xea, 0x65, 0x3e, 0x91, 0xfd, 0x8f, 0xbc, 0x15, 0x6a, 0x53, 0x3e,
  0x5f, 0xdd, 0xa7, 0xbd, 0x7e, 0xe1, 0x37, 0xbe, 0x1a, 0x4f, 0x2e, 0x3e,
  0x8a, 0xc3, 0xcb, 0x3d, 0x2e, 0x14, 0xfd, 0x3d, 0x8f, 0x5e, 0x17, 0xbe,
  0x1c, 0x5b, 0xdf, 0xbd, 0x08, 0xf7, 0x30, 0x3e, 0xf6, 0x09, 0xca, 0xbb,
  0x57, 0x5b, 0xc1, 0xbc, 0x99, 0x4f, 0xeb, 0x3d, 0x04, 0xae, 0xdd, 0x3d,
  0x4f, 0xd2, 0xeb, 0x3d, 0xfd, 0x02, 0xa8, 0x3d, 0x4b, 0xe4, 0x5c, 0x3e,
  0x18, 0x29, 0x06, 0x3d, 0xcf, 0xca, 0xaa, 0xbd, 0xd5, 0x97, 0x98, 0xbd,
  0x18, 0x28, 0x63, 0xbc, 0x6b, 0xb0, 0x16, 0xbe, 0xdd, 0x94, 0x78, 0x3e,
  0xa8, 0x9f, 0x5a, 0x3e, 0x46, 0x03, 0x1e, 0xbe, 0x5e, 0x25, 0x63, 0x3d,
  0xc4, 0x19, 0x75, 0xbe, 0x05, 0x53, 0xc6, 0x3d, 0x77, 0xa3, 0xe3, 0xbd,
  0xa2, 0x26, 0x87, 0x3d, 0xe3, 0x79, 0x69, 0xbe, 0x30, 0x11, 0xa5, 0xbc,
  0x28, 0xfe, 0xb5, 0x3e, 0x9b, 0x0c, 0x23, 0x3e, 0xd8, 0x6d, 0x54, 0x3d,
  0x21, 0x99, 0xa3, 0x3c, 0x21, 0x2d, 0xfb, 0x3d, 0xdf, 0x33, 0x84, 0xbe,
  0x22, 0x57, 0x49, 0x3e, 0x17, 0x95, 0x12, 0xbe, 0x5f, 0x15, 0x41, 0x3d,
  0x79, 0xed, 0x95, 0x3d, 0x39, 0x7e, 0x97, 0x3d, 0x62, 0xfe, 0xff, 0xff,
  0x04, 0x00, 0x00, 0x00, 0x90, 0x01, 0x00, 0x00, 0x00, 0x00, 0x00, 0x00,
  0x42, 0x0f, 0x0e, 0xbc, 0x63, 0xfb, 0xda, 0xbc, 0xfb, 0xa8, 0x62, 0x3c,
  0x00, 0x00, 0x00, 0x00, 0xd7, 0x00, 0x51, 0xbc, 0xa9, 0xaf, 0xca, 0xbb,
  0x00, 0x00, 0x00, 0x00, 0x00, 0x00, 0x00, 0x00, 0xef, 0x9c, 0x99, 0xbc,
  0x00, 0x00, 0x00, 0x00, 0x08, 0xa9, 0x35, 0xbc, 0x00, 0x00, 0x00, 0x00,
  0x00, 0x00, 0x00, 0x00, 0x00, 0x00, 0x00, 0x00, 0x00, 0x00, 0x00, 0x00,
  0x26, 0x75, 0x37, 0x3c, 0x61, 0x80, 0x36, 0x3c, 0x00, 0x00, 0x00, 0x00,
  0xc6, 0x43, 0xca, 0xbb, 0xaa, 0xdd, 0x35, 0xbc, 0x53, 0xf4, 0x36, 0x3c,
  0x54, 0xb9, 0x0d, 0xbc, 0x00, 0x00, 0x00, 0x00, 0x92, 0x14, 0x37, 0x3c,
  0x4d, 0xbd, 0x33, 0xbc, 0x91, 0x3e, 0x2a, 0xbc, 0x0e, 0x59, 0xbe, 0xbc,
  0x56, 0xa5, 0x6d, 0x3c, 0x97, 0x40, 0x3c, 0x3c, 0x2a, 0x6f, 0x35, 0xbc,
  0x60, 0xd1, 0x36, 0x3c, 0x9c, 0xe4, 0x39, 0x3c, 0x00, 0x00, 0x00, 0x00,
  0x11, 0xf4, 0x39, 0x3c, 0xd5, 0xf1, 0x36, 0x3c, 0x7a, 0xce, 0x3f, 0x3c,
  0xd2, 0x9e, 0x39, 0x3c, 0x3c, 0x46, 0x35, 0xbc, 0x00, 0x00, 0x00, 0x00,
  0x00, 0x00, 0x00, 0x00, 0x78, 0x98, 0xcf, 0xbc, 0x00, 0x00, 0x00, 0x00,
  0xd9, 0xd3, 0x36, 0x3c, 0x00, 0x00, 0x00, 0x00, 0x00, 0x00, 0x00, 0x00,
  0x00, 0x00, 0x00, 0x00, 0xb5, 0x2e, 0x36, 0xbc, 0x00, 0x00, 0x00, 0x00,
  0x00, 0x00, 0x00, 0x00, 0x7e, 0x40, 0x2a, 0xbc, 0xa4, 0x7d, 0x3a, 0x3c,
  0x00, 0x00, 0x00, 0x00, 0xab, 0x23, 0x5e, 0xbc, 0x5e, 0xe7, 0x36, 0x3c,
  0x00, 0x00, 0x00, 0x00, 0x82, 0x01, 0x37, 0x3c, 0x00, 0x00, 0x00, 0x00,
  0x5e, 0x7f, 0x36, 0x3c, 0xf2, 0x84, 0x3d, 0x3c, 0x48, 0x0b, 0x39, 0x3c,
  0x00, 0x00, 0x00, 0x00, 0x00, 0x00, 0x00, 0x00, 0x00, 0x00, 0x00, 0x00,
  0xd3, 0xbc, 0xab, 0xbb, 0x00, 0x00, 0x00, 0x00, 0x01, 0x4e, 0xf4, 0x3b,
  0x00, 0x00, 0x00, 0x00, 0xc8, 0xba, 0x39, 0x3c, 0x41, 0x40, 0x3c, 0x3c,
  0x00, 0x00, 0x00, 0x00, 0xfe, 0xa1, 0x36, 0x3c, 0x88, 0x84, 0x6f, 0x3c,
  0x00, 0x00, 0x00, 0x00, 0x5b, 0x2f, 0x61, 0xbc, 0x00, 0x00, 0x00, 0x00,
  0xb0, 0xb0, 0x36, 0x3c, 0x77, 0x9b, 0xb5, 0xbb, 0x00, 0x00, 0x00, 0x00,
  0xda, 0xa1, 0x34, 0xbc, 0x85, 0x23, 0x19, 0xbc, 0x7f, 0x4a, 0x37, 0x3c,
  0xbd, 0x48, 0x3a, 0x3c, 0x00, 0x00, 0x00, 0x00, 0x00, 0x00, 0x00, 0x00,
  0xce, 0x46, 0x37, 0x3c, 0x0b, 0x46, 0xf7, 0xbb, 0xfb, 0x22, 0x37, 0x3c,
  0x00, 0x00, 0x00, 0x00, 0x78, 0xd9, 0x35, 0xbc, 0x15, 0xc7, 0x39, 0x3c,
  0xed, 0x10, 0x37, 0x3c, 0x83, 0x2c, 0x40, 0xbc, 0x22, 0x9e, 0x36, 0xbc,
  0xf3, 0xd3, 0xd3, 0x3b, 0x0e, 0x7d, 0x17, 0x3c, 0x77, 0xdc, 0xc0, 0xbb,
  0x3c, 0xae, 0x01, 0x3d, 0xce, 0x58, 0x4d, 0xbc, 0x4e, 0x7e, 0x35, 0xbc,
  0x00, 0x00, 0x06, 0x00, 0x08, 0x00, 0x04, 0x00, 0x06, 0x00, 0x00, 0x00,
  0x04, 0x00, 0x00, 0x00, 0x04, 0x00, 0x00, 0x00, 0x82, 0x0c, 0x36, 0x3c,
  0xa0, 0xfc, 0xff, 0xff, 0xa4, 0xfc, 0xff, 0xff, 0x0f, 0x00, 0x00, 0x00,
  0x4d, 0x4c, 0x49, 0x52, 0x20, 0x43, 0x6f, 0x6e, 0x76, 0x65, 0x72, 0x74,
  0x65, 0x64, 0x2e, 0x00, 0x01, 0x00, 0x00, 0x00, 0x14, 0x00, 0x00, 0x00,
  0x00, 0x00, 0x0e, 0x00, 0x18, 0x00, 0x14, 0x00, 0x10, 0x00, 0x0c, 0x00,
  0x08, 0x00, 0x04, 0x00, 0x0e, 0x00, 0x00, 0x00, 0x14, 0x00, 0x00, 0x00,
  0x1c, 0x00, 0x00, 0x00, 0xa0, 0x00, 0x00, 0x00, 0xa4, 0x00, 0x00, 0x00,
  0xa8, 0x00, 0x00, 0x00, 0x04, 0x00, 0x00, 0x00, 0x6d, 0x61, 0x69, 0x6e,
  0x00, 0x00, 0x00, 0x00, 0x02, 0x00, 0x00, 0x00, 0x48, 0x00, 0x00, 0x00,
  0x04, 0x00, 0x00, 0x00, 0xce, 0xff, 0xff, 0xff, 0x10, 0x00, 0x00, 0x00,
  0x00, 0x00, 0x00, 0x08, 0x0c, 0x00, 0x00, 0x00, 0x10, 0x00, 0x00, 0x00,
  0x18, 0xfd, 0xff, 0xff, 0x01, 0x00, 0x00, 0x00, 0x06, 0x00, 0x00, 0x00,
  0x03, 0x00, 0x00, 0x00, 0x05, 0x00, 0x00, 0x00, 0x04, 0x00, 0x00, 0x00,
  0x01, 0x00, 0x00, 0x00, 0x00, 0x00, 0x0e, 0x00, 0x16, 0x00, 0x00, 0x00,
  0x10, 0x00, 0x0c, 0x00, 0x0b, 0x00, 0x04, 0x00, 0x0e, 0x00, 0x00, 0x00,
  0x18, 0x00, 0x00, 0x00, 0x00, 0x00, 0x00, 0x08, 0x18, 0x00, 0x00, 0x00,
  0x1c, 0x00, 0x00, 0x00, 0x00, 0x00, 0x06, 0x00, 0x08, 0x00, 0x07, 0x00,
  0x06, 0x00, 0x00, 0x00, 0x00, 0x00, 0x00, 0x01, 0x01, 0x00, 0x00, 0x00,
  0x05, 0x00, 0x00, 0x00, 0x03, 0x00, 0x00, 0x00, 0x00, 0x00, 0x00, 0x00,
  0x03, 0x00, 0x00, 0x00, 0x02, 0x00, 0x00, 0x00, 0x01, 0x00, 0x00, 0x00,
  0x06, 0x00, 0x00, 0x00, 0x01, 0x00, 0x00, 0x00, 0x00, 0x00, 0x00, 0x00,
  0x07, 0x00, 0x00, 0x00, 0x48, 0x02, 0x00, 0x00, 0xe0, 0x01, 0x00, 0x00,
  0x7c, 0x01, 0x00, 0x00, 0x34, 0x01, 0x00, 0x00, 0xec, 0x00, 0x00, 0x00,
  0x5c, 0x00, 0x00, 0x00, 0x04, 0x00, 0x00, 0x00, 0xe8, 0xfd, 0xff, 0xff,
  0x14, 0x00, 0x00, 0x00, 0x1c, 0x00, 0x00, 0x00, 0x1c, 0x00, 0x00, 0x00,
  0x07, 0x00, 0x00, 0x00, 0x34, 0x00, 0x00, 0x00, 0x02, 0x00, 0x00, 0x00,
  0xff, 0xff, 0xff, 0xff, 0x01, 0x00, 0x00, 0x00, 0xd4, 0xfd, 0xff, 0xff,
  0x19, 0x00, 0x00, 0x00, 0x53, 0x74, 0x61, 0x74, 0x65, 0x66, 0x75, 0x6c,
  0x50, 0x61, 0x72, 0x74, 0x69, 0x74, 0x69, 0x6f, 0x6e, 0x65, 0x64, 0x43,
  0x61, 0x6c, 0x6c, 0x3a, 0x30, 0x00, 0x00, 0x00, 0x02, 0x00, 0x00, 0x00,
  0x01, 0x00, 0x00, 0x00, 0x01, 0x00, 0x00, 0x00, 0x3c, 0xfe, 0xff, 0xff,
  0x14, 0x00, 0x00, 0x00, 0x1c, 0x00, 0x00, 0x00, 0x1c, 0x00, 0x00, 0x00,
  0x06, 0x00, 0x00, 0x00, 0x6c, 0x00, 0x00, 0x00, 0x02, 0x00, 0x00, 0x00,
  0xff, 0xff, 0xff, 0xff, 0x64, 0x00, 0x00, 0x00, 0x28, 0xfe, 0xff, 0xff,
  0x52, 0x00, 0x00, 0x00, 0x73, 0x65, 0x71, 0x75, 0x65, 0x6e, 0x74, 0x69,
  0x61, 0x6c, 0x5f, 0x31, 0x2f, 0x64, 0x65, 0x6e, 0x73, 0x65, 0x5f, 0x33,
  0x2f, 0x4d, 0x61, 0x74, 0x4d, 0x75, 0x6c, 0x3b, 0x73, 0x65, 0x71, 0x75,
  0x65, 0x6e, 0x74, 0x69, 0x61, 0x6c, 0x5f, 0x31, 0x2f, 0x64, 0x65, 0x6e,
  0x73, 0x65, 0x5f, 0x33, 0x2f, 0x52, 0x65, 0x6c, 0x75, 0x3b, 0x73, 0x65,
  0x71, 0x75, 0x65, 0x6e, 0x74, 0x69, 0x61, 0x6c, 0x5f, 0x31, 0x2f, 0x64,
  0x65, 0x6e, 0x73, 0x65, 0x5f, 0x33, 0x2f, 0x42, 0x69, 0x61, 0x73, 0x41,
  0x64, 0x64, 0x00, 0x00, 0x02, 0x00, 0x00, 0x00, 0x01, 0x00, 0x00, 0x00,
  0x64, 0x00, 0x00, 0x00, 0x26, 0xff, 0xff, 0xff, 0x10, 0x00, 0x00, 0x00,
  0x10, 0x00, 0x00, 0x00, 0x05, 0x00, 0x00, 0x00, 0x28, 0x00, 0x00, 0x00,
  0xa4, 0xfe, 0xff, 0xff, 0x1b, 0x00, 0x00, 0x00, 0x73, 0x65, 0x71, 0x75,
  0x65, 0x6e, 0x74, 0x69, 0x61, 0x6c, 0x5f, 0x31, 0x2f, 0x64, 0x65, 0x6e,
  0x73, 0x65, 0x5f, 0x34, 0x2f, 0x4d, 0x61, 0x74, 0x4d, 0x75, 0x6c, 0x00,
  0x02, 0x00, 0x00, 0x00, 0x01, 0x00, 0x00, 0x00, 0x64, 0x00, 0x00, 0x00,
  0x6a, 0xff, 0xff, 0xff, 0x10, 0x00, 0x00, 0x00, 0x10, 0x00, 0x00, 0x00,
  0x04, 0x00, 0x00, 0x00, 0x28, 0x00, 0x00, 0x00, 0xe8, 0xfe, 0xff, 0xff,
  0x1b, 0x00, 0x00, 0x00, 0x73, 0x65, 0x71, 0x75, 0x65, 0x6e, 0x74, 0x69,
  0x61, 0x6c, 0x5f, 0x31, 0x2f, 0x64, 0x65, 0x6e, 0x73, 0x65, 0x5f, 0x33,
  0x2f, 0x4d, 0x61, 0x74, 0x4d, 0x75, 0x6c, 0x00, 0x02, 0x00, 0x00, 0x00,
  0x64, 0x00, 0x00, 0x00, 0x05, 0x00, 0x00, 0x00, 0xae, 0xff, 0xff, 0xff,
  0x10, 0x00, 0x00, 0x00, 0x10, 0x00, 0x00, 0x00, 0x03, 0x00, 0x00, 0x00,
  0x38, 0x00, 0x00, 0x00, 0x2c, 0xff, 0xff, 0xff, 0x2b, 0x00, 0x00, 0x00,
  0x73, 0x65, 0x71, 0x75, 0x65, 0x6e, 0x74, 0x69, 0x61, 0x6c, 0x5f, 0x31,
  0x2f, 0x64, 0x65, 0x6e, 0x73, 0x65, 0x5f, 0x33, 0x2f, 0x42, 0x69, 0x61,
  0x73, 0x41, 0x64, 0x64, 0x2f, 0x52, 0x65, 0x61, 0x64, 0x56, 0x61, 0x72,
  0x69, 0x61, 0x62, 0x6c, 0x65, 0x4f, 0x70, 0x00, 0x01, 0x00, 0x00, 0x00,
  0x64, 0x00, 0x00, 0x00, 0x00, 0x00, 0x0e, 0x00, 0x14, 0x00, 0x10, 0x00,
  0x00, 0x00, 0x0c, 0x00, 0x08, 0x00, 0x04, 0x00, 0x0e, 0x00, 0x00, 0x00,
  0x10, 0x00, 0x00, 0x00, 0x10, 0x00, 0x00, 0x00, 0x02, 0x00, 0x00, 0x00,
  0x38, 0x00, 0x00, 0x00, 0x8c, 0xff, 0xff, 0xff, 0x2b, 0x00, 0x00, 0x00,
  0x73, 0x65, 0x71, 0x75, 0x65, 0x6e, 0x74, 0x69, 0x61, 0x6c, 0x5f, 0x31,
  0x2f, 0x64, 0x65, 0x6e, 0x73, 0x65, 0x5f, 0x34, 0x2f, 0x42, 0x69, 0x61,
  0x73, 0x41, 0x64, 0x64, 0x2f, 0x52, 0x65, 0x61, 0x64, 0x56, 0x61, 0x72,
  0x69, 0x61, 0x62, 0x6c, 0x65, 0x4f, 0x70, 0x00, 0x01, 0x00, 0x00, 0x00,
  0x01, 0x00, 0x00, 0x00, 0x14, 0x00, 0x18, 0x00, 0x14, 0x00, 0x00, 0x00,
  0x10, 0x00, 0x0c, 0x00, 0x08, 0x00, 0x00, 0x00, 0x00, 0x00, 0x04, 0x00,
  0x14, 0x00, 0x00, 0x00, 0x14, 0x00, 0x00, 0x00, 0x20, 0x00, 0x00, 0x00,
  0x20, 0x00, 0x00, 0x00, 0x01, 0x00, 0x00, 0x00, 0x3c, 0x00, 0x00, 0x00,
  0x02, 0x00, 0x00, 0x00, 0xff, 0xff, 0xff, 0xff, 0x05, 0x00, 0x00, 0x00,
  0x04, 0x00, 0x04, 0x00, 0x04, 0x00, 0x00, 0x00, 0x1f, 0x00, 0x00, 0x00,
  0x73, 0x65, 0x72, 0x76, 0x69, 0x6e, 0x67, 0x5f, 0x64, 0x65, 0x66, 0x61,
  0x75, 0x6c, 0x74, 0x5f, 0x64, 0x65, 0x6e, 0x73, 0x65, 0x5f, 0x33, 0x5f,
  0x69, 0x6e, 0x70, 0x75, 0x74, 0x3a, 0x30, 0x00, 0x02, 0x00, 0x00, 0x00,
  0x01, 0x00, 0x00, 0x00, 0x05, 0x00, 0x00, 0x00, 0x01, 0x00, 0x00, 0x00,
  0x10, 0x00, 0x00, 0x00, 0x0c, 0x00, 0x0c, 0x00, 0x0b, 0x00, 0x00, 0x00,
  0x00, 0x00, 0x04, 0x00, 0x0c, 0x00, 0x00, 0x00, 0x09, 0x00, 0x00, 0x00,
  0x00, 0x00, 0x00, 0x09
};
unsigned int dense_modelr3_tflite_len = 4276;
