unsigned char dense_modelr2_tflite[] = {
  0x1c, 0x00, 0x00, 0x00, 0x54, 0x46, 0x4c, 0x33, 0x14, 0x00, 0x20, 0x00,
  0x1c, 0x00, 0x18, 0x00, 0x14, 0x00, 0x10, 0x00, 0x0c, 0x00, 0x00, 0x00,
  0x08, 0x00, 0x04, 0x00, 0x14, 0x00, 0x00, 0x00, 0x1c, 0x00, 0x00, 0x00,
  0x90, 0x00, 0x00, 0x00, 0xe8, 0x00, 0x00, 0x00, 0x0c, 0x1a, 0x00, 0x00,
  0x1c, 0x1a, 0x00, 0x00, 0x28, 0x1f, 0x00, 0x00, 0x03, 0x00, 0x00, 0x00,
  0x01, 0x00, 0x00, 0x00, 0x10, 0x00, 0x00, 0x00, 0x00, 0x00, 0x0a, 0x00,
  0x10, 0x00, 0x0c, 0x00, 0x08, 0x00, 0x04, 0x00, 0x0a, 0x00, 0x00, 0x00,
  0x0c, 0x00, 0x00, 0x00, 0x1c, 0x00, 0x00, 0x00, 0x38, 0x00, 0x00, 0x00,
  0x0f, 0x00, 0x00, 0x00, 0x73, 0x65, 0x72, 0x76, 0x69, 0x6e, 0x67, 0x5f,
  0x64, 0x65, 0x66, 0x61, 0x75, 0x6c, 0x74, 0x00, 0x01, 0x00, 0x00, 0x00,
  0x04, 0x00, 0x00, 0x00, 0x98, 0xff, 0xff, 0xff, 0x09, 0x00, 0x00, 0x00,
  0x04, 0x00, 0x00, 0x00, 0x07, 0x00, 0x00, 0x00, 0x64, 0x65, 0x6e, 0x73,
  0x65, 0x5f, 0x32, 0x00, 0x01, 0x00, 0x00, 0x00, 0x04, 0x00, 0x00, 0x00,
  0x7e, 0xe7, 0xff, 0xff, 0x04, 0x00, 0x00, 0x00, 0x0b, 0x00, 0x00, 0x00,
  0x64, 0x65, 0x6e, 0x73, 0x65, 0x5f, 0x69, 0x6e, 0x70, 0x75, 0x74, 0x00,
  0x02, 0x00, 0x00, 0x00, 0x34, 0x00, 0x00, 0x00, 0x04, 0x00, 0x00, 0x00,
  0xdc, 0xff, 0xff, 0xff, 0x0c, 0x00, 0x00, 0x00, 0x04, 0x00, 0x00, 0x00,
  0x13, 0x00, 0x00, 0x00, 0x43, 0x4f, 0x4e, 0x56, 0x45, 0x52, 0x53, 0x49,
  0x4f, 0x4e, 0x5f, 0x4d, 0x45, 0x54, 0x41, 0x44, 0x41, 0x54, 0x41, 0x00,
  0x08, 0x00, 0x0c, 0x00, 0x08, 0x00, 0x04, 0x00, 0x08, 0x00, 0x00, 0x00,
  0x0b, 0x00, 0x00, 0x00, 0x04, 0x00, 0x00, 0x00, 0x13, 0x00, 0x00, 0x00,
  0x6d, 0x69, 0x6e, 0x5f, 0x72, 0x75, 0x6e, 0x74, 0x69, 0x6d, 0x65, 0x5f,
  0x76, 0x65, 0x72, 0x73, 0x69, 0x6f, 0x6e, 0x00, 0x0d, 0x00, 0x00, 0x00,
  0x20, 0x19, 0x00, 0x00, 0x18, 0x19, 0x00, 0x00, 0x08, 0x18, 0x00, 0x00,
  0xec, 0x17, 0x00, 0x00, 0xdc, 0x16, 0x00, 0x00, 0xcc, 0x11, 0x00, 0x00,
  0xbc, 0x10, 0x00, 0x00, 0xac, 0x00, 0x00, 0x00, 0xa4, 0x00, 0x00, 0x00,
  0x9c, 0x00, 0x00, 0x00, 0x94, 0x00, 0x00, 0x00, 0x74, 0x00, 0x00, 0x00,
  0x04, 0x00, 0x00, 0x00, 0x2a, 0xe8, 0xff, 0xff, 0x04, 0x00, 0x00, 0x00,
  0x60, 0x00, 0x00, 0x00, 0x0c, 0x00, 0x00, 0x00, 0x08, 0x00, 0x0e, 0x00,
  0x08, 0x00, 0x04, 0x00, 0x08, 0x00, 0x00, 0x00, 0x14, 0x00, 0x00, 0x00,
  0x30, 0x00, 0x00, 0x00, 0x00, 0x00, 0x0a, 0x00, 0x0c, 0x00, 0x08, 0x00,
  0x00, 0x00, 0x07, 0x00, 0x0a, 0x00, 0x00, 0x00, 0x00, 0x00, 0x00, 0x01,
  0x04, 0x00, 0x00, 0x00, 0x01, 0x00, 0x00, 0x00, 0xea, 0x03, 0x00, 0x00,
  0x00, 0x00, 0x0a, 0x00, 0x10, 0x00, 0x0c, 0x00, 0x08, 0x00, 0x04, 0x00,
  0x0a, 0x00, 0x00, 0x00, 0x02, 0x00, 0x00, 0x00, 0x02, 0x00, 0x00, 0x00,
  0x04, 0x00, 0x00, 0x00, 0x05, 0x00, 0x00, 0x00, 0x32, 0x2e, 0x39, 0x2e,
  0x32, 0x00, 0x00, 0x00, 0x96, 0xe8, 0xff, 0xff, 0x04, 0x00, 0x00, 0x00,
  0x10, 0x00, 0x00, 0x00, 0x32, 0x2e, 0x33, 0x2e, 0x30, 0x00, 0x00, 0x00,
  0x00, 0x00, 0x00, 0x00, 0x00, 0x00, 0x00, 0x00, 0xac, 0xe2, 0xff, 0xff,
  0xb0, 0xe2, 0xff, 0xff, 0xb4, 0xe2, 0xff, 0xff, 0xbe, 0xe8, 0xff, 0xff,
  0x04, 0x00, 0x00, 0x00, 0x00, 0x10, 0x00, 0x00, 0x25, 0xfb, 0x30, 0x02,
  0xd6, 0xe1, 0xed, 0x0f, 0x1e, 0xe2, 0x19, 0xe6, 0xfa, 0x00, 0x23, 0xfd,
  0x30, 0x2b, 0xfb, 0x25, 0xed, 0x29, 0xef, 0x29, 0x2a, 0xe2, 0xe8, 0x1d,
  0x1c, 0x02, 0xd2, 0xe9, 0x0b, 0x05, 0xd1, 0x1e, 0x1e, 0xf1, 0xed, 0x10,
  0xfa, 0xd9, 0xd0, 0x10, 0xd6, 0xdd, 0x05, 0x13, 0xe8, 0xd9, 0xe3, 0xd4,
  0x2d, 0xf9, 0xf8, 0x02, 0x2d, 0xd2, 0x10, 0xea, 0xff, 0xf7, 0xde, 0x1a,
  0xea, 0x14, 0xf7, 0x1f, 0x20, 0xe3, 0xd7, 0xf6, 0x27, 0xd4, 0x02, 0x21,
  0x00, 0x11, 0x18, 0xc7, 0x2b, 0xef, 0x26, 0x09, 0x05, 0xed, 0xdf, 0xd8,
  0x11, 0x32, 0xea, 0xcf, 0xfa, 0x10, 0xd6, 0xf1, 0xea, 0xfb, 0x1b, 0xf9,
  0xd4, 0xd2, 0xe7, 0x2f, 0xe8, 0xf9, 0x01, 0xd3, 0x10, 0xff, 0xcb, 0xdb,
  0xd3, 0xf1, 0xd7, 0xf0, 0x1b, 0xe4, 0xea, 0xf5, 0x19, 0x2f, 0x20, 0x01,
  0xec, 0x2d, 0x01, 0x06, 0xde, 0x14, 0x2d, 0xe8, 0xdd, 0xdc, 0x0e, 0x06,
  0x1b, 0xf9, 0x24, 0x1c, 0x02, 0x0a, 0x1f, 0x0b, 0x01, 0x24, 0x06, 0x29,
  0xf2, 0xdc, 0xee, 0xf8, 0xd3, 0x09, 0xe2, 0x01, 0xd7, 0xe8, 0x2b, 0x1d,
  0x11, 0x1f, 0xdf, 0xfa, 0xeb, 0xe0, 0xf2, 0xd8, 0xe7, 0x13, 0xdc, 0x15,
  0xe2, 0xf0, 0x13, 0x16, 0x13, 0xeb, 0x18, 0x30, 0x30, 0x30, 0x01, 0x1f,
  0x01, 0xfc, 0x20, 0x2f, 0xd3, 0xe4, 0x09, 0x09, 0xd5, 0x22, 0x07, 0x06,
  0x16, 0x0c, 0xd0, 0x0f, 0xd9, 0xd9, 0x2c, 0x30, 0xdb, 0x28, 0x2c, 0xe3,
  0xe0, 0x00, 0xd3, 0x11, 0x23, 0x0f, 0x14, 0xd5, 0xe2, 0xf4, 0x0b, 0x01,
  0xe0, 0xdb, 0xda, 0xf3, 0xec, 0x24, 0xe4, 0x1b, 0xf2, 0x23, 0x0b, 0x2f,
  0x20, 0x0b, 0xf6, 0x21, 0xfb, 0x1a, 0x0f, 0xf0, 0x00, 0x2e, 0x25, 0xed,
  0x2b, 0x18, 0x24, 0x05, 0xd9, 0xed, 0x30, 0x2e, 0x1d, 0x03, 0x14, 0xd6,
  0xde, 0x1a, 0xee, 0xf0, 0x0d, 0xe7, 0xee, 0xe1, 0xfd, 0x29, 0x01, 0xf1,
  0xd1, 0xfd, 0x07, 0xf3, 0x0a, 0x20, 0xef, 0x17, 0x07, 0x2e, 0xf6, 0xe8,
  0x2e, 0xed, 0xf5, 0xd5, 0x04, 0x2c, 0x25, 0x03, 0xdc, 0xf9, 0x2c, 0x08,
  0xdc, 0xe0, 0xef, 0x27, 0x0a, 0x16, 0xf7, 0xe8, 0x20, 0x18, 0xe2, 0x09,
  0xfd, 0xd4, 0x2f, 0xd9, 0x1a, 0x0e, 0xf3, 0x15, 0x11, 0xde, 0x0d, 0x2c,
  0xfc, 0x09, 0xf2, 0xe3, 0x1d, 0x04, 0x19, 0x27, 0xdb, 0xe0, 0xff, 0x00,
  0xe5, 0xdd, 0x25, 0xf4, 0x1c, 0xf1, 0x1e, 0xf2, 0x25, 0x2f, 0xf9, 0x0f,
  0x10, 0xdd, 0x0b, 0xed, 0x01, 0x14, 0xe7, 0xf0, 0x16, 0xd4, 0x28, 0xf6,
  0xff, 0xe9, 0xe6, 0xfe, 0xe7, 0x01, 0xf3, 0x18, 0x06, 0xf8, 0xfb, 0xd7,
  0x05, 0x29, 0xf0, 0x26, 0xec, 0xf5, 0xd9, 0xde, 0x04, 0x24, 0xe7, 0x11,
  0xfb, 0xf4, 0x22, 0x12, 0x07, 0xfb, 0xfc, 0x10, 0x2f, 0xd5, 0xe6, 0x2f,
  0x26, 0xde, 0x19, 0xf9, 0x15, 0xe8, 0xd5, 0x0e, 0xfc, 0xe5, 0xe1, 0x15,
  0xf1, 0x0b, 0x27, 0x1e, 0xf2, 0x63, 0xf9, 0xec, 0xf4, 0xdb, 0xeb, 0xff,
  0x14, 0xd4, 0x00, 0xf7, 0xdf, 0x14, 0x29, 0xee, 0xd7, 0x0d, 0xf4, 0xda,
  0x27, 0x1b, 0x28, 0x1e, 0x13, 0x33, 0x22, 0x15, 0x29, 0x04, 0x1f, 0xd5,
  0x2c, 0x0d, 0x0c, 0x26, 0x34, 0x01, 0x06, 0xd3, 0xe1, 0x33, 0x1e, 0xe3,
  0x17, 0xd4, 0x27, 0x2d, 0x2e, 0x14, 0x30, 0x1a, 0xd6, 0x26, 0xd7, 0xfd,
  0x2d, 0xec, 0x08, 0x2e, 0x14, 0xb7, 0xd2, 0xd1, 0xff, 0x5c, 0xf2, 0x25,
  0x11, 0x15, 0x32, 0x0c, 0xf9, 0x19, 0x0d, 0xfe, 0xcf, 0xd7, 0xe1, 0xf0,
  0xd8, 0xe8, 0xf5, 0xe0, 0x02, 0xf7, 0x0a, 0xf9, 0x2b, 0x1a, 0x07, 0x2e,
  0xe5, 0xe9, 0xda, 0x1a, 0x03, 0x28, 0x26, 0xfe, 0x06, 0xd9, 0x17, 0xea,
  0xea, 0xe9, 0xcb, 0x23, 0x01, 0xde, 0x24, 0x1c, 0xd0, 0xef, 0xfb, 0xe8,
  0x10, 0x04, 0xf2, 0xd2, 0xe3, 0x06, 0x0c, 0x27, 0x1c, 0xd0, 0xf6, 0x13,
  0x24, 0xf3, 0x03, 0x15, 0xd7, 0x14, 0xde, 0xd3, 0xd9, 0x2b, 0x26, 0x14,
  0xfa, 0xea, 0x10, 0x0d, 0x21, 0x17, 0x09, 0x29, 0x16, 0x0f, 0x2b, 0x27,
  0x02, 0x1c, 0x13, 0xfb, 0x22, 0xda, 0xef, 0x26, 0x08, 0x2c, 0x30, 0x16,
  0x21, 0xd9, 0xdf, 0x08, 0x2e, 0xd4, 0x26, 0xe2, 0xde, 0x14, 0x27, 0x14,
  0xe8, 0x27, 0xe8, 0xe4, 0x25, 0xdf, 0x1c, 0x03, 0x13, 0xd5, 0x15, 0xe6,
  0xe0, 0xf0, 0xf4, 0x1e, 0xdc, 0x21, 0xd5, 0xf5, 0x1b, 0xd9, 0x04, 0xf3,
  0x0f, 0xf2, 0x12, 0x0e, 0x08, 0xf0, 0x07, 0xfb, 0x25, 0xd3, 0xe4, 0x0f,
  0x24, 0x21, 0x1f, 0x05, 0xef, 0x06, 0xff, 0x19, 0x19, 0xfe, 0xe0, 0x24,
  0x00, 0x27, 0xd5, 0xf2, 0x15, 0xea, 0x20, 0x06, 0xf8, 0x0f, 0x1a, 0xdf,
  0xe9, 0xee, 0x15, 0x1a, 0xf6, 0x0d, 0x16, 0xec, 0xcf, 0xf4, 0xf1, 0xfc,
  0xd4, 0x1f, 0x18, 0xd6, 0xd7, 0x00, 0x2c, 0x14, 0xd0, 0x03, 0xd0, 0xe5,
  0x11, 0x1e, 0xd2, 0x06, 0xd1, 0x0a, 0xe6, 0xea, 0xe7, 0x02, 0xd3, 0xe2,
  0xe5, 0x1d, 0x1f, 0x26, 0x25, 0xe6, 0x0d, 0x07, 0xfe, 0xe0, 0xf2, 0xdd,
  0x26, 0xd6, 0x00, 0x2b, 0x12, 0xd4, 0x14, 0xe9, 0x11, 0x2a, 0xe2, 0x0a,
  0xf8, 0xe4, 0xf3, 0x0d, 0x0a, 0x21, 0x06, 0xe1, 0x36, 0x25, 0xe4, 0x11,
  0x02, 0xd3, 0xd8, 0x03, 0xd1, 0xf6, 0x37, 0xe5, 0xfe, 0x34, 0x26, 0x21,
  0xe0, 0xe2, 0x06, 0x5a, 0x1f, 0xdf, 0x1c, 0xd4, 0xe6, 0x06, 0x1f, 0xdb,
  0xab, 0x21, 0xdd, 0xf6, 0xd7, 0x28, 0x08, 0xb4, 0xfe, 0x23, 0x2e, 0x1a,
  0xdc, 0xf1, 0x22, 0x1c, 0x2e, 0xf8, 0xea, 0x2f, 0x2a, 0x27, 0x30, 0xf0,
  0xfb, 0xe2, 0xee, 0xdb, 0xd1, 0xe2, 0x9d, 0x2a, 0xf9, 0xdc, 0x2e, 0x0c,
  0xf1, 0xd4, 0x10, 0xfa, 0xe5, 0x08, 0x06, 0xf4, 0x19, 0x04, 0x11, 0x0c,
  0xdb, 0xe2, 0xf4, 0xec, 0xd2, 0xed, 0x27, 0x29, 0x12, 0xd7, 0x0b, 0xfa,
  0x16, 0xe7, 0x29, 0xe6, 0x1d, 0x1c, 0x0a, 0xf9, 0xdc, 0x0b, 0xfb, 0x1e,
  0xdb, 0xed, 0xfd, 0xee, 0xdf, 0x17, 0xde, 0x12, 0xf2, 0xfc, 0x30, 0x1e,
  0xd2, 0x11, 0x2e, 0x24, 0x15, 0x01, 0x2c, 0xf4, 0x1d, 0x06, 0xfa, 0xd8,
  0xdb, 0x19, 0x28, 0x27, 0xf7, 0x0c, 0xd1, 0x23, 0x16, 0x1b, 0xcf, 0xf2,
  0x0e, 0x18, 0xf9, 0x13, 0xdb, 0x22, 0x0c, 0xeb, 0x05, 0xf4, 0xef, 0xf3,
  0x1f, 0x1f, 0x15, 0xf6, 0xd7, 0xf9, 0x1d, 0x08, 0xe5, 0xd3, 0xfa, 0xef,
  0x04, 0xe7, 0xed, 0xe2, 0x2b, 0xfc, 0xf1, 0xe6, 0xf2, 0xf6, 0x06, 0xe3,
  0xe0, 0xd3, 0x2a, 0xe7, 0x27, 0xe9, 0x1e, 0xeb, 0x03, 0x21, 0xfc, 0xf3,
  0xed, 0x30, 0x2b, 0x17, 0xd5, 0xec, 0x1a, 0xda, 0xf0, 0x13, 0x06, 0x14,
  0x0d, 0x11, 0xef, 0xd9, 0x0a, 0x28, 0x2e, 0x17, 0x1d, 0x21, 0x03, 0xf2,
  0xd3, 0xf1, 0x02, 0xdc, 0x1b, 0xed, 0x0a, 0x20, 0xe9, 0xf8, 0x05, 0xe7,
  0x07, 0x11, 0xe9, 0xf5, 0x05, 0xdf, 0xf5, 0x1c, 0xe1, 0xdf, 0xd3, 0x25,
  0xd8, 0x0b, 0x04, 0x14, 0xe6, 0xef, 0x1e, 0xf4, 0xed, 0xf6, 0xd4, 0xea,
  0x0a, 0x23, 0x10, 0x21, 0x14, 0x13, 0xd4, 0xe5, 0xfe, 0x27, 0x05, 0xca,
  0x0e, 0xf3, 0xfd, 0x19, 0xe2, 0xf8, 0x05, 0x1d, 0x18, 0x10, 0xf0, 0xff,
  0x21, 0x21, 0xee, 0x01, 0xe3, 0xd2, 0x15, 0x38, 0xf9, 0xe5, 0xd8, 0x28,
  0xf0, 0xf4, 0x17, 0x18, 0xbf, 0xeb, 0x13, 0x25, 0xd4, 0x12, 0x2c, 0xc6,
  0xfa, 0x26, 0x1e, 0x04, 0x22, 0xf1, 0x27, 0x2e, 0x26, 0x04, 0xf6, 0xea,
  0xe0, 0x2d, 0x10, 0x2b, 0xf5, 0xff, 0x0d, 0xdb, 0x15, 0xfc, 0xd7, 0x1a,
  0x0c, 0xfc, 0x17, 0x2a, 0xd6, 0xf5, 0xd4, 0x13, 0x07, 0x28, 0xe9, 0xda,
  0x1e, 0xda, 0xee, 0xd8, 0x1b, 0x25, 0xea, 0xe8, 0xdf, 0xdd, 0xf0, 0xe1,
  0x15, 0xf6, 0xe3, 0xec, 0xf2, 0xd3, 0xdf, 0x0a, 0x0b, 0xdc, 0x03, 0x20,
  0x2e, 0x1c, 0x29, 0x03, 0xd6, 0x0b, 0xd3, 0x2a, 0x26, 0x00, 0x01, 0xe8,
  0xf3, 0xd9, 0xe4, 0xda, 0x25, 0xd2, 0x09, 0x31, 0x08, 0x25, 0x0f, 0xf6,
  0xfd, 0x24, 0x01, 0x0f, 0x31, 0xdd, 0xdb, 0xf4, 0xdc, 0x01, 0xe5, 0x0e,
  0xfb, 0x18, 0x15, 0x1f, 0xec, 0x19, 0xfe, 0x17, 0xef, 0xd9, 0xfe, 0xed,
  0xf8, 0x26, 0x24, 0xe9, 0x29, 0xd0, 0x01, 0x19, 0xd3, 0x2e, 0x04, 0x25,
  0xdd, 0x2b, 0xf6, 0x00, 0x20, 0x21, 0xd5, 0xd4, 0x2f, 0xdd, 0xf1, 0xf4,
  0x14, 0xeb, 0xdd, 0xf9, 0x13, 0xdc, 0xfa, 0x0f, 0x19, 0xd6, 0x1d, 0x05,
  0xec, 0xf0, 0x19, 0xeb, 0xf2, 0x28, 0x16, 0xed, 0x03, 0xe8, 0x2b, 0x22,
  0x0a, 0xee, 0x25, 0xde, 0xeb, 0x2f, 0x06, 0x18, 0x28, 0xf1, 0xfe, 0xd8,
  0xff, 0x08, 0x0a, 0xd1, 0x34, 0x2c, 0xdf, 0xea, 0x15, 0x00, 0x2f, 0xd8,
  0x0c, 0xd8, 0xf4, 0xd1, 0xdc, 0x24, 0x05, 0x18, 0xe2, 0xd2, 0x03, 0x13,
  0xd2, 0x0e, 0xf3, 0x1b, 0x31, 0xeb, 0x27, 0x23, 0xed, 0xd9, 0x0e, 0x18,
  0x2d, 0xe4, 0x41, 0xd1, 0x2e, 0xd8, 0xd0, 0xdb, 0x2b, 0xeb, 0xdf, 0x05,
  0x11, 0xe5, 0xdd, 0xe5, 0x0b, 0xd3, 0xf3, 0x02, 0xeb, 0x22, 0xed, 0x1d,
  0x19, 0x1a, 0xec, 0xe4, 0x15, 0x2f, 0x26, 0x00, 0x23, 0xea, 0xf9, 0x23,
  0x2c, 0x22, 0xcd, 0x18, 0xe3, 0x27, 0xf1, 0xe4, 0xe7, 0xf2, 0x0b, 0xe6,
  0x0f, 0xe4, 0x10, 0xf5, 0xf9, 0x1c, 0xcd, 0x2c, 0x23, 0xef, 0x1a, 0xd2,
  0x24, 0xda, 0xd3, 0x0f, 0xf2, 0xdf, 0x26, 0x14, 0xf3, 0x03, 0xeb, 0xec,
  0xd6, 0xd0, 0x25, 0x03, 0xd1, 0x13, 0x18, 0xf5, 0x26, 0x0c, 0xf2, 0xe0,
  0xdd, 0xd2, 0xf7, 0x31, 0x25, 0x26, 0x1d, 0xd9, 0xe1, 0x13, 0x1f, 0x05,
  0xd0, 0x25, 0x1a, 0x1e, 0xf4, 0xfc, 0x2d, 0xfe, 0xe6, 0xe1, 0xe8, 0xf4,
  0x10, 0xf4, 0x22, 0x0e, 0xeb, 0xe0, 0x10, 0x04, 0xf2, 0xdf, 0x01, 0xe5,
  0x12, 0x06, 0xec, 0xe2, 0xdd, 0x2d, 0x0b, 0x26, 0x23, 0x28, 0x00, 0x21,
  0x13, 0xe0, 0x1f, 0x15, 0x31, 0x0b, 0xe0, 0xed, 0xeb, 0x02, 0x0b, 0x2e,
  0xe0, 0x1f, 0x1b, 0x05, 0xfb, 0xfb, 0xd0, 0xef, 0xd5, 0xdb, 0x0b, 0x27,
  0xfd, 0x29, 0xd8, 0x19, 0xd7, 0x1e, 0xd0, 0x12, 0x24, 0x19, 0x15, 0x1f,
  0xf2, 0xef, 0xeb, 0x25, 0xe1, 0xd1, 0x28, 0x10, 0xe9, 0xeb, 0xf5, 0xe7,
  0xef, 0xf7, 0xd1, 0xd8, 0x0a, 0xd5, 0x03, 0xe4, 0xde, 0x29, 0xd6, 0x18,
  0x2e, 0x30, 0x0d, 0xea, 0x2e, 0x2b, 0x2c, 0x04, 0xd6, 0xfb, 0xe7, 0x01,
  0x07, 0x1c, 0x01, 0xfa, 0x21, 0x12, 0x16, 0x25, 0x1f, 0x0a, 0xfd, 0x18,
  0x1a, 0x09, 0xe3, 0xf1, 0x01, 0x43, 0xf4, 0xd2, 0xde, 0xce, 0xd8, 0xf2,
  0x2b, 0x0d, 0xf3, 0xe7, 0x25, 0x0c, 0xd4, 0x2f, 0x3c, 0x02, 0x00, 0xd1,
  0x09, 0xd3, 0xc6, 0x09, 0x00, 0x1f, 0x0a, 0xfd, 0xd9, 0x27, 0x1d, 0xd6,
  0xfa, 0x01, 0xeb, 0xdb, 0xd7, 0xfd, 0xdd, 0x26, 0xf4, 0x0e, 0x2c, 0xd3,
  0xdb, 0xd1, 0x2c, 0x13, 0x14, 0xd4, 0xd9, 0xec, 0xfb, 0x1c, 0x1a, 0x02,
  0x10, 0x0d, 0x15, 0xec, 0xe6, 0xed, 0x24, 0xf7, 0x10, 0xf1, 0xd9, 0xdf,
  0x23, 0x08, 0xe9, 0xe9, 0x05, 0xfa, 0x26, 0x29, 0x2c, 0xf8, 0xf4, 0xfc,
  0xe9, 0xe7, 0xdb, 0xdd, 0xec, 0x1f, 0xe2, 0xec, 0xf5, 0xf7, 0xd4, 0xdb,
  0xf5, 0x1d, 0x1d, 0x03, 0x2b, 0x05, 0xff, 0xdf, 0xf8, 0xe3, 0xd5, 0x0d,
  0xd4, 0xea, 0xee, 0xf9, 0x20, 0x11, 0xe1, 0xdd, 0x08, 0xe6, 0xf7, 0xda,
  0xe7, 0x00, 0x1c, 0x0a, 0xdb, 0xd2, 0xfe, 0xf6, 0xda, 0x1f, 0x0e, 0x30,
  0xda, 0xe3, 0xe0, 0x23, 0xee, 0x09, 0x0a, 0x03, 0x21, 0x0a, 0xf4, 0xd8,
  0x05, 0x00, 0x0e, 0xec, 0xf3, 0x23, 0x13, 0x01, 0xd8, 0xf6, 0x29, 0xea,
  0x2f, 0xec, 0x11, 0xda, 0x17, 0xf4, 0x02, 0xd7, 0xfb, 0x0c, 0x00, 0xea,
  0x21, 0xe7, 0xd6, 0xf7, 0x28, 0xe5, 0xf6, 0xd7, 0xf7, 0xdb, 0xdb, 0x06,
  0x14, 0x0b, 0xf4, 0xdd, 0x23, 0xe9, 0x0a, 0xec, 0x12, 0xfc, 0xd6, 0xfa,
  0xd5, 0x02, 0x28, 0xe1, 0xfb, 0xdd, 0xe4, 0x18, 0xfd, 0xcf, 0xef, 0x14,
  0x1f, 0xd2, 0xfb, 0x23, 0xf3, 0xe1, 0xe4, 0x05, 0x09, 0x16, 0x13, 0xeb,
  0x03, 0x04, 0xe2, 0xd5, 0x2b, 0x2b, 0xce, 0x1e, 0x19, 0x13, 0x09, 0xd1,
  0xd5, 0x0d, 0x29, 0x07, 0xe4, 0x15, 0xd4, 0xe6, 0x22, 0x2f, 0x25, 0x1e,
  0xd3, 0xdf, 0xee, 0x29, 0x08, 0xe0, 0x2d, 0x04, 0xf6, 0xfe, 0x20, 0xf9,
  0xd1, 0xff, 0xe6, 0xd0, 0x08, 0x21, 0xfe, 0x2e, 0xf8, 0xe9, 0x0d, 0xe4,
  0x19, 0x04, 0x07, 0x2c, 0xe7, 0xfc, 0x0e, 0xdb, 0xfb, 0xfd, 0xe5, 0x12,
  0xf6, 0xdc, 0xef, 0x2a, 0x31, 0xd9, 0x04, 0x09, 0xe5, 0xf8, 0xd1, 0xd6,
  0xed, 0xf4, 0x19, 0xe4, 0xee, 0xd5, 0xd7, 0xd3, 0x1c, 0xf6, 0xd1, 0xd5,
  0xdd, 0x25, 0xe2, 0xfa, 0x18, 0xf2, 0x09, 0x0c, 0x18, 0x01, 0xfc, 0x18,
  0x35, 0x07, 0x06, 0x27, 0xf9, 0x2c, 0x07, 0x2d, 0xee, 0x1b, 0xf4, 0x1e,
  0x1a, 0xc9, 0x32, 0xd0, 0xe6, 0x4e, 0x05, 0x1e, 0xeb, 0x26, 0x02, 0x1d,
  0x32, 0x0e, 0xfe, 0x08, 0x19, 0x20, 0x28, 0x01, 0xee, 0xdf, 0x17, 0x01,
  0xfb, 0xfc, 0x34, 0x20, 0xdc, 0xe1, 0xfb, 0x01, 0xf3, 0x2a, 0x1b, 0xd0,
  0xf2, 0x02, 0x43, 0xd9, 0xe4, 0xf9, 0xea, 0xd5, 0xea, 0x0f, 0xd7, 0xd8,
  0x17, 0xf4, 0xec, 0xe8, 0x2b, 0xe3, 0x12, 0x22, 0xd2, 0x2d, 0xea, 0x1c,
  0x1a, 0xf4, 0x2a, 0xd3, 0x17, 0x12, 0x03, 0x12, 0x01, 0x17, 0x1c, 0x2f,
  0x2c, 0xdb, 0x18, 0xde, 0xfa, 0xfe, 0xfd, 0x2e, 0x2d, 0xe9, 0xe1, 0x03,
  0x17, 0xef, 0x1f, 0xe5, 0xda, 0xea, 0x06, 0x02, 0x13, 0xe3, 0xef, 0x00,
  0x2f, 0x08, 0xfc, 0x1c, 0x23, 0x0d, 0xcf, 0x19, 0x26, 0xef, 0xe3, 0xe4,
  0x0b, 0xdf, 0xf5, 0xf2, 0xdd, 0x1d, 0x0b, 0xd9, 0xf6, 0x2e, 0xe5, 0xe0,
  0xd3, 0x02, 0xe9, 0xd8, 0xf5, 0x19, 0x08, 0x28, 0x15, 0xed, 0xd9, 0x0e,
  0x09, 0x06, 0x0e, 0x2f, 0x19, 0xfe, 0x2f, 0xe8, 0x04, 0x13, 0x19, 0x25,
  0xe9, 0x0e, 0x1c, 0xd3, 0x09, 0x0d, 0x1a, 0xdd, 0x12, 0x18, 0x0c, 0xdc,
  0xd1, 0x26, 0xf3, 0xf7, 0xd7, 0xdd, 0x21, 0x2c, 0x31, 0xd6, 0xed, 0x29,
  0xdb, 0xd1, 0xee, 0xf6, 0x2a, 0xe5, 0x12, 0xd0, 0x1f, 0xfa, 0xf6, 0x47,
  0x16, 0xfc, 0xd3, 0xfd, 0x3b, 0xf2, 0xd5, 0xd5, 0x10, 0xda, 0xca, 0x0e,
  0x37, 0x03, 0xde, 0x27, 0x1d, 0x81, 0x0a, 0xb1, 0xe8, 0x10, 0xc7, 0x11,
  0x1e, 0x0e, 0x19, 0xe8, 0xf8, 0xec, 0xfd, 0xf2, 0xe4, 0xfe, 0xbd, 0x29,
  0xf0, 0xf7, 0x1e, 0x28, 0xf6, 0xe6, 0xcc, 0xce, 0xf2, 0x05, 0xf1, 0x12,
  0x1c, 0xd5, 0xc6, 0x10, 0xfa, 0xd0, 0x20, 0xe2, 0xda, 0x2e, 0x50, 0x20,
  0x0b, 0xe0, 0x15, 0xd5, 0xf4, 0xee, 0x36, 0x34, 0xd1, 0x17, 0xe7, 0xe5,
  0xe1, 0x1a, 0xf7, 0x34, 0xe3, 0xd4, 0x0f, 0x02, 0x2b, 0x52, 0x11, 0x20,
  0x02, 0xfe, 0x4a, 0x26, 0x08, 0xd4, 0x25, 0xd3, 0x08, 0xd5, 0x2b, 0xfb,
  0x3d, 0xf6, 0x2a, 0xd0, 0xf4, 0x1d, 0x34, 0x2c, 0x10, 0x35, 0x18, 0x06,
  0xfc, 0x31, 0xd9, 0x03, 0x31, 0x05, 0x1c, 0x05, 0xd5, 0xef, 0x18, 0xdc,
  0x21, 0x2d, 0x13, 0x24, 0x21, 0x16, 0x0f, 0xf7, 0xde, 0xe1, 0xd4, 0xf6,
  0x1f, 0x1c, 0x1c, 0xe5, 0xfe, 0xfa, 0xf7, 0xd6, 0x00, 0xee, 0xe9, 0xea,
  0x0a, 0x0a, 0xe5, 0xd0, 0x10, 0xf7, 0x15, 0xf9, 0xfc, 0xf1, 0x0c, 0xd7,
  0xd5, 0xd6, 0xdf, 0xf4, 0xe2, 0xf2, 0xd9, 0xd4, 0xdf, 0xd9, 0xde, 0x2d,
  0x24, 0x0d, 0xf1, 0xdb, 0xdd, 0x04, 0xfd, 0xd3, 0x08, 0x24, 0x1e, 0xe4,
  0x15, 0x30, 0x2a, 0xd0, 0xe1, 0x1e, 0xd0, 0x24, 0x17, 0xd6, 0x23, 0x10,
  0x19, 0xdf, 0xd7, 0xf4, 0xff, 0xfb, 0xd8, 0xe4, 0xe7, 0xe3, 0xfb, 0x0e,
  0x02, 0x0d, 0x0e, 0xde, 0x20, 0x12, 0x19, 0x11, 0x09, 0x21, 0xf0, 0x22,
  0x0a, 0xf1, 0xf5, 0x23, 0x1f, 0x08, 0xd8, 0xe4, 0xf8, 0x2c, 0x2d, 0xd6,
  0xd9, 0xdc, 0x17, 0xf4, 0xe0, 0x0b, 0xde, 0x17, 0x11, 0xfa, 0xf7, 0xf8,
  0xfb, 0x16, 0xfb, 0x11, 0xcf, 0x0e, 0xed, 0xfb, 0x05, 0xeb, 0x18, 0xe6,
  0xea, 0xdd, 0xf5, 0x26, 0x28, 0x1e, 0xea, 0x00, 0x24, 0x2a, 0xd4, 0x15,
  0xd6, 0xd9, 0xf1, 0x1a, 0xf9, 0x18, 0x1e, 0xf1, 0x09, 0xb5, 0xf9, 0xe5,
  0xfd, 0x31, 0x11, 0x12, 0xde, 0x10, 0xee, 0xe3, 0x13, 0x0d, 0xfe, 0xd4,
  0x1f, 0x0a, 0xf7, 0x0c, 0x1a, 0xe9, 0xe9, 0xe1, 0xfd, 0xd3, 0xda, 0xee,
  0xf1, 0x07, 0xda, 0x1b, 0x1f, 0xde, 0xa7, 0xf6, 0x11, 0xf8, 0xea, 0xfb,
  0xff, 0xf5, 0x28, 0x07, 0x0f, 0x02, 0x20, 0x19, 0x27, 0xf0, 0xe2, 0x20,
  0x2d, 0xe1, 0xf7, 0x1d, 0xfe, 0xcd, 0x04, 0xec, 0x21, 0x1d, 0x06, 0x04,
  0xf6, 0xdd, 0x20, 0xd0, 0x17, 0x1b, 0xe6, 0x0b, 0x1b, 0x23, 0x14, 0x2a,
  0x3f, 0xfd, 0x00, 0xf5, 0x1b, 0x26, 0xca, 0x28, 0x21, 0x1c, 0x13, 0xd9,
  0xd6, 0xd4, 0xd1, 0x14, 0x18, 0xd9, 0x10, 0x25, 0xe5, 0xd2, 0xc9, 0x2d,
  0x16, 0xe6, 0xfd, 0x2e, 0xd0, 0x0c, 0xef, 0xd9, 0x21, 0xe3, 0xda, 0xd0,
  0xd6, 0xff, 0xd9, 0xf8, 0xff, 0xe2, 0x0f, 0xde, 0x26, 0x2d, 0xec, 0xff,
  0xe0, 0xfa, 0xe8, 0xf9, 0xed, 0xfc, 0xdd, 0x1f, 0xfd, 0xf2, 0xe0, 0xf7,
  0x0b, 0x25, 0x25, 0xdf, 0xf4, 0x24, 0x16, 0x0e, 0xe8, 0xd0, 0x05, 0xcf,
  0xe6, 0x00, 0x2e, 0x1d, 0xff, 0xf6, 0x2e, 0x13, 0xe9, 0xfa, 0x19, 0xdc,
  0xeb, 0x12, 0xe1, 0x16, 0xf8, 0x06, 0x2b, 0xd2, 0xef, 0xe0, 0x09, 0x18,
  0x2b, 0xff, 0xfb, 0xf2, 0xd0, 0x2f, 0x01, 0xdc, 0x16, 0xe5, 0x27, 0x30,
  0xe0, 0x00, 0x14, 0xd4, 0xeb, 0x1c, 0xd1, 0x00, 0x2a, 0xe3, 0x04, 0x2e,
  0x01, 0xe5, 0x04, 0x05, 0x01, 0xe8, 0x26, 0xdf, 0x31, 0xed, 0xd0, 0xcf,
  0x31, 0xdd, 0x1a, 0xff, 0x29, 0x1c, 0x0a, 0xe1, 0xe3, 0x1f, 0x29, 0x31,
  0x22, 0x2a, 0x18, 0x01, 0xee, 0xf0, 0xf0, 0xe4, 0x0a, 0xd0, 0x1e, 0xd7,
  0xe9, 0xfd, 0xd2, 0xde, 0x27, 0xd3, 0x28, 0x37, 0xfa, 0xf7, 0xf1, 0xe1,
  0xe3, 0x0f, 0x30, 0x1c, 0x0e, 0x07, 0x07, 0x09, 0x27, 0x3c, 0xf0, 0xe3,
  0x13, 0xd6, 0x04, 0xf0, 0x2d, 0x29, 0xc8, 0xe3, 0xfd, 0x34, 0xda, 0x13,
  0x21, 0x04, 0x19, 0xd1, 0x12, 0x06, 0xde, 0x23, 0xf1, 0xdc, 0x08, 0x1e,
  0x2a, 0x13, 0x09, 0xf6, 0xed, 0xdd, 0x05, 0x09, 0x1d, 0x02, 0xb1, 0xe4,
  0xe9, 0xe1, 0xed, 0x08, 0xec, 0xd8, 0xec, 0xee, 0x09, 0x16, 0x00, 0x24,
  0xf0, 0xd1, 0xe2, 0xd8, 0x03, 0x11, 0xf6, 0x17, 0xec, 0x02, 0x18, 0x2c,
  0x27, 0x2c, 0xe3, 0xe1, 0x00, 0x29, 0xe7, 0xd3, 0x05, 0xe8, 0x1c, 0xff,
  0x0b, 0xf0, 0xec, 0x07, 0xd5, 0xf8, 0x28, 0xe7, 0x00, 0xee, 0xe9, 0xf1,
  0xe4, 0x27, 0x0b, 0xfa, 0x0f, 0xfd, 0x11, 0x07, 0xdf, 0xdc, 0x1b, 0xfa,
  0x30, 0x03, 0xee, 0xf1, 0x16, 0x1b, 0xff, 0x1b, 0xe1, 0xdb, 0xf1, 0x12,
  0x0b, 0x31, 0xd2, 0x18, 0xd8, 0xf0, 0xfb, 0x17, 0xe6, 0x06, 0x2e, 0x1b,
  0xe2, 0x03, 0xd9, 0xf2, 0xd1, 0x03, 0xf6, 0x2f, 0xf6, 0xed, 0x1e, 0xde,
  0xf9, 0xda, 0xd3, 0xdd, 0xf5, 0xf2, 0x07, 0x06, 0xe7, 0x07, 0xe8, 0xed,
  0xf3, 0xfc, 0xcf, 0xec, 0xf2, 0x23, 0xea, 0xf8, 0xe0, 0xd3, 0xcf, 0xeb,
  0x07, 0xff, 0xda, 0xe5, 0x1d, 0xd6, 0x15, 0x2c, 0x18, 0x1e, 0x08, 0xd6,
  0xd4, 0xe0, 0xef, 0xf3, 0xe6, 0x28, 0x21, 0xf6, 0x31, 0x04, 0xfd, 0xd5,
  0x27, 0xef, 0xf3, 0xe0, 0x01, 0xe0, 0x29, 0x02, 0xcd, 0xc6, 0x2a, 0x1b,
  0xff, 0x17, 0x20, 0x07, 0xff, 0x2a, 0x44, 0x31, 0xe9, 0xe6, 0xed, 0x06,
  0xcf, 0x0b, 0x36, 0xe6, 0x1e, 0x0a, 0x24, 0x08, 0xf9, 0x01, 0xda, 0x0f,
  0x06, 0x08, 0x1f, 0x25, 0x1c, 0xe6, 0x07, 0xf2, 0xd4, 0x00, 0x30, 0xf2,
  0x03, 0x1d, 0xeb, 0x17, 0xe3, 0x11, 0xf7, 0xf5, 0x2d, 0x1c, 0x2f, 0x28,
  0x13, 0x17, 0x09, 0xfa, 0x24, 0x2c, 0xe1, 0x31, 0xf2, 0x15, 0xe4, 0x04,
  0x00, 0xda, 0xe1, 0xe7, 0xff, 0xe5, 0xf4, 0x2a, 0x12, 0x08, 0x01, 0xe5,
  0xea, 0x2c, 0xdb, 0x21, 0x0e, 0xe8, 0x2d, 0xfb, 0x2b, 0x1a, 0xeb, 0xf5,
  0x0a, 0xec, 0xff, 0xdc, 0xfb, 0x08, 0xe1, 0xd8, 0x24, 0xd1, 0x0b, 0x02,
  0xd7, 0xf3, 0xd5, 0xea, 0xe7, 0xec, 0xf4, 0xf2, 0xf5, 0x05, 0x0c, 0xf3,
  0x09, 0x21, 0xe1, 0xf8, 0x27, 0xf8, 0xde, 0x08, 0xf6, 0x25, 0x03, 0x1b,
  0x0b, 0x16, 0xd5, 0x2a, 0xf8, 0xe5, 0x0b, 0x15, 0xde, 0x0a, 0xec, 0x04,
  0xf2, 0x18, 0xd6, 0xf6, 0xd9, 0x01, 0xd7, 0xfa, 0x11, 0xe2, 0xf7, 0x2c,
  0xf7, 0x16, 0xe1, 0xfc, 0xf1, 0x11, 0x30, 0xd6, 0xdc, 0x17, 0x1b, 0x0b,
  0xea, 0x0c, 0x00, 0x09, 0xe6, 0x30, 0xd2, 0xf8, 0xf5, 0xeb, 0x25, 0xf4,
  0x21, 0x1b, 0x04, 0xff, 0x2f, 0xd5, 0x04, 0xd2, 0xe4, 0x26, 0x24, 0xee,
  0xe0, 0xf2, 0x31, 0xd5, 0x22, 0xdd, 0xf7, 0x1c, 0xeb, 0x1f, 0x0d, 0xf3,
  0xeb, 0x2b, 0xe0, 0xe5, 0xe2, 0xd2, 0x0f, 0xec, 0x00, 0x02, 0xd8, 0x31,
  0xd5, 0xeb, 0x1d, 0xfa, 0xd6, 0x1e, 0x1d, 0xe1, 0x22, 0xeb, 0x12, 0xe0,
  0x0f, 0xf6, 0x07, 0x22, 0x1d, 0x1a, 0xf9, 0x1b, 0x0b, 0x04, 0xd2, 0x23,
  0xdc, 0x0e, 0xe9, 0xf0, 0x0d, 0x21, 0xd1, 0x06, 0x29, 0x2a, 0xe8, 0xe4,
  0x30, 0xec, 0xed, 0xdd, 0x21, 0xd1, 0xd3, 0xda, 0xd9, 0x12, 0xfe, 0xef,
  0x02, 0xee, 0x03, 0x03, 0x2f, 0xe0, 0x2b, 0xec, 0xf3, 0xdd, 0xe9, 0xfe,
  0xfb, 0xf1, 0xf3, 0xf0, 0xd1, 0x09, 0xf9, 0x01, 0xe9, 0xf4, 0xdc, 0xd3,
  0x0f, 0x1d, 0x1a, 0xdd, 0xd1, 0x22, 0xd8, 0xf7, 0x19, 0xef, 0x2d, 0xfd,
  0xdc, 0x02, 0xef, 0x25, 0xd2, 0xed, 0x2e, 0x20, 0x21, 0x21, 0xfa, 0x12,
  0x2e, 0xe1, 0x07, 0xcf, 0xf3, 0x14, 0x0c, 0xf3, 0xdc, 0xe6, 0xf5, 0x1e,
  0x2a, 0xd9, 0xd5, 0xdf, 0x25, 0xd1, 0xfd, 0xd4, 0xd7, 0xd7, 0x26, 0xea,
  0x23, 0x19, 0xd6, 0x0f, 0xfd, 0x04, 0xe2, 0xf7, 0x05, 0xe5, 0x2a, 0x18,
  0x00, 0x2a, 0x0d, 0xfb, 0xcf, 0xf0, 0xf7, 0x2c, 0xcf, 0xe5, 0xea, 0x10,
  0x12, 0x0a, 0xd2, 0x01, 0xdb, 0x1d, 0x22, 0x1c, 0x0d, 0x09, 0xe9, 0xd3,
  0x26, 0xf6, 0x2c, 0xe6, 0xf8, 0x18, 0xe0, 0x0b, 0xea, 0xf1, 0x35, 0xd7,
  0x06, 0x13, 0x11, 0xef, 0xff, 0x36, 0x2a, 0xef, 0x1b, 0x09, 0x33, 0xee,
  0x05, 0x2e, 0x25, 0x24, 0xfb, 0x11, 0x09, 0x10, 0x0b, 0x2a, 0x22, 0xe7,
  0xf0, 0xef, 0x0f, 0x19, 0xe5, 0xe2, 0xf5, 0x16, 0x10, 0x09, 0x19, 0x31,
  0x2f, 0x11, 0xf0, 0x29, 0x00, 0xe7, 0xf4, 0xdb, 0xd1, 0x24, 0x50, 0xf4,
  0xe9, 0xdb, 0x2c, 0xf0, 0x03, 0x0c, 0xcd, 0xe6, 0xf2, 0xd5, 0x05, 0xdd,
  0x33, 0xd2, 0x2d, 0x2d, 0x31, 0x33, 0x19, 0xf2, 0x28, 0x3b, 0x18, 0x39,
  0xcc, 0xc9, 0xfb, 0xee, 0x26, 0x3b, 0x23, 0x4d, 0xd5, 0x03, 0xef, 0x34,
  0x26, 0x15, 0xeb, 0x13, 0x0b, 0xdf, 0xe7, 0xeb, 0x2d, 0x01, 0x14, 0xdd,
  0x12, 0xef, 0xf0, 0x17, 0xd8, 0x02, 0x02, 0xe1, 0xdf, 0x07, 0xcf, 0x17,
  0xed, 0xeb, 0xf3, 0x2a, 0xdf, 0x06, 0x12, 0x2c, 0x00, 0x19, 0xc7, 0x33,
  0xe0, 0xf8, 0xf2, 0xf3, 0xee, 0x06, 0xf8, 0xee, 0x1e, 0xdf, 0x27, 0x2b,
  0x1e, 0xee, 0xe7, 0x38, 0xdc, 0xef, 0x18, 0x30, 0xee, 0x16, 0x26, 0x4b,
  0x10, 0x01, 0x40, 0x0d, 0x0a, 0xed, 0xdb, 0xee, 0x21, 0x20, 0x08, 0x14,
  0xda, 0xe8, 0x35, 0xdd, 0x02, 0xd1, 0x24, 0x2d, 0x0d, 0x02, 0x01, 0xe4,
  0xfc, 0x0a, 0x24, 0x11, 0xe3, 0x12, 0x43, 0xec, 0xec, 0x10, 0x1e, 0x26,
  0xe1, 0x1d, 0x05, 0xdb, 0x06, 0xdc, 0xd8, 0x02, 0x02, 0x31, 0x08, 0xec,
  0x13, 0xd6, 0xe0, 0x2c, 0x04, 0xca, 0x17, 0x24, 0xf6, 0x1f, 0x26, 0xcf,
  0xeb, 0xa8, 0xdd, 0xe1, 0x13, 0xe6, 0x1e, 0xe3, 0x1c, 0x19, 0x23, 0x1a,
  0xf8, 0x20, 0x0a, 0xed, 0xf4, 0x2d, 0xdd, 0x1d, 0x34, 0x03, 0xf0, 0xf9,
  0x02, 0xf4, 0xd6, 0xf1, 0xdf, 0xdb, 0x2d, 0xea, 0xee, 0xfa, 0xbf, 0xd9,
  0xf4, 0x30, 0xe8, 0x06, 0xd6, 0x0b, 0x0b, 0xf8, 0xff, 0x10, 0xf0, 0xe2,
  0x10, 0x09, 0xdd, 0x14, 0x23, 0x2b, 0x17, 0x30, 0xfb, 0x02, 0x20, 0x2d,
  0xd1, 0xbe, 0xf0, 0x13, 0xef, 0x36, 0x24, 0x21, 0xef, 0x1b, 0x1a, 0x1b,
  0xf3, 0x0f, 0xfe, 0xe6, 0xf3, 0xe7, 0xec, 0x06, 0xe2, 0xd5, 0x2d, 0xe5,
  0xfa, 0x1a, 0x31, 0xfb, 0x32, 0xf2, 0x1a, 0x2f, 0xf4, 0xed, 0xd7, 0x26,
  0x1e, 0xe8, 0x40, 0x20, 0x1f, 0xde, 0x31, 0x16, 0x2b, 0x24, 0xf4, 0x07,
  0x1e, 0x28, 0x2a, 0x33, 0x2c, 0x13, 0x22, 0xd3, 0x31, 0x1a, 0xf6, 0x30,
  0xf3, 0x06, 0x07, 0x0b, 0xf6, 0xe8, 0xd6, 0x23, 0xe2, 0x51, 0xec, 0x2c,
  0xe0, 0x14, 0x2d, 0xf3, 0x0a, 0xd1, 0x1e, 0x25, 0xe9, 0x10, 0x1b, 0xf2,
  0x27, 0xe7, 0x01, 0xe3, 0xf4, 0x24, 0xe8, 0xd4, 0x2e, 0x39, 0x1b, 0x08,
  0xe4, 0xf5, 0x1a, 0x02, 0xd2, 0x21, 0x2e, 0x0f, 0xd8, 0x1a, 0x1d, 0xd4,
  0xe3, 0x2c, 0x13, 0xee, 0x0d, 0xec, 0xef, 0x24, 0xd6, 0x0a, 0x28, 0x1c,
  0x2f, 0xf8, 0xec, 0x17, 0xf7, 0x2d, 0x08, 0xe1, 0x14, 0xca, 0x24, 0xe1,
  0x02, 0x41, 0xdf, 0x4a, 0x22, 0xeb, 0x04, 0xe0, 0x26, 0x26, 0xe4, 0xf7,
  0x11, 0xd3, 0x20, 0xd9, 0xf0, 0x05, 0xe8, 0xd8, 0xf3, 0xfe, 0x2c, 0x1c,
  0xda, 0xf8, 0xfc, 0xf9, 0x2d, 0xd4, 0x21, 0xeb, 0x11, 0xfd, 0x49, 0xfd,
  0xe0, 0x16, 0xec, 0xd1, 0x0d, 0x18, 0x12, 0x35, 0xd5, 0x1f, 0xd3, 0x1f,
  0xee, 0x0d, 0x1e, 0x01, 0xe5, 0xf1, 0xeb, 0x26, 0x26, 0x31, 0xf5, 0x03,
  0xfe, 0xed, 0xf3, 0xe5, 0xd4, 0x12, 0xf7, 0xd2, 0xe7, 0xf6, 0xe5, 0x24,
  0xf5, 0xe7, 0xe4, 0xea, 0x16, 0x17, 0x06, 0x0e, 0x1f, 0x17, 0xd8, 0xec,
  0xd7, 0x1c, 0xec, 0x28, 0x19, 0xf8, 0x03, 0xfa, 0x15, 0xda, 0x16, 0x03,
  0xf3, 0xd7, 0x2a, 0xd4, 0xf4, 0xef, 0xf3, 0xd8, 0x1b, 0xf3, 0x2e, 0x1c,
  0xd4, 0x1f, 0x17, 0x0c, 0xea, 0xea, 0x1e, 0xf2, 0xef, 0x1d, 0x0f, 0x0c,
  0xd0, 0xd8, 0x01, 0x13, 0xee, 0xf2, 0xf3, 0x17, 0xd9, 0xf8, 0x01, 0x05,
  0xef, 0xfe, 0x21, 0xd7, 0xd2, 0x1d, 0x2d, 0xee, 0xda, 0x20, 0x04, 0x20,
  0x10, 0xec, 0x18, 0xec, 0x20, 0x31, 0x07, 0x04, 0x2d, 0x21, 0x10, 0xf3,
  0x10, 0x00, 0x23, 0xd8, 0x15, 0xf1, 0xe5, 0x03, 0xf5, 0x08, 0xe6, 0x26,
  0xf7, 0xd1, 0xd5, 0xea, 0xcf, 0x06, 0xe3, 0xe0, 0x0e, 0x10, 0x1b, 0xf7,
  0xf1, 0xd6, 0x30, 0x2a, 0x1e, 0xfe, 0xe7, 0xf4, 0xe4, 0x24, 0xdc, 0xd7,
  0x15, 0x06, 0x14, 0x30, 0x1b, 0xf5, 0x10, 0x23, 0x17, 0x28, 0xdc, 0x26,
  0xdf, 0x25, 0x22, 0xf6, 0xed, 0x29, 0xd4, 0x16, 0xfc, 0xf9, 0xd1, 0xe6,
  0xeb, 0x1b, 0xd5, 0x1a, 0xd1, 0x19, 0xe5, 0x17, 0x00, 0x06, 0x09, 0x08,
  0xe3, 0xf5, 0xd8, 0x00, 0xfd, 0xe7, 0xd2, 0x10, 0x05, 0xf3, 0xec, 0x22,
  0xed, 0xd5, 0xdb, 0x30, 0x2b, 0x0d, 0xe0, 0xf3, 0xe7, 0xde, 0xcf, 0xd4,
  0x1b, 0xec, 0x31, 0x2c, 0xf8, 0xed, 0x16, 0x12, 0x2f, 0x0d, 0x0f, 0x07,
  0xd2, 0x09, 0x04, 0x1b, 0x00, 0x29, 0xf4, 0x18, 0xe0, 0x1b, 0x06, 0xf4,
  0xdf, 0xd2, 0x15, 0xea, 0x02, 0x27, 0x2d, 0xd5, 0xe3, 0x10, 0x22, 0xea,
  0xf4, 0xdf, 0x1e, 0x22, 0x15, 0x04, 0x26, 0x24, 0x31, 0x07, 0xd4, 0xd6,
  0xe5, 0xf2, 0x19, 0xe5, 0x2a, 0x2c, 0xf5, 0xfa, 0xd0, 0xea, 0x01, 0x17,
  0xda, 0x0f, 0xe5, 0x00, 0xed, 0x2d, 0x23, 0x01, 0xdc, 0x18, 0xdb, 0xff,
  0xee, 0x02, 0xe0, 0xd6, 0xea, 0xf5, 0x11, 0x2e, 0x14, 0xd7, 0xf5, 0xfc,
  0xf6, 0x1e, 0x1d, 0xfe, 0xef, 0x2c, 0xf9, 0x1a, 0x23, 0xe0, 0xff, 0x11,
  0xd0, 0x2a, 0xd8, 0xfd, 0xfd, 0xef, 0x08, 0xef, 0xd4, 0xfd, 0xf1, 0xee,
  0xf4, 0xec, 0x01, 0xd0, 0xf2, 0x1d, 0xe2, 0x33, 0x0e, 0x21, 0x10, 0x28,
  0x11, 0xf6, 0xd2, 0x19, 0xe8, 0xe1, 0xee, 0xe6, 0x16, 0xb7, 0x28, 0x20,
  0x21, 0x3b, 0x1c, 0x32, 0xe4, 0x10, 0x13, 0xf8, 0xd7, 0xea, 0x15, 0xfd,
  0xe8, 0xde, 0x16, 0x20, 0x02, 0xff, 0x0a, 0x0e, 0x21, 0x07, 0xf8, 0xd6,
  0x32, 0xf3, 0xee, 0x19, 0xfe, 0xe9, 0x1a, 0x27, 0xe0, 0xf2, 0x20, 0x1b,
  0x15, 0x07, 0xe5, 0x12, 0xf1, 0x07, 0xe1, 0x2c, 0xeb, 0xd3, 0x20, 0x2c,
  0x08, 0x11, 0x17, 0x10, 0x20, 0x09, 0x00, 0x33, 0xeb, 0x2c, 0x0d, 0x13,
  0xd4, 0xd8, 0x2a, 0xe9, 0xe9, 0x4c, 0xd1, 0x26, 0xf9, 0xd7, 0xff, 0x25,
  0x26, 0x06, 0xe0, 0x27, 0xdf, 0xdb, 0x14, 0xf7, 0x08, 0x24, 0x03, 0xfe,
  0x03, 0x2b, 0xfd, 0xe2, 0xee, 0x07, 0x06, 0xff, 0x28, 0x30, 0x30, 0x08,
  0x2a, 0xe7, 0x10, 0xdb, 0xf1, 0x25, 0xff, 0xf3, 0x2b, 0xe7, 0xd1, 0xf9,
  0xef, 0xea, 0xea, 0x0c, 0x1e, 0xe4, 0x2d, 0x24, 0x1e, 0xde, 0xcf, 0xe5,
  0xed, 0x2c, 0xde, 0xef, 0xf3, 0xe6, 0xfc, 0xd3, 0x27, 0x66, 0x11, 0x0c,
  0x0c, 0x1e, 0x36, 0x26, 0x1b, 0xf6, 0xe2, 0xf8, 0x04, 0xec, 0xe9, 0x00,
  0x27, 0xd6, 0x1d, 0xfe, 0xd3, 0x2c, 0xe3, 0x02, 0x2e, 0x0c, 0x1c, 0xdf,
  0x04, 0x0b, 0xfb, 0x0e, 0xe0, 0x20, 0x3e, 0x0a, 0x11, 0x03, 0xee, 0x0a,
  0xda, 0x1e, 0xf4, 0x2a, 0xee, 0xd6, 0xfe, 0xf6, 0x29, 0xd0, 0xdf, 0x04,
  0xd4, 0xde, 0x1b, 0xfd, 0x09, 0x09, 0xc8, 0x01, 0xec, 0x2d, 0x21, 0xf3,
  0xe5, 0xe2, 0xe3, 0x12, 0x07, 0x0d, 0xdc, 0x1e, 0x0f, 0x2a, 0xcf, 0xfc,
  0x21, 0xe4, 0x01, 0x1b, 0x24, 0xf7, 0x1c, 0x0d, 0x1a, 0x0f, 0xed, 0x12,
  0x07, 0xee, 0xcb, 0x01, 0x04, 0x0e, 0x27, 0x30, 0xe3, 0x07, 0xc7, 0x1c,
  0xcb, 0x27, 0xff, 0xf0, 0x29, 0x25, 0x1c, 0xf7, 0xf1, 0x17, 0xf3, 0xfb,
  0x19, 0x14, 0x19, 0xfa, 0xe8, 0xd7, 0xf5, 0x08, 0xf7, 0x0c, 0x18, 0xe7,
  0x22, 0xfe, 0x13, 0xda, 0xea, 0x0b, 0x2e, 0xfb, 0x00, 0x25, 0x03, 0xf8,
  0xea, 0xf8, 0x26, 0xec, 0xe9, 0x1c, 0xd0, 0xf4, 0xef, 0x20, 0x05, 0xf9,
  0x12, 0x07, 0xf3, 0x03, 0xee, 0x2e, 0xde, 0xf8, 0x18, 0xd8, 0x31, 0x14,
  0xef, 0x11, 0x25, 0xd2, 0xe0, 0x15, 0x01, 0xf8, 0xe3, 0xcf, 0xf3, 0x0e,
  0xca, 0xf8, 0xff, 0xff, 0x04, 0x00, 0x00, 0x00, 0x00, 0x01, 0x00, 0x00,
  0xf8, 0x6e, 0x08, 0x3d, 0x8d, 0x2e, 0xb2, 0xbe, 0xa0, 0x74, 0x67, 0xbd,
  0x74, 0x7a, 0x8d, 0xbe, 0xd6, 0x29, 0xe2, 0xbd, 0x51, 0xea, 0x6f, 0xbd,
  0x04, 0xe0, 0xfd, 0x3d, 0x55, 0xfe, 0xcc, 0x3c, 0x9e, 0x35, 0x8b, 0xbe,
  0xb2, 0x0d, 0x82, 0x3e, 0x7e, 0xcd, 0x48, 0xbe, 0x3f, 0x5d, 0xf0, 0xbe,
  0x1b, 0x8b, 0x37, 0xbe, 0xec, 0x8e, 0x7a, 0x3e, 0x52, 0x43, 0x3b, 0xbe,
  0x1b, 0x2c, 0xd2, 0xbe, 0xf8, 0x79, 0xe6, 0xbd, 0x90, 0xc9, 0x80, 0x3d,
  0x3a, 0xc1, 0xb2, 0x3d, 0xc2, 0x3b, 0x18, 0xbe, 0xe8, 0x32, 0x7e, 0x3d,
  0xd0, 0x03, 0xb0, 0xbd, 0xa2, 0x83, 0xfb, 0xbd, 0xc8, 0x8d, 0x73, 0xbe,
  0x4a, 0x48, 0x91, 0xbe, 0xff, 0x8c, 0x41, 0xbe, 0x36, 0x70, 0x19, 0xbe,
  0x1f, 0xfb, 0x99, 0x3e, 0x57, 0xb3, 0x21, 0xbe, 0x50, 0xf5, 0xf2, 0x3c,
  0x32, 0xa1, 0xe0, 0xbe, 0x5b, 0x74, 0xfa, 0x3c, 0xf6, 0x97, 0xbe, 0xbd,
  0xb5, 0xa7, 0x0b, 0xbe, 0x09, 0x98, 0x1e, 0xbe, 0xc6, 0xb2, 0x7d, 0xbe,
  0x81, 0xff, 0x5b, 0xbe, 0xfa, 0x5a, 0x9b, 0xbe, 0x29, 0xb1, 0x59, 0xbe,
  0x7f, 0xcd, 0x33, 0xbe, 0xc0, 0x09, 0xfc, 0x3c, 0x2a, 0xc9, 0xe9, 0x3d,
  0x40, 0x6b, 0x89, 0x3c, 0x30, 0xa0, 0x42, 0x3d, 0x04, 0xe1, 0x8c, 0xbd,
  0x19, 0xb7, 0x12, 0xbe, 0x56, 0xbc, 0x6b, 0xbe, 0x9f, 0x55, 0x17, 0x3d,
  0x3b, 0x91, 0x9b, 0x3d, 0x51, 0x3b, 0x29, 0x3e, 0x62, 0x3e, 0x90, 0xbe,
  0xe2, 0xc2, 0x80, 0x3d, 0x9f, 0x27, 0x86, 0x3d, 0x56, 0x90, 0xc1, 0x3d,
  0x20, 0xa6, 0xb5, 0x3d, 0x0c, 0xa1, 0xfa, 0xbd, 0x6f, 0xa0, 0x68, 0xbe,
  0x0c, 0x97, 0xbe, 0xbd, 0x60, 0x9e, 0x90, 0x3e, 0x97, 0xdb, 0xfc, 0x3d,
  0x61, 0x35, 0x1e, 0x3e, 0x39, 0x0d, 0x8a, 0x3d, 0x19, 0x2d, 0x74, 0xbe,
  0x50, 0x34, 0xdc, 0xbd, 0xd6, 0xf9, 0xff, 0xff, 0x04, 0x00, 0x00, 0x00,
  0x00, 0x05, 0x00, 0x00, 0x67, 0x6d, 0x43, 0x3e, 0xd9, 0x4a, 0x10, 0xbe,
  0xee, 0x9f, 0x2f, 0x3e, 0x35, 0xc8, 0xa6, 0x3d, 0x64, 0x84, 0x9e, 0x3d,
  0xc8, 0xce, 0x91, 0x3d, 0xb8, 0x26, 0x34, 0xbe, 0x42, 0x0d, 0x2d, 0xbe,
  0x06, 0xbf, 0xe0, 0xbd, 0x4d, 0xbd, 0x81, 0xbe, 0x02, 0xf8, 0x72, 0xb9,
  0xdd, 0xc4, 0x93, 0xbc, 0xc5, 0x86, 0x90, 0x3e, 0xbb, 0xb7, 0xcc, 0x3d,
  0xb0, 0xd1, 0x0a, 0xbe, 0x3b, 0x6d, 0x3d, 0xbe, 0xae, 0x3e, 0x7e, 0x3e,
  0x2a, 0x95, 0x92, 0x3e, 0x8a, 0x51, 0x08, 0x3e, 0x46, 0x29, 0xa1, 0xbe,
  0x06, 0xf6, 0x39, 0x3e, 0x37, 0x28, 0x33, 0x3e, 0x04, 0x2c, 0x2f, 0xbd,
  0xb0, 0x0d, 0x12, 0xbc, 0x2b, 0x3d, 0x52, 0x3e, 0x98, 0xb3, 0x57, 0x3e,
  0x0e, 0x7f, 0x0e, 0xbe, 0x66, 0xab, 0x42, 0x3e, 0xb8, 0x54, 0x2b, 0xbe,
  0x84, 0x81, 0x80, 0xbe, 0x4c, 0x35, 0x05, 0xbc, 0x61, 0xb0, 0xaf, 0x3d,
  0xcb, 0xf5, 0x10, 0x3e, 0x7c, 0x06, 0xc1, 0xbd, 0xdd, 0xd9, 0x89, 0x3e,
  0x16, 0x45, 0x43, 0x3e, 0x3a, 0xce, 0xf9, 0xbd, 0x66, 0xed, 0xf7, 0xbd,
  0xc7, 0x81, 0x7a, 0x3d, 0xac, 0xba, 0x2b, 0x3e, 0x4e, 0xbc, 0xc5, 0x3d,
  0x45, 0x6c, 0xa3, 0x3e, 0xaf, 0x76, 0xa4, 0xbd, 0x1f, 0x20, 0x54, 0x3e,
  0xb8, 0xf4, 0x45, 0xbe, 0x0f, 0x1a, 0x53, 0x3e, 0x9d, 0xe3, 0x5a, 0x3e,
  0x0f, 0x30, 0x8d, 0x3e, 0xc0, 0x4d, 0x76, 0xbe, 0x08, 0x6c, 0xb7, 0xbd,
  0x5c, 0x89, 0x59, 0xbe, 0xf8, 0x12, 0xd5, 0x3d, 0x9e, 0x6a, 0x82, 0xbe,
  0x80, 0x02, 0xe7, 0xbc, 0xa6, 0x79, 0x8b, 0xbe, 0x10, 0x71, 0x83, 0x3e,
  0xee, 0xbe, 0x03, 0x3e, 0xf3, 0x32, 0x84, 0xbc, 0xd5, 0xab, 0x8c, 0x3e,
  0x7f, 0x9d, 0x92, 0x3c, 0xe8, 0x44, 0x0e, 0x3e, 0xe8, 0x3c, 0x9f, 0x3d,
  0x0e, 0x71, 0x8d, 0xbe, 0xb6, 0x57, 0x94, 0xbe, 0x6c, 0x9c, 0xe4, 0x3d,
  0xaf, 0x16, 0x1c, 0xbe, 0x7b, 0xdd, 0x64, 0x3d, 0xbd, 0xb2, 0xa1, 0x3d,
  0x61, 0x81, 0x80, 0x3d, 0x32, 0x0f, 0xd5, 0x3c, 0x85, 0x4a, 0x90, 0xbd,
  0x10, 0xd1, 0x0b, 0x3e, 0xd7, 0x2d, 0x3d, 0x3e, 0x68, 0x3e, 0x7b, 0xbe,
  0x9b, 0x7e, 0x5e, 0x3e, 0xcd, 0x62, 0x10, 0x3e, 0xcb, 0x02, 0xa2, 0x3e,
  0x35, 0xbd, 0x8d, 0xbe, 0xbe, 0x4b, 0x6f, 0xbe, 0xe2, 0xd8, 0x9d, 0x3e,
  0x5d, 0xd8, 0x8f, 0x3e, 0x4d, 0x6c, 0x82, 0xbe, 0xe5, 0x18, 0x3d, 0x3e,
  0x8a, 0xab, 0x0e, 0x3d, 0xdd, 0x99, 0x23, 0xbd, 0x45, 0x0d, 0x04, 0xbd,
  0xe1, 0x66, 0x1d, 0x3d, 0xf7, 0x5e, 0x48, 0x3e, 0xb7, 0x19, 0x93, 0x3d,
  0xe4, 0x25, 0x58, 0xbe, 0x1a, 0xda, 0x95, 0x3e, 0x90, 0xc8, 0x55, 0x3e,
  0x07, 0x9e, 0x1a, 0xbd, 0xc4, 0xfb, 0x71, 0x3e, 0x65, 0x8e, 0xfb, 0x3c,
  0x60, 0x64, 0x03, 0xbe, 0x6e, 0xab, 0x87, 0x3e, 0x74, 0x9a, 0x90, 0xbe,
  0xa1, 0xd5, 0x91, 0xbe, 0xf8, 0xcf, 0xf3, 0x3d, 0xd1, 0xd7, 0xa3, 0x3d,
  0x8e, 0xc4, 0x1d, 0xbe, 0xde, 0xbd, 0x79, 0x3e, 0x14, 0x12, 0x3b, 0x3d,
  0x3a, 0x61, 0x2b, 0x3e, 0xea, 0x73, 0xfe, 0x3d, 0x16, 0xa1, 0x61, 0xbd,
  0x91, 0x82, 0x2c, 0xbe, 0x85, 0x0f, 0x6b, 0x3e, 0xc1, 0x52, 0x9f, 0xbb,
  0xb0, 0xdf, 0xfc, 0x3c, 0x88, 0x7a, 0xf2, 0x3d, 0x48, 0xcf, 0xaf, 0xbd,
  0x45, 0x07, 0x23, 0xbe, 0xad, 0xbb, 0x94, 0xbe, 0x4e, 0x82, 0xe0, 0xbc,
  0xbd, 0x9f, 0xb6, 0x3d, 0xa4, 0xce, 0x12, 0xbe, 0xb7, 0xcd, 0xa2, 0xbd,
  0x72, 0xbd, 0x4d, 0x3e, 0x5a, 0xf8, 0x5c, 0xbe, 0x30, 0x1c, 0x6e, 0x3d,
  0xa0, 0x35, 0x3c, 0xbc, 0xb0, 0x09, 0xf3, 0x3c, 0xc0, 0x5b, 0x13, 0xbd,
  0xfb, 0xd7, 0x9d, 0x3e, 0x50, 0x43, 0xe6, 0x3b, 0xc3, 0x9d, 0x96, 0x3e,
  0x4d, 0x2a, 0x53, 0x3e, 0x9a, 0xae, 0x9a, 0xbe, 0xc6, 0x70, 0x99, 0xbe,
  0x54, 0x2c, 0xe0, 0x3c, 0xf6, 0xe2, 0x8a, 0x3e, 0xd4, 0x61, 0x06, 0x3d,
  0x19, 0xa5, 0xae, 0x3c, 0x65, 0xbd, 0x44, 0xbe, 0xa8, 0x6b, 0xa3, 0x3c,
  0x97, 0x2c, 0xbf, 0x3c, 0x20, 0x83, 0x8f, 0x3e, 0x87, 0x98, 0xf2, 0x3d,
  0xa1, 0x2b, 0x58, 0x3e, 0x72, 0x8a, 0xa9, 0x3e, 0x7d, 0x03, 0x6c, 0x3e,
  0xad, 0x29, 0xf6, 0x3d, 0x30, 0x07, 0x02, 0x3e, 0x54, 0xf1, 0xef, 0x3d,
  0xfc, 0xcb, 0xfa, 0x3d, 0x92, 0x02, 0x85, 0xbe, 0xb5, 0x81, 0x97, 0x3e,
  0x3f, 0xdb, 0x95, 0xbd, 0xdc, 0xd5, 0xd9, 0x3d, 0x56, 0x6e, 0x22, 0x3e,
  0x67, 0xd0, 0x30, 0xbe, 0x6e, 0x4c, 0x9c, 0xbd, 0xb2, 0x63, 0x02, 0xbe,
  0xc0, 0xcf, 0x6b, 0xbe, 0xf8, 0x65, 0x07, 0x3d, 0xd0, 0xf1, 0x8c, 0x3e,
  0xd7, 0x2e, 0x90, 0xbe, 0x3c, 0xe7, 0xb3, 0x3d, 0x39, 0x84, 0x15, 0x3e,
  0xf0, 0x4e, 0x2a, 0xbc, 0x3f, 0xae, 0x94, 0x3e, 0x32, 0x84, 0x09, 0x3c,
  0x08, 0xf0, 0xa3, 0xbe, 0x15, 0x3c, 0x3e, 0x3e, 0x6f, 0x65, 0x40, 0xbd,
  0xcc, 0x98, 0x72, 0xbd, 0x5f, 0xd6, 0x3b, 0x3e, 0x2a, 0x0e, 0x14, 0x3e,
  0x25, 0xca, 0xec, 0xbc, 0x67, 0x25, 0x8f, 0x3e, 0xc1, 0x25, 0x9a, 0x3e,
  0xdc, 0x01, 0x6c, 0xbe, 0x67, 0xbe, 0x5d, 0x3d, 0x41, 0xd1, 0x34, 0xbe,
  0x12, 0xe4, 0xb9, 0xbd, 0x90, 0x7a, 0x1c, 0x3d, 0x58, 0xa2, 0x43, 0xbe,
  0x50, 0xfe, 0x4d, 0xbe, 0xe0, 0xbf, 0x84, 0xbe, 0x4b, 0x47, 0x7f, 0x3e,
  0xbd, 0xf6, 0xd9, 0xbd, 0x08, 0x1b, 0x36, 0x3e, 0x79, 0xe0, 0xed, 0x3c,
  0x82, 0xe4, 0x19, 0xbe, 0xa2, 0xcb, 0x38, 0xbe, 0x6c, 0x3e, 0xa6, 0x3d,
  0xd4, 0xd8, 0x81, 0xbd, 0xec, 0x35, 0xac, 0xbd, 0x4d, 0xd1, 0xef, 0xbc,
  0xab, 0x29, 0x42, 0xbe, 0xa0, 0xa7, 0xa1, 0xbc, 0xd5, 0x01, 0xf0, 0x3d,
  0x5e, 0x1f, 0x64, 0x3e, 0xda, 0x96, 0x9b, 0x3e, 0xf0, 0x29, 0x3e, 0x3d,
  0xdf, 0xab, 0x28, 0xbd, 0x60, 0xf2, 0x44, 0xbe, 0x08, 0x32, 0xe3, 0xbd,
  0x3e, 0xf6, 0x57, 0x3e, 0x04, 0xb1, 0xfe, 0xbd, 0xb4, 0xd6, 0x95, 0xbe,
  0x6a, 0xf9, 0x88, 0x3e, 0x0c, 0x1e, 0x9f, 0xbc, 0x15, 0x6f, 0x9c, 0x3c,
  0x9c, 0x44, 0x7b, 0x3c, 0xdb, 0xa9, 0xd0, 0xbd, 0x6c, 0x2d, 0x2c, 0x3e,
  0x58, 0xba, 0x25, 0x3d, 0xcc, 0x32, 0xe3, 0x3c, 0xab, 0xca, 0x99, 0xbd,
  0x2b, 0xad, 0x9c, 0x3e, 0x5d, 0x63, 0x16, 0x3e, 0x08, 0x5c, 0x7d, 0x3e,
  0x7e, 0xed, 0x4d, 0x3e, 0x4f, 0x0f, 0xae, 0x3d, 0xcf, 0xe1, 0x3a, 0x3e,
  0x12, 0x48, 0x92, 0x3e, 0xf5, 0xd1, 0xbe, 0xbd, 0x71, 0x40, 0x2d, 0x3e,
  0xb6, 0x24, 0x88, 0x3e, 0x7a, 0xa5, 0x96, 0xbe, 0xa7, 0x74, 0xfd, 0x3d,
  0x66, 0x50, 0x3c, 0x3e, 0x06, 0x6e, 0x77, 0xbe, 0xbc, 0x3b, 0x89, 0x3e,
  0x0d, 0x8f, 0xb2, 0xbd, 0x43, 0xc4, 0x07, 0x3e, 0x6e, 0x58, 0x3f, 0x3d,
  0x1a, 0xa3, 0xc8, 0xbc, 0x65, 0x51, 0x82, 0xbe, 0xe1, 0x21, 0x6c, 0x3e,
  0x71, 0x55, 0xfb, 0xbd, 0xf7, 0x79, 0x91, 0x3e, 0x97, 0x60, 0x7f, 0x3e,
  0xed, 0x3e, 0x6a, 0x3e, 0xc0, 0x3b, 0x6d, 0xbe, 0x67, 0xbc, 0xf7, 0xbc,
  0xc1, 0x65, 0x35, 0x3e, 0x2e, 0xad, 0xe1, 0xbd, 0x40, 0x3a, 0x1d, 0x3e,
  0x59, 0x5f, 0x65, 0xbe, 0x82, 0x3d, 0xa4, 0xbd, 0xf0, 0x89, 0xec, 0x3d,
  0xcf, 0x88, 0x43, 0x3e, 0x6c, 0xa6, 0x53, 0xbe, 0xca, 0xf4, 0x56, 0xbc,
  0x2c, 0xce, 0xca, 0x3d, 0x1d, 0xd0, 0xa2, 0x3e, 0x14, 0xd0, 0x25, 0xbe,
  0x6e, 0xc3, 0x27, 0x3e, 0x00, 0xa2, 0xbe, 0x3a, 0x3e, 0xe2, 0x06, 0x3e,
  0x14, 0xd5, 0x87, 0xbe, 0x40, 0x0f, 0x6b, 0x3e, 0xae, 0xa6, 0xe3, 0xbd,
  0x9c, 0x13, 0x50, 0xbd, 0xf0, 0x82, 0x9e, 0xbd, 0xe0, 0x9f, 0x61, 0xbd,
  0x18, 0x28, 0x6f, 0xbe, 0xb8, 0x01, 0x51, 0x3d, 0x03, 0xad, 0x10, 0xbe,
  0x54, 0x03, 0x43, 0xbd, 0xf0, 0xbe, 0x3e, 0xbd, 0x2f, 0x5a, 0x87, 0xbe,
  0xf1, 0xb2, 0x6d, 0xbd, 0x8c, 0xfa, 0xb1, 0x3b, 0x5e, 0xee, 0x20, 0x3e,
  0x85, 0x33, 0xa1, 0x3e, 0x10, 0x4a, 0x6b, 0xbe, 0x13, 0x35, 0x79, 0x3e,
  0xe4, 0x07, 0x89, 0xbd, 0x8d, 0x75, 0x41, 0xbe, 0xe9, 0xcc, 0xa4, 0x3e,
  0x0c, 0x4b, 0x2e, 0x3e, 0x53, 0xc3, 0x59, 0xbe, 0x00, 0x53, 0xae, 0xba,
  0x0d, 0x9b, 0x68, 0xbe, 0x74, 0xed, 0xd1, 0x3d, 0xdb, 0x62, 0x34, 0x3e,
  0xc2, 0x2d, 0x54, 0x3e, 0x42, 0x87, 0x18, 0xbe, 0xca, 0x41, 0x4f, 0x3d,
  0xba, 0x9f, 0x13, 0x3e, 0x36, 0xc4, 0xd9, 0xbd, 0x12, 0x13, 0x34, 0x3e,
  0xdc, 0xd9, 0x00, 0xbe, 0xf8, 0x86, 0x7c, 0x3d, 0xc2, 0x23, 0xf4, 0xbd,
  0x6a, 0x33, 0x8a, 0x3e, 0x30, 0xa7, 0xd3, 0xbd, 0xd0, 0xc8, 0x98, 0xbd,
  0xd2, 0x55, 0x06, 0x3e, 0x99, 0x2c, 0x8f, 0xbe, 0xaf, 0xb8, 0xfa, 0x3d,
  0x01, 0x6a, 0x87, 0xbb, 0x0c, 0xf2, 0x02, 0x3e, 0xf3, 0x51, 0x44, 0x3e,
  0x32, 0x84, 0x26, 0xbd, 0x7f, 0x2e, 0x26, 0xbe, 0xa8, 0x7a, 0x5c, 0x3e,
  0x42, 0x68, 0x1c, 0xbe, 0x8e, 0xaf, 0x87, 0xbd, 0xee, 0xab, 0x93, 0xbd,
  0x1f, 0x81, 0x6e, 0xbd, 0xa6, 0xbd, 0x71, 0x3e, 0x2a, 0x0f, 0x39, 0x3d,
  0x3a, 0x0d, 0x8f, 0x3e, 0xe3, 0x27, 0xd0, 0xbc, 0xae, 0x78, 0xc6, 0x3d,
  0x5d, 0x40, 0x51, 0x3e, 0x94, 0x05, 0x14, 0xbc, 0x88, 0xbf, 0x16, 0x3d,
  0x91, 0x46, 0x83, 0xbe, 0xe1, 0x6f, 0x41, 0x3e, 0x43, 0xb2, 0xf2, 0x3d,
  0x6e, 0xea, 0xdb, 0xbc, 0xc5, 0x7d, 0x7b, 0x3e, 0xd7, 0x78, 0x77, 0x3e,
  0xe2, 0xfe, 0xff, 0xff, 0x04, 0x00, 0x00, 0x00, 0x00, 0x01, 0x00, 0x00,
  0x00, 0x00, 0x00, 0x00, 0xb4, 0xae, 0xa3, 0xbb, 0x00, 0x00, 0x00, 0x00,
  0x00, 0x00, 0x00, 0x00, 0x00, 0x00, 0x00, 0x00, 0x0c, 0x04, 0x84, 0xbb,
  0x41, 0x9c, 0x85, 0x3c, 0x0a, 0x37, 0xf9, 0xbb, 0x2c, 0x99, 0x10, 0xbb,
  0x00, 0x00, 0x00, 0x00, 0x00, 0x00, 0x00, 0x00, 0x4a, 0xeb, 0x39, 0xbc,
  0x00, 0x00, 0x00, 0x00, 0x00, 0x00, 0x00, 0x00, 0x00, 0x00, 0x00, 0x00,
  0xec, 0xb9, 0xbf, 0xbc, 0x00, 0x00, 0x00, 0x00, 0x00, 0x00, 0x00, 0x00,
  0x7e, 0x25, 0x88, 0x3c, 0x94, 0xde, 0xf7, 0xbb, 0x00, 0x00, 0x00, 0x00,
  0x00, 0x00, 0x00, 0x00, 0x66, 0x5b, 0x74, 0xbc, 0x00, 0x00, 0x00, 0x00,
  0x00, 0x00, 0x00, 0x00, 0x63, 0x25, 0x29, 0xbc, 0x00, 0x00, 0x00, 0x00,
  0x7e, 0xe1, 0x82, 0x3c, 0xf2, 0xef, 0xd3, 0xbb, 0x00, 0x00, 0x00, 0x00,
  0x27, 0x7c, 0x50, 0xbc, 0xc1, 0xc2, 0xe4, 0x3c, 0x00, 0x00, 0x00, 0x00,
  0xf5, 0x45, 0xe2, 0xbb, 0x95, 0x74, 0x8b, 0xbc, 0xf7, 0x90, 0xa0, 0xbc,
  0x00, 0x00, 0x00, 0x00, 0x00, 0x00, 0x00, 0x00, 0xef, 0x91, 0x3c, 0xbc,
  0x77, 0xc2, 0xb8, 0xbc, 0x00, 0x00, 0x00, 0x00, 0x59, 0x14, 0x9e, 0x3c,
  0x00, 0x00, 0x00, 0x00, 0x00, 0x00, 0x00, 0x00, 0x00, 0x00, 0x00, 0x00,
  0x00, 0x00, 0x00, 0x00, 0x00, 0x00, 0x00, 0x00, 0xc7, 0xfb, 0xa3, 0x3c,
  0x12, 0x47, 0x8a, 0x3c, 0x4e, 0xb8, 0x8a, 0x3c, 0x4a, 0x7a, 0xab, 0xbb,
  0x87, 0x26, 0x8e, 0x3c, 0xa8, 0x0a, 0xac, 0x3c, 0x27, 0x80, 0x89, 0x3c,
  0x00, 0x00, 0x00, 0x00, 0x00, 0x00, 0x00, 0x00, 0x00, 0x00, 0x00, 0x00,
  0x00, 0x00, 0x00, 0x00, 0x00, 0x00, 0x00, 0x00, 0x74, 0xe1, 0xa1, 0x3c,
  0x4a, 0xc2, 0x93, 0x3c, 0xe8, 0x26, 0x8f, 0x3c, 0x3d, 0xf3, 0x67, 0x3b,
  0x00, 0x00, 0x00, 0x00, 0xee, 0xff, 0xff, 0xff, 0x04, 0x00, 0x00, 0x00,
  0x04, 0x00, 0x00, 0x00, 0x4f, 0x3c, 0x81, 0x3c, 0x00, 0x00, 0x06, 0x00,
  0x08, 0x00, 0x04, 0x00, 0x06, 0x00, 0x00, 0x00, 0x04, 0x00, 0x00, 0x00,
  0x00, 0x01, 0x00, 0x00, 0xc5, 0xa6, 0x97, 0xbc, 0x00, 0x00, 0x00, 0x00,
  0xfa, 0xe7, 0x7f, 0xbb, 0xc2, 0x92, 0x7b, 0x3c, 0x8b, 0xc9, 0x37, 0xbc,
  0x00, 0x00, 0x00, 0x00, 0x0e, 0x3e, 0x80, 0x3c, 0x63, 0x27, 0x41, 0x3c,
  0x0d, 0x66, 0x24, 0x3c, 0xae, 0xd8, 0x32, 0x3c, 0x00, 0x00, 0x00, 0x00,
  0x1b, 0xdb, 0x4a, 0x3b, 0x00, 0x00, 0x00, 0x00, 0x60, 0x8b, 0x86, 0x3c,
  0x19, 0xc1, 0x41, 0xbc, 0x74, 0xb6, 0x34, 0x3c, 0x6e, 0x98, 0x66, 0xbc,
  0xf6, 0xdb, 0x06, 0xbc, 0x4f, 0x25, 0xc8, 0x3c, 0x00, 0x00, 0x00, 0x00,
  0x05, 0x5b, 0x36, 0xbc, 0x18, 0x56, 0x03, 0xbd, 0x00, 0x00, 0x00, 0x00,
  0x0b, 0xdb, 0x15, 0x3b, 0x00, 0x00, 0x00, 0x00, 0xaa, 0xd6, 0xac, 0x3c,
  0x66, 0x23, 0xf3, 0x3c, 0x90, 0x13, 0x3f, 0x3c, 0x6b, 0xd4, 0x81, 0x3c,
  0x8c, 0x32, 0x1a, 0xbc, 0x00, 0x00, 0x00, 0x00, 0x00, 0x00, 0x00, 0x00,
  0xf9, 0xa3, 0x4a, 0x3c, 0x1f, 0xbb, 0x43, 0x3c, 0xaf, 0xde, 0x7a, 0x3b,
  0x00, 0x00, 0x00, 0x00, 0x50, 0xc1, 0x25, 0xbc, 0x00, 0x00, 0x00, 0x00,
  0x00, 0x81, 0x90, 0x3c, 0x38, 0x11, 0x3c, 0x3b, 0x32, 0x93, 0xd8, 0x3c,
  0x5d, 0x14, 0x3e, 0xbc, 0xd3, 0x9d, 0x10, 0x3b, 0xdd, 0x17, 0x5d, 0x3c,
  0x14, 0xce, 0x7f, 0xbb, 0xc6, 0xd3, 0xec, 0xbb, 0xd3, 0x9a, 0xba, 0x3a,
  0xeb, 0xbc, 0x1b, 0x3c, 0x00, 0x00, 0x00, 0x00, 0x4e, 0xb2, 0x48, 0x3c,
  0x00, 0x00, 0x00, 0x00, 0x00, 0x00, 0x00, 0x00, 0x00, 0x00, 0x00, 0x00,
  0x23, 0x0e, 0x2e, 0xbc, 0x03, 0xcd, 0x81, 0x3c, 0x00, 0x00, 0x00, 0x00,
  0x8a, 0x19, 0xa8, 0xbc, 0x00, 0x00, 0x00, 0x00, 0x11, 0xea, 0x72, 0xbb,
  0xbb, 0x67, 0x28, 0xbc, 0x00, 0x00, 0x00, 0x00, 0x94, 0x85, 0x65, 0x3c,
  0x35, 0x5c, 0x15, 0x3c, 0x08, 0x51, 0xad, 0xbc, 0x0c, 0xfb, 0xff, 0xff,
  0x10, 0xfb, 0xff, 0xff, 0x0f, 0x00, 0x00, 0x00, 0x4d, 0x4c, 0x49, 0x52,
  0x20, 0x43, 0x6f, 0x6e, 0x76, 0x65, 0x72, 0x74, 0x65, 0x64, 0x2e, 0x00,
  0x01, 0x00, 0x00, 0x00, 0x14, 0x00, 0x00, 0x00, 0x00, 0x00, 0x0e, 0x00,
  0x18, 0x00, 0x14, 0x00, 0x10, 0x00, 0x0c, 0x00, 0x08, 0x00, 0x04, 0x00,
  0x0e, 0x00, 0x00, 0x00, 0x14, 0x00, 0x00, 0x00, 0x1c, 0x00, 0x00, 0x00,
  0xe4, 0x00, 0x00, 0x00, 0xe8, 0x00, 0x00, 0x00, 0xec, 0x00, 0x00, 0x00,
  0x04, 0x00, 0x00, 0x00, 0x6d, 0x61, 0x69, 0x6e, 0x00, 0x00, 0x00, 0x00,
  0x03, 0x00, 0x00, 0x00, 0x8c, 0x00, 0x00, 0x00, 0x38, 0x00, 0x00, 0x00,
  0x04, 0x00, 0x00, 0x00, 0x8e, 0xff, 0xff, 0xff, 0x10, 0x00, 0x00, 0x00,
  0x00, 0x00, 0x00, 0x08, 0x0c, 0x00, 0x00, 0x00, 0x10, 0x00, 0x00, 0x00,
  0x88, 0xfb, 0xff, 0xff, 0x01, 0x00, 0x00, 0x00, 0x09, 0x00, 0x00, 0x00,
  0x03, 0x00, 0x00, 0x00, 0x08, 0x00, 0x00, 0x00, 0x05, 0x00, 0x00, 0x00,
  0x02, 0x00, 0x00, 0x00, 0xbe, 0xff, 0xff, 0xff, 0x1c, 0x00, 0x00, 0x00,
  0x00, 0x00, 0x00, 0x08, 0x1c, 0x00, 0x00, 0x00, 0x20, 0x00, 0x00, 0x00,
  0x0c, 0x00, 0x08, 0x00, 0x07, 0x00, 0x00, 0x00, 0x00, 0x00, 0x06, 0x00,
  0x0c, 0x00, 0x00, 0x00, 0x00, 0x00, 0x01, 0x01, 0x01, 0x00, 0x00, 0x00,
  0x08, 0x00, 0x00, 0x00, 0x03, 0x00, 0x00, 0x00, 0x07, 0x00, 0x00, 0x00,
  0x06, 0x00, 0x00, 0x00, 0x03, 0x00, 0x00, 0x00, 0x00, 0x00, 0x0e, 0x00,
  0x16, 0x00, 0x00, 0x00, 0x10, 0x00, 0x0c, 0x00, 0x0b, 0x00, 0x04, 0x00,
  0x0e, 0x00, 0x00, 0x00, 0x18, 0x00, 0x00, 0x00, 0x00, 0x00, 0x00, 0x08,
  0x18, 0x00, 0x00, 0x00, 0x1c, 0x00, 0x00, 0x00, 0x00, 0x00, 0x06, 0x00,
  0x08, 0x00, 0x07, 0x00, 0x06, 0x00, 0x00, 0x00, 0x00, 0x00, 0x00, 0x01,
  0x01, 0x00, 0x00, 0x00, 0x07, 0x00, 0x00, 0x00, 0x03, 0x00, 0x00, 0x00,
  0x00, 0x00, 0x00, 0x00, 0x04, 0x00, 0x00, 0x00, 0x01, 0x00, 0x00, 0x00,
  0x01, 0x00, 0x00, 0x00, 0x09, 0x00, 0x00, 0x00, 0x01, 0x00, 0x00, 0x00,
  0x00, 0x00, 0x00, 0x00, 0x0a, 0x00, 0x00, 0x00, 0x98, 0x03, 0x00, 0x00,
  0x34, 0x03, 0x00, 0x00, 0xd0, 0x02, 0x00, 0x00, 0x7c, 0x02, 0x00, 0x00,
  0x38, 0x02, 0x00, 0x00, 0xf0, 0x01, 0x00, 0x00, 0x7c, 0x01, 0x00, 0x00,
  0xe8, 0x00, 0x00, 0x00, 0x5c, 0x00, 0x00, 0x00, 0x04, 0x00, 0x00, 0x00,
  0xa4, 0xfc, 0xff, 0xff, 0x14, 0x00, 0x00, 0x00, 0x1c, 0x00, 0x00, 0x00,
  0x1c, 0x00, 0x00, 0x00, 0x0a, 0x00, 0x00, 0x00, 0x34, 0x00, 0x00, 0x00,
  0x02, 0x00, 0x00, 0x00, 0xff, 0xff, 0xff, 0xff, 0x01, 0x00, 0x00, 0x00,
  0x90, 0xfc, 0xff, 0xff, 0x19, 0x00, 0x00, 0x00, 0x53, 0x74, 0x61, 0x74,
  0x65, 0x66, 0x75, 0x6c, 0x50, 0x61, 0x72, 0x74, 0x69, 0x74, 0x69, 0x6f,
  0x6e, 0x65, 0x64, 0x43, 0x61, 0x6c, 0x6c, 0x3a, 0x30, 0x00, 0x00, 0x00,
  0x02, 0x00, 0x00, 0x00, 0x01, 0x00, 0x00, 0x00, 0x01, 0x00, 0x00, 0x00,
  0xf8, 0xfc, 0xff, 0xff, 0x14, 0x00, 0x00, 0x00, 0x1c, 0x00, 0x00, 0x00,
  0x1c, 0x00, 0x00, 0x00, 0x09, 0x00, 0x00, 0x00, 0x68, 0x00, 0x00, 0x00,
  0x02, 0x00, 0x00, 0x00, 0xff, 0xff, 0xff, 0xff, 0x40, 0x00, 0x00, 0x00,
  0xe4, 0xfc, 0xff, 0xff, 0x4c, 0x00, 0x00, 0x00, 0x73, 0x65, 0x71, 0x75,
  0x65, 0x6e, 0x74, 0x69, 0x61, 0x6c, 0x2f, 0x64, 0x65, 0x6e, 0x73, 0x65,
  0x5f, 0x31, 0x2f, 0x4d, 0x61, 0x74, 0x4d, 0x75, 0x6c, 0x3b, 0x73, 0x65,
  0x71, 0x75, 0x65, 0x6e, 0x74, 0x69, 0x61, 0x6c, 0x2f, 0x64, 0x65, 0x6e,
  0x73, 0x65, 0x5f, 0x31, 0x2f, 0x52, 0x65, 0x6c, 0x75, 0x3b, 0x73, 0x65,
  0x71, 0x75, 0x65, 0x6e, 0x74, 0x69, 0x61, 0x6c, 0x2f, 0x64, 0x65, 0x6e,
  0x73, 0x65, 0x5f, 0x31, 0x2f, 0x42, 0x69, 0x61, 0x73, 0x41, 0x64, 0x64,
  0x00, 0x00, 0x00, 0x00, 0x02, 0x00, 0x00, 0x00, 0x01, 0x00, 0x00, 0x00,
  0x40, 0x00, 0x00, 0x00, 0x80, 0xfd, 0xff, 0xff, 0x14, 0x00, 0x00, 0x00,
  0x1c, 0x00, 0x00, 0x00, 0x1c, 0x00, 0x00, 0x00, 0x08, 0x00, 0x00, 0x00,
  0x60, 0x00, 0x00, 0x00, 0x02, 0x00, 0x00, 0x00, 0xff, 0xff, 0xff, 0xff,
  0x40, 0x00, 0x00, 0x00, 0x6c, 0xfd, 0xff, 0xff, 0x46, 0x00, 0x00, 0x00,
  0x73, 0x65, 0x71, 0x75, 0x65, 0x6e, 0x74, 0x69, 0x61, 0x6c, 0x2f, 0x64,
  0x65, 0x6e, 0x73, 0x65, 0x2f, 0x4d, 0x61, 0x74, 0x4d, 0x75, 0x6c, 0x3b,
  0x73, 0x65, 0x71, 0x75, 0x65, 0x6e, 0x74, 0x69, 0x61, 0x6c, 0x2f, 0x64,
  0x65, 0x6e, 0x73, 0x65, 0x2f, 0x52, 0x65, 0x6c, 0x75, 0x3b, 0x73, 0x65,
  0x71, 0x75, 0x65, 0x6e, 0x74, 0x69, 0x61, 0x6c, 0x2f, 0x64, 0x65, 0x6e,
  0x73, 0x65, 0x2f, 0x42, 0x69, 0x61, 0x73, 0x41, 0x64, 0x64, 0x00, 0x00,
  0x02, 0x00, 0x00, 0x00, 0x01, 0x00, 0x00, 0x00, 0x40, 0x00, 0x00, 0x00,
  0x00, 0x00, 0x0e, 0x00, 0x18, 0x00, 0x14, 0x00, 0x13, 0x00, 0x0c, 0x00,
  0x08, 0x00, 0x04, 0x00, 0x0e, 0x00, 0x00, 0x00, 0x20, 0x00, 0x00, 0x00,
  0x3c, 0x00, 0x00, 0x00, 0x07, 0x00, 0x00, 0x00, 0x00, 0x00, 0x00, 0x09,
  0x50, 0x00, 0x00, 0x00, 0x0c, 0x00, 0x0c, 0x00, 0x00, 0x00, 0x00, 0x00,
  0x08, 0x00, 0x04, 0x00, 0x0c, 0x00, 0x00, 0x00, 0x08, 0x00, 0x00, 0x00,
  0x10, 0x00, 0x00, 0x00, 0x01, 0x00, 0x00, 0x00, 0x00, 0x00, 0x00, 0x00,
  0x00, 0x00, 0x00, 0x00, 0x01, 0x00, 0x00, 0x00, 0x30, 0x69, 0x90, 0x3b,
  0x19, 0x00, 0x00, 0x00, 0x73, 0x65, 0x71, 0x75, 0x65, 0x6e, 0x74, 0x69,
  0x61, 0x6c, 0x2f, 0x64, 0x65, 0x6e, 0x73, 0x65, 0x5f, 0x31, 0x2f, 0x4d,
  0x61, 0x74, 0x4d, 0x75, 0x6c, 0x00, 0x00, 0x00, 0x02, 0x00, 0x00, 0x00,
  0x40, 0x00, 0x00, 0x00, 0x40, 0x00, 0x00, 0x00, 0xda, 0xfe, 0xff, 0xff,
  0x10, 0x00, 0x00, 0x00, 0x10, 0x00, 0x00, 0x00, 0x06, 0x00, 0x00, 0x00,
  0x28, 0x00, 0x00, 0x00, 0x5c, 0xfe, 0xff, 0xff, 0x19, 0x00, 0x00, 0x00,
  0x73, 0x65, 0x71, 0x75, 0x65, 0x6e, 0x74, 0x69, 0x61, 0x6c, 0x2f, 0x64,
  0x65, 0x6e, 0x73, 0x65, 0x5f, 0x32, 0x2f, 0x4d, 0x61, 0x74, 0x4d, 0x75,
  0x6c, 0x00, 0x00, 0x00, 0x02, 0x00, 0x00, 0x00, 0x01, 0x00, 0x00, 0x00,
  0x40, 0x00, 0x00, 0x00, 0x1e, 0xff, 0xff, 0xff, 0x10, 0x00, 0x00, 0x00,
  0x10, 0x00, 0x00, 0x00, 0x05, 0x00, 0x00, 0x00, 0x24, 0x00, 0x00, 0x00,
  0xa0, 0xfe, 0xff, 0xff, 0x17, 0x00, 0x00, 0x00, 0x73, 0x65, 0x71, 0x75,
  0x65, 0x6e, 0x74, 0x69, 0x61, 0x6c, 0x2f, 0x64, 0x65, 0x6e, 0x73, 0x65,
  0x2f, 0x4d, 0x61, 0x74, 0x4d, 0x75, 0x6c, 0x00, 0x02, 0x00, 0x00, 0x00,
  0x40, 0x00, 0x00, 0x00, 0x05, 0x00, 0x00, 0x00, 0x5e, 0xff, 0xff, 0xff,
  0x10, 0x00, 0x00, 0x00, 0x10, 0x00, 0x00, 0x00, 0x04, 0x00, 0x00, 0x00,
  0x38, 0x00, 0x00, 0x00, 0xe0, 0xfe, 0xff, 0xff, 0x29, 0x00, 0x00, 0x00,
  0x73, 0x65, 0x71, 0x75, 0x65, 0x6e, 0x74, 0x69, 0x61, 0x6c, 0x2f, 0x64,
  0x65, 0x6e, 0x73, 0x65, 0x5f, 0x31, 0x2f, 0x42, 0x69, 0x61, 0x73, 0x41,
  0x64, 0x64, 0x2f, 0x52, 0x65, 0x61, 0x64, 0x56, 0x61, 0x72, 0x69, 0x61,
  0x62, 0x6c, 0x65, 0x4f, 0x70, 0x00, 0x00, 0x00, 0x01, 0x00, 0x00, 0x00,
  0x40, 0x00, 0x00, 0x00, 0xae, 0xff, 0xff, 0xff, 0x10, 0x00, 0x00, 0x00,
  0x10, 0x00, 0x00, 0x00, 0x03, 0x00, 0x00, 0x00, 0x38, 0x00, 0x00, 0x00,
  0x30, 0xff, 0xff, 0xff, 0x29, 0x00, 0x00, 0x00, 0x73, 0x65, 0x71, 0x75,
  0x65, 0x6e, 0x74, 0x69, 0x61, 0x6c, 0x2f, 0x64, 0x65, 0x6e, 0x73, 0x65,
  0x5f, 0x32, 0x2f, 0x42, 0x69, 0x61, 0x73, 0x41, 0x64, 0x64, 0x2f, 0x52,
  0x65, 0x61, 0x64, 0x56, 0x61, 0x72, 0x69, 0x61, 0x62, 0x6c, 0x65, 0x4f,
  0x70, 0x00, 0x00, 0x00, 0x01, 0x00, 0x00, 0x00, 0x01, 0x00, 0x00, 0x00,
  0x00, 0x00, 0x0e, 0x00, 0x14, 0x00, 0x10, 0x00, 0x00, 0x00, 0x0c, 0x00,
  0x08, 0x00, 0x04, 0x00, 0x0e, 0x00, 0x00, 0x00, 0x10, 0x00, 0x00, 0x00,
  0x10, 0x00, 0x00, 0x00, 0x02, 0x00, 0x00, 0x00, 0x34, 0x00, 0x00, 0x00,
  0x90, 0xff, 0xff, 0xff, 0x27, 0x00, 0x00, 0x00, 0x73, 0x65, 0x71, 0x75,
  0x65, 0x6e, 0x74, 0x69, 0x61, 0x6c, 0x2f, 0x64, 0x65, 0x6e, 0x73, 0x65,
  0x2f, 0x42, 0x69, 0x61, 0x73, 0x41, 0x64, 0x64, 0x2f, 0x52, 0x65, 0x61,
  0x64, 0x56, 0x61, 0x72, 0x69, 0x61, 0x62, 0x6c, 0x65, 0x4f, 0x70, 0x00,
  0x01, 0x00, 0x00, 0x00, 0x40, 0x00, 0x00, 0x00, 0x14, 0x00, 0x18, 0x00,
  0x14, 0x00, 0x00, 0x00, 0x10, 0x00, 0x0c, 0x00, 0x08, 0x00, 0x00, 0x00,
  0x00, 0x00, 0x04, 0x00, 0x14, 0x00, 0x00, 0x00, 0x14, 0x00, 0x00, 0x00,
  0x20, 0x00, 0x00, 0x00, 0x20, 0x00, 0x00, 0x00, 0x01, 0x00, 0x00, 0x00,
  0x3c, 0x00, 0x00, 0x00, 0x02, 0x00, 0x00, 0x00, 0xff, 0xff, 0xff, 0xff,
  0x05, 0x00, 0x00, 0x00, 0x04, 0x00, 0x04, 0x00, 0x04, 0x00, 0x00, 0x00,
  0x1d, 0x00, 0x00, 0x00, 0x73, 0x65, 0x72, 0x76, 0x69, 0x6e, 0x67, 0x5f,
  0x64, 0x65, 0x66, 0x61, 0x75, 0x6c, 0x74, 0x5f, 0x64, 0x65, 0x6e, 0x73,
  0x65, 0x5f, 0x69, 0x6e, 0x70, 0x75, 0x74, 0x3a, 0x30, 0x00, 0x00, 0x00,
  0x02, 0x00, 0x00, 0x00, 0x01, 0x00, 0x00, 0x00, 0x05, 0x00, 0x00, 0x00,
  0x01, 0x00, 0x00, 0x00, 0x10, 0x00, 0x00, 0x00, 0x0c, 0x00, 0x10, 0x00,
  0x0f, 0x00, 0x00, 0x00, 0x08, 0x00, 0x04, 0x00, 0x0c, 0x00, 0x00, 0x00,
  0x09, 0x00, 0x00, 0x00, 0x09, 0x00, 0x00, 0x00, 0x00, 0x00, 0x00, 0x09
};
unsigned int dense_modelr2_tflite_len = 8064;
