unsigned char dense_modelr4_tflite[] = {
  0x1c, 0x00, 0x00, 0x00, 0x54, 0x46, 0x4c, 0x33, 0x14, 0x00, 0x20, 0x00,
  0x1c, 0x00, 0x18, 0x00, 0x14, 0x00, 0x10, 0x00, 0x0c, 0x00, 0x00, 0x00,
  0x08, 0x00, 0x04, 0x00, 0x14, 0x00, 0x00, 0x00, 0x1c, 0x00, 0x00, 0x00,
  0x98, 0x00, 0x00, 0x00, 0xf0, 0x00, 0x00, 0x00, 0xdc, 0x0c, 0x00, 0x00,
  0xec, 0x0c, 0x00, 0x00, 0x6c, 0x10, 0x00, 0x00, 0x03, 0x00, 0x00, 0x00,
  0x01, 0x00, 0x00, 0x00, 0x10, 0x00, 0x00, 0x00, 0x00, 0x00, 0x0a, 0x00,
  0x10, 0x00, 0x0c, 0x00, 0x08, 0x00, 0x04, 0x00, 0x0a, 0x00, 0x00, 0x00,
  0x0c, 0x00, 0x00, 0x00, 0x1c, 0x00, 0x00, 0x00, 0x3c, 0x00, 0x00, 0x00,
  0x0f, 0x00, 0x00, 0x00, 0x73, 0x65, 0x72, 0x76, 0x69, 0x6e, 0x67, 0x5f,
  0x64, 0x65, 0x66, 0x61, 0x75, 0x6c, 0x74, 0x00, 0x01, 0x00, 0x00, 0x00,
  0x04, 0x00, 0x00, 0x00, 0x90, 0xff, 0xff, 0xff, 0x06, 0x00, 0x00, 0x00,
  0x04, 0x00, 0x00, 0x00, 0x08, 0x00, 0x00, 0x00, 0x64, 0x65, 0x6e, 0x73,
  0x65, 0x5f, 0x31, 0x30, 0x00, 0x00, 0x00, 0x00, 0x01, 0x00, 0x00, 0x00,
  0x04, 0x00, 0x00, 0x00, 0x42, 0xf5, 0xff, 0xff, 0x04, 0x00, 0x00, 0x00,
  0x0d, 0x00, 0x00, 0x00, 0x64, 0x65, 0x6e, 0x73, 0x65, 0x5f, 0x39, 0x5f,
  0x69, 0x6e, 0x70, 0x75, 0x74, 0x00, 0x00, 0x00, 0x02, 0x00, 0x00, 0x00,
  0x34, 0x00, 0x00, 0x00, 0x04, 0x00, 0x00, 0x00, 0xdc, 0xff, 0xff, 0xff,
  0x09, 0x00, 0x00, 0x00, 0x04, 0x00, 0x00, 0x00, 0x13, 0x00, 0x00, 0x00,
  0x43, 0x4f, 0x4e, 0x56, 0x45, 0x52, 0x53, 0x49, 0x4f, 0x4e, 0x5f, 0x4d,
  0x45, 0x54, 0x41, 0x44, 0x41, 0x54, 0x41, 0x00, 0x08, 0x00, 0x0c, 0x00,
  0x08, 0x00, 0x04, 0x00, 0x08, 0x00, 0x00, 0x00, 0x08, 0x00, 0x00, 0x00,
  0x04, 0x00, 0x00, 0x00, 0x13, 0x00, 0x00, 0x00, 0x6d, 0x69, 0x6e, 0x5f,
  0x72, 0x75, 0x6e, 0x74, 0x69, 0x6d, 0x65, 0x5f, 0x76, 0x65, 0x72, 0x73,
  0x69, 0x6f, 0x6e, 0x00, 0x0a, 0x00, 0x00, 0x00, 0xe8, 0x0b, 0x00, 0x00,
  0xe0, 0x0b, 0x00, 0x00, 0x40, 0x0a, 0x00, 0x00, 0x24, 0x0a, 0x00, 0x00,
  0x44, 0x02, 0x00, 0x00, 0xa4, 0x00, 0x00, 0x00, 0x9c, 0x00, 0x00, 0x00,
  0x94, 0x00, 0x00, 0x00, 0x74, 0x00, 0x00, 0x00, 0x04, 0x00, 0x00, 0x00,
  0xe6, 0xf5, 0xff, 0xff, 0x04, 0x00, 0x00, 0x00, 0x60, 0x00, 0x00, 0x00,
  0x0c, 0x00, 0x00, 0x00, 0x08, 0x00, 0x0e, 0x00, 0x08, 0x00, 0x04, 0x00,
  0x08, 0x00, 0x00, 0x00, 0x14, 0x00, 0x00, 0x00, 0x30, 0x00, 0x00, 0x00,
  0x00, 0x00, 0x0a, 0x00, 0x0c, 0x00, 0x08, 0x00, 0x00, 0x00, 0x07, 0x00,
  0x0a, 0x00, 0x00, 0x00, 0x00, 0x00, 0x00, 0x01, 0x04, 0x00, 0x00, 0x00,
  0x01, 0x00, 0x00, 0x00, 0xea, 0x03, 0x00, 0x00, 0x00, 0x00, 0x0a, 0x00,
  0x10, 0x00, 0x0c, 0x00, 0x08, 0x00, 0x04, 0x00, 0x0a, 0x00, 0x00, 0x00,
  0x02, 0x00, 0x00, 0x00, 0x02, 0x00, 0x00, 0x00, 0x04, 0x00, 0x00, 0x00,
  0x05, 0x00, 0x00, 0x00, 0x32, 0x2e, 0x39, 0x2e, 0x32, 0x00, 0x00, 0x00,
  0x52, 0xf6, 0xff, 0xff, 0x04, 0x00, 0x00, 0x00, 0x10, 0x00, 0x00, 0x00,
  0x31, 0x2e, 0x35, 0x2e, 0x30, 0x00, 0x00, 0x00, 0x00, 0x00, 0x00, 0x00,
  0x00, 0x00, 0x00, 0x00, 0x64, 0xf1, 0xff, 0xff, 0x68, 0xf1, 0xff, 0xff,
  0x76, 0xf6, 0xff, 0xff, 0x04, 0x00, 0x00, 0x00, 0x90, 0x01, 0x00, 0x00,
  0x59, 0x99, 0xe7, 0xbe, 0x49, 0x20, 0x1e, 0xbe, 0x0c, 0x64, 0x50, 0x3e,
  0xc0, 0x80, 0x73, 0x3d, 0x56, 0x1e, 0x85, 0xbd, 0x06, 0x7a, 0x50, 0xbe,
  0x42, 0x42, 0x0a, 0xbe, 0xec, 0x5a, 0x36, 0xbd, 0x90, 0x6e, 0x34, 0x3d,
  0x63, 0x90, 0xe9, 0xbd, 0x04, 0x48, 0x70, 0xbd, 0x56, 0x17, 0x34, 0xbe,
  0xd8, 0xcd, 0xdc, 0x3d, 0xe8, 0x07, 0xac, 0xbd, 0xf4, 0x4c, 0x8d, 0x3e,
  0x8d, 0xf1, 0x5d, 0x3d, 0xd1, 0x9f, 0xc8, 0x3d, 0x40, 0x83, 0x33, 0xbc,
  0x39, 0x70, 0x3c, 0xbe, 0xb0, 0x5e, 0xef, 0xbd, 0x7a, 0xb8, 0x98, 0xbd,
  0x30, 0xef, 0x16, 0xbe, 0x41, 0x0c, 0x2f, 0x3e, 0xb4, 0xf8, 0xa2, 0x3d,
  0x0c, 0x80, 0xb0, 0xbd, 0xb3, 0xec, 0xe3, 0xbe, 0xdf, 0x0a, 0x58, 0xbe,
  0xa8, 0x31, 0x85, 0x3e, 0x04, 0xca, 0x26, 0xbc, 0x22, 0x64, 0xdf, 0xbd,
  0x87, 0xcf, 0xf6, 0xbd, 0x23, 0x2b, 0x98, 0x3e, 0x53, 0xcd, 0x4e, 0xbe,
  0x3e, 0xae, 0x5f, 0x3e, 0x89, 0x48, 0x2d, 0x3e, 0xf4, 0x4e, 0xef, 0x3d,
  0xa0, 0xdb, 0x65, 0x3c, 0xe9, 0x9d, 0x97, 0x3d, 0xb5, 0x1c, 0x06, 0x3e,
  0x18, 0xd6, 0x71, 0xbd, 0xc0, 0xa9, 0x5b, 0x3e, 0x7a, 0x52, 0x59, 0x3e,
  0x7c, 0x87, 0x93, 0x3e, 0x94, 0x82, 0x98, 0xbd, 0xcc, 0x9a, 0x69, 0x3e,
  0xec, 0x35, 0xe5, 0xbd, 0x52, 0xde, 0x83, 0xbd, 0xad, 0x34, 0xd0, 0x3d,
  0x06, 0xcd, 0x23, 0xbf, 0x5e, 0x3f, 0x0a, 0xbd, 0x07, 0x54, 0x4a, 0x3e,
  0x40, 0x92, 0xf5, 0x3b, 0x32, 0x8e, 0xfe, 0xbd, 0xbd, 0x82, 0xb7, 0x3d,
  0x6c, 0x5c, 0x53, 0xbe, 0x2e, 0x88, 0x0d, 0xbf, 0x3e, 0xd1, 0x6c, 0x3e,
  0x30, 0x2b, 0x10, 0x3e, 0xbc, 0x79, 0xc3, 0xbc, 0x0c, 0xe8, 0x52, 0xbd,
  0x95, 0x7d, 0x08, 0xbe, 0x20, 0x41, 0xf6, 0x3c, 0x96, 0x0e, 0xdd, 0x3d,
  0x08, 0xd3, 0xed, 0x3d, 0xb9, 0xb3, 0x63, 0x3e, 0x85, 0x79, 0x86, 0x3c,
  0x42, 0xfa, 0xbb, 0xbd, 0x50, 0x43, 0x49, 0x3e, 0x74, 0x19, 0x23, 0xbe,
  0x32, 0x72, 0x9e, 0xbd, 0x1b, 0x74, 0x6e, 0x3d, 0x88, 0x7d, 0x0d, 0xbe,
  0x21, 0x3d, 0x03, 0x3e, 0x70, 0x5f, 0xa4, 0x3c, 0x78, 0x36, 0x56, 0x3d,
  0x84, 0xd3, 0x53, 0xbe, 0x31, 0xfa, 0x78, 0xbe, 0xf4, 0x79, 0x98, 0x3d,
  0xe0, 0x05, 0x0b, 0x3d, 0x80, 0xbb, 0xee, 0x3d, 0x74, 0x04, 0xc3, 0xbd,
  0xa6, 0x28, 0x4a, 0x3e, 0x70, 0x12, 0xc6, 0x3d, 0xd0, 0x6c, 0xdd, 0xbd,
  0x5c, 0x7d, 0x7b, 0x3d, 0x64, 0x99, 0xd9, 0xbe, 0xb7, 0x41, 0x59, 0x3e,
  0x00, 0x0b, 0x69, 0x3b, 0x48, 0xb0, 0xcd, 0x3d, 0x35, 0xae, 0x61, 0x3e,
  0x12, 0xa9, 0x74, 0xbd, 0x00, 0x8c, 0x45, 0x3e, 0x39, 0xff, 0x75, 0x3d,
  0x17, 0x72, 0x35, 0x3e, 0x1f, 0xeb, 0x08, 0xbd, 0x5f, 0xa3, 0x4b, 0xbf,
  0xa0, 0xdf, 0x46, 0xbf, 0x70, 0x96, 0x19, 0xbe, 0x73, 0x03, 0x19, 0x3d,
  0xeb, 0x95, 0x2a, 0x3e, 0x12, 0xf8, 0xff, 0xff, 0x04, 0x00, 0x00, 0x00,
  0xd0, 0x07, 0x00, 0x00, 0x6b, 0xca, 0xe2, 0xbc, 0x25, 0x45, 0x25, 0x3b,
  0xc5, 0x6f, 0x4c, 0x3e, 0x07, 0x8c, 0x9a, 0x3d, 0x99, 0x4d, 0x57, 0xbe,
  0x1a, 0x4b, 0x89, 0xbd, 0xbc, 0x2c, 0x25, 0x3d, 0xec, 0x15, 0x33, 0x3d,
  0xa4, 0x07, 0x7c, 0xbd, 0xf0, 0x03, 0xab, 0xbd, 0x59, 0xaf, 0x2f, 0xbe,
  0x82, 0x61, 0x98, 0x3d, 0xb4, 0x7a, 0x05, 0x3d, 0xf6, 0x57, 0xa1, 0xbd,
  0x1a, 0x8e, 0x55, 0xbe, 0x70, 0xa0, 0x75, 0xbd, 0x50, 0x81, 0x47, 0x3c,
  0xcb, 0xd0, 0x6c, 0x3e, 0x04, 0x13, 0x30, 0xbe, 0xac, 0x60, 0x9b, 0xbd,
  0xa0, 0xa0, 0xe8, 0xbc, 0xe7, 0x7d, 0x23, 0xbe, 0xee, 0x8d, 0xa6, 0x3d,
  0xd8, 0xe9, 0x4b, 0xbd, 0x72, 0x51, 0xd6, 0xbd, 0xcf, 0x87, 0x54, 0xbc,
  0xc9, 0x01, 0x3f, 0x3e, 0xf5, 0xe8, 0x18, 0x3e, 0x8d, 0x50, 0x5f, 0x3e,
  0x33, 0x86, 0x83, 0xbe, 0xe4, 0x43, 0x30, 0xbd, 0xe8, 0x08, 0xd9, 0xbc,
  0x9e, 0x9f, 0x97, 0xbd, 0x93, 0x5c, 0x29, 0xbe, 0x0e, 0xab, 0x88, 0x3d,
  0x5c, 0xe8, 0x02, 0x3d, 0xee, 0xc7, 0x5d, 0xbe, 0xe4, 0xc7, 0x36, 0x3d,
  0x47, 0xdf, 0x34, 0xbe, 0xd2, 0xc6, 0xa6, 0x3d, 0x04, 0xc7, 0x93, 0xbd,
  0x3d, 0x4d, 0x04, 0x3e, 0xd0, 0x23, 0x2a, 0xbc, 0x8c, 0x31, 0xc8, 0xbd,
  0xbc, 0x6a, 0x46, 0xbe, 0xdd, 0xa9, 0x8f, 0xbd, 0x7f, 0x4b, 0xf2, 0xbd,
  0x6a, 0xc6, 0x8f, 0x3d, 0x63, 0xa1, 0xa7, 0xba, 0x89, 0xbd, 0x8d, 0x3d,
  0x8e, 0xad, 0x3e, 0xbe, 0x2a, 0x9a, 0xdc, 0xbd, 0xd8, 0xbc, 0x44, 0xbe,
  0x18, 0x84, 0x53, 0xbd, 0x2e, 0xef, 0xd7, 0x3d, 0xc8, 0x31, 0xed, 0x3c,
  0x20, 0xfe, 0x14, 0xbc, 0x30, 0x20, 0x3e, 0xbe, 0x42, 0x4a, 0x56, 0xbe,
  0x52, 0x16, 0xa5, 0x3d, 0x9c, 0xde, 0xb5, 0xbd, 0xa0, 0x20, 0x88, 0xbd,
  0xf2, 0xc4, 0x63, 0xbe, 0xde, 0x78, 0x54, 0xbe, 0x58, 0x8b, 0x3f, 0xbe,
  0xea, 0x58, 0xb1, 0x3d, 0x18, 0x53, 0xa1, 0xbc, 0xf8, 0x6d, 0x4d, 0xbe,
  0x09, 0x6d, 0x37, 0xbe, 0x1c, 0x57, 0x6a, 0xbe, 0x58, 0x2c, 0xc2, 0xbd,
  0x53, 0x8a, 0xe9, 0x3d, 0xba, 0x96, 0x5c, 0x3e, 0x75, 0xe4, 0x60, 0xbc,
  0x16, 0x65, 0xa1, 0xbc, 0xf3, 0xe0, 0x33, 0xbe, 0x6d, 0xfb, 0x4c, 0x3e,
  0x3b, 0xe9, 0xbd, 0x3c, 0x1a, 0x6e, 0xbe, 0xbb, 0xce, 0x74, 0x11, 0x3e,
  0xec, 0x9c, 0x3c, 0x3d, 0x85, 0x11, 0x4c, 0x3e, 0xa0, 0xa1, 0x58, 0x3e,
  0xba, 0xb9, 0xf1, 0xbd, 0xb1, 0x9d, 0xc1, 0x3b, 0x7f, 0x13, 0x77, 0xbe,
  0x49, 0xa9, 0xf8, 0xbd, 0x02, 0x47, 0x28, 0x3e, 0x48, 0x38, 0xe3, 0x3d,
  0x31, 0x97, 0x24, 0x3e, 0xd8, 0xa3, 0x21, 0xbe, 0x5c, 0x33, 0x10, 0xbd,
  0x48, 0xda, 0x63, 0xbe, 0xd2, 0x83, 0x46, 0xbe, 0x8c, 0xa5, 0x4e, 0x3d,
  0xa4, 0xc5, 0x51, 0xbd, 0x79, 0xf0, 0x10, 0xbe, 0x5e, 0x59, 0x4e, 0xbe,
  0x04, 0x9f, 0x28, 0x3e, 0x2e, 0x7d, 0x03, 0x3e, 0x53, 0xe7, 0x14, 0x3e,
  0x9c, 0x90, 0x1f, 0xbe, 0x0c, 0x49, 0x33, 0xbe, 0x0a, 0xf3, 0xde, 0x3d,
  0xf0, 0x15, 0x42, 0xbe, 0xce, 0xa2, 0x9d, 0x3d, 0x14, 0x4f, 0xca, 0x3d,
  0x5d, 0x4c, 0x16, 0xbc, 0x5b, 0x6a, 0x01, 0xbe, 0xad, 0x90, 0xa9, 0x3d,
  0x56, 0x83, 0x50, 0x3e, 0x80, 0x44, 0xdf, 0xbd, 0xa9, 0x62, 0xb4, 0x3d,
  0x44, 0xd3, 0x43, 0x3e, 0x5d, 0x1f, 0x64, 0x3d, 0x23, 0xf6, 0x39, 0x3e,
  0x74, 0x84, 0x88, 0x3e, 0x9e, 0x26, 0xdc, 0x3d, 0x01, 0xbe, 0x3f, 0xbd,
  0x1c, 0xff, 0xf2, 0xbc, 0xf2, 0xa4, 0x55, 0xbe, 0xec, 0x67, 0x6f, 0x3d,
  0x12, 0x01, 0xef, 0x3d, 0x25, 0x77, 0x09, 0x3e, 0x82, 0x93, 0x59, 0xbe,
  0x56, 0x85, 0xb1, 0xbd, 0x2c, 0xac, 0xd7, 0x3d, 0x3a, 0x9f, 0x53, 0x3e,
  0xde, 0x32, 0x12, 0x3e, 0xba, 0x0f, 0xa4, 0xbe, 0x14, 0x67, 0x02, 0xbe,
  0xa3, 0xc2, 0x96, 0xbd, 0xa9, 0xdd, 0xf7, 0x3d, 0x02, 0xfd, 0x06, 0xbe,
  0xea, 0xde, 0x0d, 0x3e, 0x41, 0x21, 0xe8, 0xbd, 0x78, 0x8b, 0x0b, 0xbe,
  0xf7, 0x58, 0xff, 0x3d, 0x8f, 0x8b, 0x93, 0x3d, 0xfa, 0xf4, 0x44, 0x3e,
  0x88, 0x09, 0xc6, 0xbd, 0x19, 0x5d, 0xec, 0x3d, 0xa3, 0x33, 0x63, 0x3b,
  0x1e, 0xf2, 0xf0, 0x3d, 0x51, 0x92, 0x0b, 0x3e, 0x78, 0x5b, 0x96, 0xbd,
  0xf3, 0x7a, 0x1f, 0x3e, 0xc8, 0xa4, 0x37, 0xbe, 0x8b, 0xd5, 0x37, 0xbe,
  0xf0, 0x76, 0x5b, 0x3c, 0x68, 0x90, 0x64, 0x3e, 0xd9, 0x9a, 0x5d, 0x3d,
  0x85, 0x07, 0x30, 0x3e, 0x95, 0xa0, 0x1c, 0xbe, 0x74, 0xea, 0x18, 0x3e,
  0xc4, 0x98, 0x02, 0xbe, 0x36, 0xf9, 0x19, 0x3e, 0xb7, 0xd3, 0xac, 0xbd,
  0xe3, 0x32, 0xd8, 0x3d, 0xae, 0x2e, 0x50, 0x3e, 0x88, 0x05, 0xc0, 0x3d,
  0xca, 0xa0, 0x87, 0xbd, 0x57, 0x9a, 0xab, 0x3b, 0x0f, 0xc7, 0xd2, 0x3d,
  0x8c, 0x86, 0x84, 0x3d, 0xc5, 0x14, 0x5b, 0x3e, 0x0d, 0x69, 0x73, 0xbe,
  0x58, 0x41, 0x26, 0xbe, 0xde, 0xa5, 0xb5, 0xbd, 0xf2, 0xf3, 0x14, 0xbe,
  0xf1, 0x50, 0x55, 0x3e, 0x91, 0x0b, 0x8a, 0x3e, 0x96, 0xc2, 0xb4, 0xbd,
  0xfa, 0xb5, 0x9e, 0xbd, 0x9f, 0x84, 0x12, 0xbd, 0x02, 0x9e, 0x80, 0xbd,
  0x6e, 0xb5, 0x3a, 0xbe, 0x92, 0x5b, 0x8e, 0x3d, 0xd0, 0xa7, 0x2c, 0xbc,
  0x5c, 0x10, 0x81, 0xbd, 0xbd, 0x83, 0xf9, 0xbd, 0x14, 0xd8, 0x49, 0xbe,
  0x54, 0x39, 0xe3, 0xbd, 0x66, 0x6b, 0xbc, 0x3d, 0xf4, 0xa5, 0x0d, 0xbe,
  0x5d, 0x55, 0x33, 0x3e, 0x0e, 0x9e, 0x46, 0x3e, 0xef, 0x04, 0x34, 0xbe,
  0x85, 0x87, 0xbf, 0xbd, 0xb8, 0xa1, 0x7f, 0x3e, 0xb0, 0xe8, 0x47, 0x3e,
  0x11, 0xfc, 0x09, 0x3d, 0x41, 0x50, 0x3a, 0x3e, 0x54, 0x52, 0xdc, 0x3d,
  0xf0, 0x85, 0xb1, 0xbd, 0xe5, 0x41, 0x64, 0x3e, 0x92, 0xb2, 0x15, 0xbe,
  0xd7, 0x96, 0x72, 0xbe, 0x60, 0x11, 0x45, 0xbc, 0xe0, 0xbd, 0x8a, 0x3b,
  0xf4, 0xc1, 0x09, 0xbe, 0x88, 0x9d, 0x19, 0xbe, 0x9d, 0x2c, 0x71, 0x3e,
  0xdc, 0x9e, 0x3b, 0xbe, 0xc0, 0x3c, 0xdd, 0xbc, 0x5e, 0xe6, 0x30, 0x3e,
  0xc0, 0x82, 0xdb, 0x3d, 0x58, 0x3f, 0x2d, 0x3e, 0x07, 0xca, 0x4b, 0xbd,
  0xb4, 0x4d, 0x85, 0x3e, 0x70, 0xf2, 0x50, 0xbd, 0x09, 0x45, 0x3e, 0x3e,
  0xf6, 0x37, 0x30, 0x3e, 0x03, 0x8e, 0x2a, 0xbe, 0xec, 0xcc, 0x1b, 0x3c,
  0x21, 0x5a, 0x16, 0xbe, 0xea, 0xbf, 0x6a, 0x3d, 0x86, 0x29, 0xce, 0x3d,
  0xe0, 0xf5, 0xda, 0x39, 0x2b, 0xc0, 0x5d, 0xbd, 0x34, 0x0e, 0x01, 0x3d,
  0x7c, 0xe9, 0xe7, 0xbd, 0x06, 0x32, 0xa5, 0xbd, 0x58, 0x45, 0x88, 0xbd,
  0x07, 0x05, 0x60, 0xbe, 0x04, 0x08, 0xbe, 0xbd, 0x30, 0xf5, 0xc3, 0xbc,
  0x96, 0x1a, 0xe5, 0x3d, 0x7c, 0x8a, 0x4c, 0xbd, 0x58, 0x4f, 0xbf, 0xbc,
  0xea, 0x83, 0xd1, 0xbd, 0x4c, 0xf8, 0xde, 0xbd, 0x52, 0x4f, 0xc5, 0xbd,
  0x88, 0xb7, 0x0b, 0xbe, 0x51, 0x39, 0x57, 0x3e, 0x79, 0x3a, 0x65, 0xbe,
  0x64, 0x15, 0xed, 0x3d, 0x44, 0x64, 0x40, 0x3e, 0x0b, 0xc7, 0xc2, 0x3d,
  0x59, 0x6e, 0x41, 0x3e, 0xcd, 0x22, 0x3e, 0x3e, 0x9d, 0x6f, 0x1b, 0xbd,
  0x01, 0x8e, 0x17, 0x3e, 0xf6, 0xfe, 0xf8, 0x3a, 0x8b, 0x92, 0x63, 0xbe,
  0x2a, 0x07, 0x01, 0x3e, 0xfc, 0x6c, 0x72, 0xbe, 0x16, 0x9d, 0x21, 0x3e,
  0xeb, 0x0b, 0x45, 0xbc, 0xc8, 0x14, 0x1b, 0x3e, 0x84, 0x79, 0xd1, 0x3d,
  0x5f, 0x9b, 0x69, 0xbd, 0x49, 0xcf, 0xeb, 0xbc, 0x26, 0x0a, 0xb0, 0x3b,
  0x34, 0x0b, 0xe7, 0x3d, 0x35, 0x03, 0x66, 0xbe, 0x0a, 0x47, 0x31, 0xbe,
  0xd8, 0x6a, 0x51, 0xbe, 0xa8, 0x46, 0xf6, 0x3c, 0xc2, 0x04, 0xd5, 0x3d,
  0x8f, 0x6f, 0x71, 0xbe, 0x7a, 0xfc, 0x10, 0x3e, 0x7c, 0x01, 0x2a, 0xbe,
  0x04, 0xad, 0x9a, 0x3d, 0x06, 0x4e, 0xd0, 0x3d, 0x4d, 0x1e, 0x5c, 0x3e,
  0x67, 0x34, 0x85, 0x3e, 0xc4, 0x86, 0xec, 0xbd, 0xc5, 0x31, 0x36, 0x3e,
  0x6b, 0x4e, 0x56, 0x3c, 0x32, 0x6f, 0x3f, 0xbe, 0x5c, 0x5c, 0x61, 0x3d,
  0xa8, 0xaa, 0x61, 0xbd, 0x9b, 0xac, 0x50, 0x3e, 0x02, 0xed, 0xe0, 0xbd,
  0x33, 0xfa, 0x8d, 0x3e, 0xea, 0xf0, 0x33, 0xbc, 0x4d, 0x7d, 0xc5, 0x3d,
  0x23, 0x9c, 0x22, 0x3c, 0xfb, 0x89, 0x91, 0xbe, 0x26, 0x4d, 0x2b, 0xbe,
  0x1c, 0x3f, 0x44, 0xbd, 0x5c, 0x69, 0x05, 0x3d, 0x2b, 0x02, 0x23, 0xbe,
  0xc1, 0xbf, 0x65, 0x3e, 0xa7, 0xce, 0x0a, 0x3e, 0x9e, 0x62, 0xfc, 0x3d,
  0x80, 0x08, 0xe3, 0xbd, 0xa7, 0x62, 0xfc, 0xbd, 0x3c, 0xe4, 0xcd, 0xbd,
  0xe6, 0xfb, 0x98, 0xbd, 0x48, 0x60, 0x99, 0xbd, 0x78, 0x81, 0xf3, 0xbd,
  0x05, 0x3d, 0x64, 0x3e, 0x96, 0x92, 0x5d, 0xbd, 0x33, 0x30, 0x23, 0xbe,
  0x7e, 0xca, 0xcf, 0x3d, 0x00, 0x62, 0x1a, 0xbb, 0x18, 0x77, 0x55, 0xbe,
  0x31, 0xc9, 0x37, 0x3e, 0xd0, 0x98, 0x64, 0x3c, 0x88, 0x7c, 0x41, 0xbe,
  0x06, 0x87, 0x90, 0x3d, 0x84, 0xea, 0x05, 0x3d, 0x84, 0x7d, 0x72, 0xbe,
  0x58, 0x5b, 0xea, 0xbc, 0x3b, 0x37, 0x13, 0x3e, 0x8b, 0x9d, 0x04, 0xbe,
  0x28, 0xd0, 0x90, 0x3c, 0x4e, 0x81, 0xb9, 0xbd, 0x45, 0x46, 0x85, 0xbc,
  0x29, 0xd0, 0x39, 0x3d, 0x93, 0x6a, 0xfd, 0x3c, 0x8a, 0x8d, 0x23, 0x3e,
  0x26, 0x3e, 0x20, 0x3e, 0xec, 0xa5, 0x77, 0xbd, 0x84, 0xc8, 0x72, 0xbe,
  0x1a, 0x26, 0xee, 0xbd, 0x88, 0x81, 0x36, 0xbe, 0xe5, 0x5f, 0x25, 0xbe,
  0x56, 0xc8, 0x06, 0x3d, 0xa7, 0xa6, 0x24, 0x3e, 0x55, 0x6b, 0x2f, 0x3e,
  0x7d, 0x4a, 0xbb, 0xbd, 0x26, 0xa0, 0x94, 0xbc, 0x00, 0xbd, 0x39, 0x3e,
  0xc3, 0xcc, 0xe1, 0x3d, 0x4f, 0xd5, 0x7f, 0xbd, 0xff, 0x5c, 0xa0, 0xbc,
  0x28, 0x1a, 0x13, 0x3e, 0xca, 0xd8, 0xe9, 0xbd, 0x38, 0x82, 0x7d, 0xbd,
  0x7a, 0x52, 0x87, 0xbd, 0x3c, 0x6b, 0x63, 0xbd, 0x7d, 0x70, 0xf2, 0xbd,
  0x70, 0xd1, 0x42, 0xbe, 0x08, 0xa6, 0x2e, 0xbd, 0xf2, 0xe7, 0xeb, 0x3d,
  0x9a, 0xb8, 0x4e, 0xbe, 0x4a, 0xde, 0x8f, 0x3d, 0xbe, 0x62, 0x4f, 0x3e,
  0x38, 0x66, 0xe2, 0x3d, 0xb4, 0xbd, 0xfe, 0x3d, 0x1b, 0x54, 0x26, 0xbe,
  0x8a, 0x3b, 0x61, 0xbe, 0x11, 0x44, 0x13, 0xbe, 0xc4, 0x38, 0x60, 0xbe,
  0x21, 0x20, 0x56, 0xbe, 0xda, 0xf9, 0x92, 0x3d, 0x74, 0x2f, 0x0a, 0xbe,
  0x09, 0x19, 0x2f, 0x3e, 0x3b, 0x2b, 0x39, 0xbd, 0x18, 0x17, 0xa0, 0xbd,
  0x54, 0x0c, 0xd3, 0xbb, 0x4d, 0xff, 0x3a, 0x3e, 0x7f, 0x8f, 0x17, 0x3e,
  0x42, 0x32, 0x63, 0xbe, 0xc8, 0xb6, 0xc2, 0x3c, 0xdb, 0xdb, 0x4d, 0xbe,
  0x80, 0x32, 0xb1, 0xbc, 0x1b, 0x09, 0xf8, 0x3d, 0xf0, 0xd6, 0x20, 0xbd,
  0x22, 0x00, 0x4c, 0x3c, 0xfb, 0x40, 0x73, 0x3e, 0x11, 0x21, 0x81, 0x3e,
  0xb4, 0xd4, 0x63, 0x3d, 0xcc, 0x6e, 0x62, 0xbe, 0xb0, 0xb8, 0x68, 0x3c,
  0xb2, 0x31, 0x07, 0xbe, 0x78, 0xfe, 0x9f, 0x3c, 0xd4, 0xa7, 0x86, 0xbd,
  0xe0, 0xe9, 0xc6, 0xbc, 0x5f, 0x16, 0x51, 0xbe, 0xba, 0x99, 0x69, 0xbe,
  0x98, 0x1b, 0xe9, 0x3c, 0xe6, 0xf5, 0x9b, 0xbd, 0xc4, 0xfc, 0xf8, 0xbd,
  0x7d, 0x5a, 0x48, 0xbe, 0xdb, 0xcd, 0x30, 0x3e, 0xa0, 0xf2, 0x2d, 0x3c,
  0x5e, 0xed, 0xdd, 0xbd, 0x4a, 0x75, 0x52, 0xbe, 0xcb, 0x85, 0x0f, 0x3e,
  0xa0, 0xd0, 0xe7, 0xbd, 0x18, 0xc4, 0x9d, 0xbd, 0x60, 0x4a, 0xdf, 0xbd,
  0x92, 0x32, 0xfa, 0xbd, 0xfe, 0xd6, 0xdd, 0x3d, 0x50, 0x1d, 0x78, 0xbd,
  0xd4, 0xf7, 0x49, 0xbe, 0x04, 0x5c, 0xa2, 0xbd, 0x18, 0x5e, 0x1e, 0xbe,
  0xc0, 0x52, 0xff, 0xbb, 0x1a, 0xd7, 0xcc, 0xbd, 0xf2, 0xd1, 0xfa, 0x3d,
  0x72, 0x0f, 0xdf, 0x3d, 0x20, 0x3b, 0x25, 0xbe, 0x75, 0xdb, 0x1d, 0x3e,
  0x00, 0xa2, 0x54, 0x3a, 0x90, 0x92, 0x26, 0xbe, 0x94, 0xdf, 0xe6, 0xbd,
  0xe7, 0xe8, 0x2b, 0x3e, 0x72, 0x8b, 0x02, 0xbe, 0xb4, 0xe9, 0x64, 0xbd,
  0xf2, 0xc9, 0x2b, 0xbe, 0xa2, 0xa3, 0x5b, 0xbe, 0x64, 0x91, 0x5b, 0xbe,
  0xed, 0x6b, 0xf6, 0xbd, 0x36, 0x9b, 0xe6, 0xbd, 0x7d, 0xdf, 0x36, 0x3e,
  0xcc, 0xd4, 0xa4, 0xbd, 0x89, 0x6d, 0x70, 0x3e, 0xf9, 0xd6, 0x35, 0xbe,
  0x23, 0xa5, 0x63, 0xbe, 0x3c, 0x4c, 0x89, 0xbd, 0x55, 0xbe, 0xdd, 0x3d,
  0x5c, 0x08, 0x27, 0xbe, 0x68, 0x26, 0x4c, 0x3e, 0x22, 0x85, 0x28, 0xbe,
  0x05, 0xaa, 0xc0, 0xbc, 0xaf, 0xc7, 0xea, 0xbd, 0x62, 0xb3, 0x64, 0x3e,
  0x32, 0x70, 0x24, 0xbd, 0xa8, 0x94, 0x01, 0xbe, 0x4f, 0x88, 0x51, 0x3e,
  0x2e, 0x8c, 0x7f, 0x3e, 0xe5, 0xd0, 0x07, 0x3d, 0x1e, 0x8c, 0xef, 0xbd,
  0x07, 0x26, 0x08, 0x3d, 0xc6, 0x8e, 0xc4, 0xbd, 0xf8, 0xfe, 0x60, 0x3d,
  0x35, 0x0e, 0xe5, 0x3d, 0xd2, 0x88, 0xa4, 0xbd, 0x53, 0x00, 0x49, 0x3e,
  0x17, 0xc9, 0x5b, 0x3e, 0xa6, 0xcf, 0xb4, 0xbd, 0xf0, 0x37, 0x05, 0xbc,
  0x88, 0x64, 0x4f, 0xbe, 0x3e, 0xe5, 0xdb, 0x3d, 0xe5, 0x9f, 0x6e, 0xbe,
  0xec, 0xf2, 0x58, 0xbd, 0xe4, 0xaa, 0x8f, 0xbd, 0xc0, 0x63, 0xd7, 0xbb,
  0x80, 0xbb, 0x51, 0xbb, 0x66, 0xb7, 0x90, 0x3d, 0x97, 0x7b, 0x45, 0x3e,
  0x2e, 0xf0, 0xdb, 0x3c, 0x5f, 0xb1, 0x0f, 0xbc, 0xda, 0xcc, 0x90, 0xbd,
  0xb8, 0x5f, 0x53, 0x3d, 0xb4, 0xf9, 0x3d, 0xbe, 0x5f, 0x91, 0x61, 0x3d,
  0x7f, 0xb7, 0x19, 0xbd, 0x29, 0x7d, 0x57, 0x3e, 0x45, 0x3c, 0xfd, 0xbd,
  0x91, 0x9f, 0x55, 0xbe, 0x97, 0x3a, 0x8f, 0x3e, 0x34, 0xda, 0xfb, 0x3d,
  0xe2, 0xac, 0x3f, 0x3e, 0xdb, 0xac, 0xe0, 0x3d, 0x60, 0x66, 0x68, 0x3e,
  0x58, 0x90, 0x37, 0x3e, 0xac, 0xc3, 0xed, 0x3d, 0x2f, 0x16, 0xcb, 0xbc,
  0xb7, 0x41, 0x4a, 0xbe, 0x73, 0x5c, 0x26, 0xbe, 0xee, 0xee, 0x87, 0xbd,
  0x06, 0x74, 0x01, 0x3e, 0x96, 0x6c, 0xa0, 0x3d, 0xc0, 0x47, 0x26, 0x3e,
  0x2a, 0x60, 0x09, 0xbe, 0xce, 0xe5, 0x28, 0x3e, 0xc4, 0x86, 0x03, 0x3e,
  0xfc, 0x8f, 0x69, 0x3e, 0x62, 0x39, 0x08, 0x3e, 0xef, 0x60, 0x44, 0xbd,
  0xf3, 0x0d, 0x8c, 0xbd, 0xd2, 0xb7, 0x81, 0xbe, 0x97, 0x6f, 0x03, 0xbd,
  0x95, 0x11, 0xb8, 0x3e, 0x91, 0x48, 0xe6, 0x3d, 0x4c, 0x41, 0xa5, 0x3c,
  0x8b, 0x79, 0x2d, 0x3d, 0x15, 0xd4, 0x44, 0x3d, 0x27, 0xa4, 0x31, 0xbe,
  0xb1, 0x37, 0x48, 0xbe, 0x44, 0xe3, 0x48, 0x3d, 0x9c, 0x7f, 0xe5, 0xbd,
  0x70, 0xad, 0x12, 0xbe, 0xe5, 0x78, 0x59, 0x3e, 0x04, 0x41, 0x37, 0x3e,
  0x93, 0x76, 0x20, 0xbe, 0x24, 0xb2, 0x79, 0x3e, 0x2f, 0xde, 0x92, 0x3d,
  0xe4, 0x3a, 0x64, 0x3e, 0xa8, 0xf4, 0x48, 0x3e, 0x7a, 0xaa, 0xe5, 0xbd,
  0x85, 0x47, 0x01, 0x3e, 0x5d, 0x97, 0x92, 0xbd, 0x7c, 0x10, 0x54, 0x3e,
  0xee, 0xff, 0xff, 0xff, 0x04, 0x00, 0x00, 0x00, 0x04, 0x00, 0x00, 0x00,
  0x30, 0x7d, 0x9e, 0x3e, 0x00, 0x00, 0x06, 0x00, 0x08, 0x00, 0x04, 0x00,
  0x06, 0x00, 0x00, 0x00, 0x04, 0x00, 0x00, 0x00, 0x90, 0x01, 0x00, 0x00,
  0xb7, 0x44, 0xb2, 0xbe, 0x00, 0x00, 0x00, 0x00, 0x00, 0x00, 0x00, 0x00,
  0x00, 0x00, 0x00, 0x00, 0x00, 0x00, 0x00, 0x00, 0xe0, 0xa8, 0x9d, 0xbe,
  0x00, 0x00, 0x00, 0x00, 0x00, 0x00, 0x00, 0x00, 0x00, 0x00, 0x00, 0x00,
  0xf3, 0xd8, 0xfc, 0xbb, 0x00, 0x00, 0x00, 0x00, 0x00, 0x00, 0x00, 0x00,
  0x00, 0x00, 0x00, 0x00, 0x00, 0x00, 0x00, 0x00, 0xf8, 0x78, 0xa3, 0x3e,
  0xdd, 0x89, 0x8f, 0x3e, 0x1d, 0x62, 0xa8, 0x3e, 0xf4, 0xc5, 0x09, 0xbe,
  0x00, 0x00, 0x00, 0x00, 0xf5, 0x12, 0xc6, 0xbc, 0x00, 0x00, 0x00, 0x00,
  0x2e, 0x57, 0x9a, 0xbe, 0x4e, 0x74, 0x9e, 0x3e, 0x8c, 0xbd, 0xa3, 0x3e,
  0x00, 0x00, 0x00, 0x00, 0x56, 0x6b, 0xa7, 0xbe, 0x08, 0xda, 0x92, 0xbc,
  0x8b, 0xac, 0xc3, 0x3e, 0xfd, 0xce, 0x6b, 0xbe, 0x00, 0x00, 0x00, 0x00,
  0x88, 0x7c, 0x9b, 0xbe, 0x66, 0x87, 0xa3, 0x3e, 0x49, 0x9c, 0x9e, 0xbe,
  0x00, 0x00, 0x00, 0x00, 0xcd, 0xdb, 0x9e, 0x3e, 0x00, 0x00, 0x00, 0x00,
  0x00, 0x00, 0x00, 0x00, 0x70, 0x70, 0xa8, 0x3e, 0xa2, 0xb1, 0x9e, 0x3e,
  0x00, 0x00, 0x00, 0x00, 0x00, 0x00, 0x00, 0x00, 0x90, 0x2c, 0xa1, 0x3e,
  0x4f, 0xf5, 0xc2, 0x3e, 0xd4, 0x23, 0x42, 0xbc, 0x00, 0x00, 0x00, 0x00,
  0x00, 0x00, 0x00, 0x00, 0x00, 0x00, 0x00, 0x00, 0xaa, 0x32, 0xb2, 0x3e,
  0xcc, 0x09, 0xc8, 0xbe, 0x03, 0x2d, 0x8c, 0xbe, 0x51, 0x18, 0xaf, 0x3e,
  0x00, 0x00, 0x00, 0x00, 0x80, 0xc0, 0x9d, 0xbc, 0x97, 0xab, 0xa0, 0x3e,
  0x00, 0x00, 0x00, 0x00, 0x38, 0x52, 0xca, 0xbe, 0x00, 0x00, 0x00, 0x00,
  0x00, 0x00, 0x00, 0x00, 0x5b, 0xd4, 0x3d, 0xbb, 0x00, 0x00, 0x00, 0x00,
  0x00, 0x00, 0x00, 0x00, 0x00, 0x00, 0x00, 0x00, 0x25, 0x10, 0xa5, 0x3e,
  0x00, 0x00, 0x00, 0x00, 0x42, 0x03, 0xa2, 0x3e, 0x68, 0x4d, 0xb7, 0x3e,
  0x00, 0x00, 0x00, 0x00, 0x00, 0x00, 0x00, 0x00, 0x0e, 0x4b, 0xab, 0xbe,
  0x00, 0x00, 0x00, 0x00, 0x10, 0x88, 0xa1, 0x3e, 0x00, 0x00, 0x00, 0x00,
  0x55, 0x63, 0xa1, 0x3e, 0x00, 0x00, 0x00, 0x00, 0x00, 0x00, 0x00, 0x00,
  0x00, 0x00, 0x00, 0x00, 0x00, 0x00, 0x00, 0x00, 0x00, 0x00, 0x00, 0x00,
  0x00, 0x00, 0x00, 0x00, 0x00, 0x00, 0x00, 0x00, 0x00, 0x00, 0x00, 0x00,
  0x00, 0x00, 0x00, 0x00, 0x00, 0x00, 0x00, 0x00, 0xd1, 0x07, 0x0c, 0xbc,
  0x88, 0x7d, 0x7f, 0x3e, 0x09, 0xff, 0xa1, 0xbe, 0xad, 0xfb, 0xa0, 0x3e,
  0x00, 0x00, 0x00, 0x00, 0x00, 0x00, 0x00, 0x00, 0x4b, 0xd0, 0x9d, 0x3e,
  0x56, 0x8a, 0x96, 0xbc, 0xd5, 0x40, 0xa4, 0x3e, 0x50, 0x46, 0x99, 0x3e,
  0x0f, 0xce, 0xb7, 0x3e, 0xc5, 0x8d, 0x8f, 0xbe, 0x93, 0x4b, 0x64, 0xbc,
  0x27, 0x9e, 0xce, 0xbe, 0x00, 0x00, 0x00, 0x00, 0x6f, 0x31, 0xa8, 0x3e,
  0x08, 0x89, 0xa0, 0x3e, 0x98, 0xfc, 0xff, 0xff, 0x9c, 0xfc, 0xff, 0xff,
  0x0f, 0x00, 0x00, 0x00, 0x4d, 0x4c, 0x49, 0x52, 0x20, 0x43, 0x6f, 0x6e,
  0x76, 0x65, 0x72, 0x74, 0x65, 0x64, 0x2e, 0x00, 0x01, 0x00, 0x00, 0x00,
  0x14, 0x00, 0x00, 0x00, 0x00, 0x00, 0x0e, 0x00, 0x18, 0x00, 0x14, 0x00,
  0x10, 0x00, 0x0c, 0x00, 0x08, 0x00, 0x04, 0x00, 0x0e, 0x00, 0x00, 0x00,
  0x14, 0x00, 0x00, 0x00, 0x1c, 0x00, 0x00, 0x00, 0xa0, 0x00, 0x00, 0x00,
  0xa4, 0x00, 0x00, 0x00, 0xa8, 0x00, 0x00, 0x00, 0x04, 0x00, 0x00, 0x00,
  0x6d, 0x61, 0x69, 0x6e, 0x00, 0x00, 0x00, 0x00, 0x02, 0x00, 0x00, 0x00,
  0x48, 0x00, 0x00, 0x00, 0x04, 0x00, 0x00, 0x00, 0xce, 0xff, 0xff, 0xff,
  0x10, 0x00, 0x00, 0x00, 0x00, 0x00, 0x00, 0x08, 0x0c, 0x00, 0x00, 0x00,
  0x10, 0x00, 0x00, 0x00, 0x10, 0xfd, 0xff, 0xff, 0x01, 0x00, 0x00, 0x00,
  0x06, 0x00, 0x00, 0x00, 0x03, 0x00, 0x00, 0x00, 0x05, 0x00, 0x00, 0x00,
  0x04, 0x00, 0x00, 0x00, 0x02, 0x00, 0x00, 0x00, 0x00, 0x00, 0x0e, 0x00,
  0x16, 0x00, 0x00, 0x00, 0x10, 0x00, 0x0c, 0x00, 0x0b, 0x00, 0x04, 0x00,
  0x0e, 0x00, 0x00, 0x00, 0x18, 0x00, 0x00, 0x00, 0x00, 0x00, 0x00, 0x08,
  0x18, 0x00, 0x00, 0x00, 0x1c, 0x00, 0x00, 0x00, 0x00, 0x00, 0x06, 0x00,
  0x08, 0x00, 0x07, 0x00, 0x06, 0x00, 0x00, 0x00, 0x00, 0x00, 0x00, 0x01,
  0x01, 0x00, 0x00, 0x00, 0x05, 0x00, 0x00, 0x00, 0x03, 0x00, 0x00, 0x00,
  0x00, 0x00, 0x00, 0x00, 0x03, 0x00, 0x00, 0x00, 0x01, 0x00, 0x00, 0x00,
  0x01, 0x00, 0x00, 0x00, 0x06, 0x00, 0x00, 0x00, 0x01, 0x00, 0x00, 0x00,
  0x00, 0x00, 0x00, 0x00, 0x07, 0x00, 0x00, 0x00, 0x50, 0x02, 0x00, 0x00,
  0xe8, 0x01, 0x00, 0x00, 0x80, 0x01, 0x00, 0x00, 0x38, 0x01, 0x00, 0x00,
  0xec, 0x00, 0x00, 0x00, 0x5c, 0x00, 0x00, 0x00, 0x04, 0x00, 0x00, 0x00,
  0xe0, 0xfd, 0xff, 0xff, 0x14, 0x00, 0x00, 0x00, 0x1c, 0x00, 0x00, 0x00,
  0x1c, 0x00, 0x00, 0x00, 0x07, 0x00, 0x00, 0x00, 0x34, 0x00, 0x00, 0x00,
  0x02, 0x00, 0x00, 0x00, 0xff, 0xff, 0xff, 0xff, 0x01, 0x00, 0x00, 0x00,
  0xcc, 0xfd, 0xff, 0xff, 0x19, 0x00, 0x00, 0x00, 0x53, 0x74, 0x61, 0x74,
  0x65, 0x66, 0x75, 0x6c, 0x50, 0x61, 0x72, 0x74, 0x69, 0x74, 0x69, 0x6f,
  0x6e, 0x65, 0x64, 0x43, 0x61, 0x6c, 0x6c, 0x3a, 0x30, 0x00, 0x00, 0x00,
  0x02, 0x00, 0x00, 0x00, 0x01, 0x00, 0x00, 0x00, 0x01, 0x00, 0x00, 0x00,
  0x34, 0xfe, 0xff, 0xff, 0x14, 0x00, 0x00, 0x00, 0x1c, 0x00, 0x00, 0x00,
  0x1c, 0x00, 0x00, 0x00, 0x06, 0x00, 0x00, 0x00, 0x6c, 0x00, 0x00, 0x00,
  0x02, 0x00, 0x00, 0x00, 0xff, 0xff, 0xff, 0xff, 0x64, 0x00, 0x00, 0x00,
  0x20, 0xfe, 0xff, 0xff, 0x52, 0x00, 0x00, 0x00, 0x73, 0x65, 0x71, 0x75,
  0x65, 0x6e, 0x74, 0x69, 0x61, 0x6c, 0x5f, 0x34, 0x2f, 0x64, 0x65, 0x6e,
  0x73, 0x65, 0x5f, 0x39, 0x2f, 0x4d, 0x61, 0x74, 0x4d, 0x75, 0x6c, 0x3b,
  0x73, 0x65, 0x71, 0x75, 0x65, 0x6e, 0x74, 0x69, 0x61, 0x6c, 0x5f, 0x34,
  0x2f, 0x64, 0x65, 0x6e, 0x73, 0x65, 0x5f, 0x39, 0x2f, 0x52, 0x65, 0x6c,
  0x75, 0x3b, 0x73, 0x65, 0x71, 0x75, 0x65, 0x6e, 0x74, 0x69, 0x61, 0x6c,
  0x5f, 0x34, 0x2f, 0x64, 0x65, 0x6e, 0x73, 0x65, 0x5f, 0x39, 0x2f, 0x42,
  0x69, 0x61, 0x73, 0x41, 0x64, 0x64, 0x00, 0x00, 0x02, 0x00, 0x00, 0x00,
  0x01, 0x00, 0x00, 0x00, 0x64, 0x00, 0x00, 0x00, 0x1e, 0xff, 0xff, 0xff,
  0x10, 0x00, 0x00, 0x00, 0x10, 0x00, 0x00, 0x00, 0x05, 0x00, 0x00, 0x00,
  0x2c, 0x00, 0x00, 0x00, 0x9c, 0xfe, 0xff, 0xff, 0x1c, 0x00, 0x00, 0x00,
  0x73, 0x65, 0x71, 0x75, 0x65, 0x6e, 0x74, 0x69, 0x61, 0x6c, 0x5f, 0x34,
  0x2f, 0x64, 0x65, 0x6e, 0x73, 0x65, 0x5f, 0x31, 0x30, 0x2f, 0x4d, 0x61,
  0x74, 0x4d, 0x75, 0x6c, 0x00, 0x00, 0x00, 0x00, 0x02, 0x00, 0x00, 0x00,
  0x01, 0x00, 0x00, 0x00, 0x64, 0x00, 0x00, 0x00, 0x66, 0xff, 0xff, 0xff,
  0x10, 0x00, 0x00, 0x00, 0x10, 0x00, 0x00, 0x00, 0x04, 0x00, 0x00, 0x00,
  0x28, 0x00, 0x00, 0x00, 0xe4, 0xfe, 0xff, 0xff, 0x1b, 0x00, 0x00, 0x00,
  0x73, 0x65, 0x71, 0x75, 0x65, 0x6e, 0x74, 0x69, 0x61, 0x6c, 0x5f, 0x34,
  0x2f, 0x64, 0x65, 0x6e, 0x73, 0x65, 0x5f, 0x39, 0x2f, 0x4d, 0x61, 0x74,
  0x4d, 0x75, 0x6c, 0x00, 0x02, 0x00, 0x00, 0x00, 0x64, 0x00, 0x00, 0x00,
  0x05, 0x00, 0x00, 0x00, 0xaa, 0xff, 0xff, 0xff, 0x10, 0x00, 0x00, 0x00,
  0x10, 0x00, 0x00, 0x00, 0x03, 0x00, 0x00, 0x00, 0x3c, 0x00, 0x00, 0x00,
  0x28, 0xff, 0xff, 0xff, 0x2c, 0x00, 0x00, 0x00, 0x73, 0x65, 0x71, 0x75,
  0x65, 0x6e, 0x74, 0x69, 0x61, 0x6c, 0x5f, 0x34, 0x2f, 0x64, 0x65, 0x6e,
  0x73, 0x65, 0x5f, 0x31, 0x30, 0x2f, 0x42, 0x69, 0x61, 0x73, 0x41, 0x64,
  0x64, 0x2f, 0x52, 0x65, 0x61, 0x64, 0x56, 0x61, 0x72, 0x69, 0x61, 0x62,
  0x6c, 0x65, 0x4f, 0x70, 0x00, 0x00, 0x00, 0x00, 0x01, 0x00, 0x00, 0x00,
  0x01, 0x00, 0x00, 0x00, 0x00, 0x00, 0x0e, 0x00, 0x14, 0x00, 0x10, 0x00,
  0x00, 0x00, 0x0c, 0x00, 0x08, 0x00, 0x04, 0x00, 0x0e, 0x00, 0x00, 0x00,
  0x10, 0x00, 0x00, 0x00, 0x10, 0x00, 0x00, 0x00, 0x02, 0x00, 0x00, 0x00,
  0x38, 0x00, 0x00, 0x00, 0x8c, 0xff, 0xff, 0xff, 0x2b, 0x00, 0x00, 0x00,
  0x73, 0x65, 0x71, 0x75, 0x65, 0x6e, 0x74, 0x69, 0x61, 0x6c, 0x5f, 0x34,
  0x2f, 0x64, 0x65, 0x6e, 0x73, 0x65, 0x5f, 0x39, 0x2f, 0x42, 0x69, 0x61,
  0x73, 0x41, 0x64, 0x64, 0x2f, 0x52, 0x65, 0x61, 0x64, 0x56, 0x61, 0x72,
  0x69, 0x61, 0x62, 0x6c, 0x65, 0x4f, 0x70, 0x00, 0x01, 0x00, 0x00, 0x00,
  0x64, 0x00, 0x00, 0x00, 0x14, 0x00, 0x18, 0x00, 0x14, 0x00, 0x00, 0x00,
  0x10, 0x00, 0x0c, 0x00, 0x08, 0x00, 0x00, 0x00, 0x00, 0x00, 0x04, 0x00,
  0x14, 0x00, 0x00, 0x00, 0x14, 0x00, 0x00, 0x00, 0x20, 0x00, 0x00, 0x00,
  0x20, 0x00, 0x00, 0x00, 0x01, 0x00, 0x00, 0x00, 0x3c, 0x00, 0x00, 0x00,
  0x02, 0x00, 0x00, 0x00, 0xff, 0xff, 0xff, 0xff, 0x05, 0x00, 0x00, 0x00,
  0x04, 0x00, 0x04, 0x00, 0x04, 0x00, 0x00, 0x00, 0x1f, 0x00, 0x00, 0x00,
  0x73, 0x65, 0x72, 0x76, 0x69, 0x6e, 0x67, 0x5f, 0x64, 0x65, 0x66, 0x61,
  0x75, 0x6c, 0x74, 0x5f, 0x64, 0x65, 0x6e, 0x73, 0x65, 0x5f, 0x39, 0x5f,
  0x69, 0x6e, 0x70, 0x75, 0x74, 0x3a, 0x30, 0x00, 0x02, 0x00, 0x00, 0x00,
  0x01, 0x00, 0x00, 0x00, 0x05, 0x00, 0x00, 0x00, 0x01, 0x00, 0x00, 0x00,
  0x10, 0x00, 0x00, 0x00, 0x0c, 0x00, 0x0c, 0x00, 0x0b, 0x00, 0x00, 0x00,
  0x00, 0x00, 0x04, 0x00, 0x0c, 0x00, 0x00, 0x00, 0x09, 0x00, 0x00, 0x00,
  0x00, 0x00, 0x00, 0x09
};
unsigned int dense_modelr4_tflite_len = 4288;
