unsigned char lstm_model2_4_0r_tflite[] = {
  0x1c, 0x00, 0x00, 0x00, 0x54, 0x46, 0x4c, 0x33, 0x14, 0x00, 0x20, 0x00,
  0x1c, 0x00, 0x18, 0x00, 0x14, 0x00, 0x10, 0x00, 0x0c, 0x00, 0x00, 0x00,
  0x08, 0x00, 0x04, 0x00, 0x14, 0x00, 0x00, 0x00, 0x1c, 0x00, 0x00, 0x00,
  0x94, 0x00, 0x00, 0x00, 0xec, 0x00, 0x00, 0x00, 0xd8, 0x0c, 0x00, 0x00,
  0xe8, 0x0c, 0x00, 0x00, 0x60, 0x10, 0x00, 0x00, 0x03, 0x00, 0x00, 0x00,
  0x01, 0x00, 0x00, 0x00, 0x10, 0x00, 0x00, 0x00, 0x00, 0x00, 0x0a, 0x00,
  0x10, 0x00, 0x0c, 0x00, 0x08, 0x00, 0x04, 0x00, 0x0a, 0x00, 0x00, 0x00,
  0x0c, 0x00, 0x00, 0x00, 0x1c, 0x00, 0x00, 0x00, 0x38, 0x00, 0x00, 0x00,
  0x0f, 0x00, 0x00, 0x00, 0x73, 0x65, 0x72, 0x76, 0x69, 0x6e, 0x67, 0x5f,
  0x64, 0x65, 0x66, 0x61, 0x75, 0x6c, 0x74, 0x00, 0x01, 0x00, 0x00, 0x00,
  0x04, 0x00, 0x00, 0x00, 0x94, 0xff, 0xff, 0xff, 0x06, 0x00, 0x00, 0x00,
  0x04, 0x00, 0x00, 0x00, 0x07, 0x00, 0x00, 0x00, 0x64, 0x65, 0x6e, 0x73,
  0x65, 0x5f, 0x39, 0x00, 0x01, 0x00, 0x00, 0x00, 0x04, 0x00, 0x00, 0x00,
  0xb6, 0xf3, 0xff, 0xff, 0x04, 0x00, 0x00, 0x00, 0x0d, 0x00, 0x00, 0x00,
  0x64, 0x65, 0x6e, 0x73, 0x65, 0x5f, 0x38, 0x5f, 0x69, 0x6e, 0x70, 0x75,
  0x74, 0x00, 0x00, 0x00, 0x02, 0x00, 0x00, 0x00, 0x34, 0x00, 0x00, 0x00,
  0x04, 0x00, 0x00, 0x00, 0xdc, 0xff, 0xff, 0xff, 0x09, 0x00, 0x00, 0x00,
  0x04, 0x00, 0x00, 0x00, 0x13, 0x00, 0x00, 0x00, 0x43, 0x4f, 0x4e, 0x56,
  0x45, 0x52, 0x53, 0x49, 0x4f, 0x4e, 0x5f, 0x4d, 0x45, 0x54, 0x41, 0x44,
  0x41, 0x54, 0x41, 0x00, 0x08, 0x00, 0x0c, 0x00, 0x08, 0x00, 0x04, 0x00,
  0x08, 0x00, 0x00, 0x00, 0x08, 0x00, 0x00, 0x00, 0x04, 0x00, 0x00, 0x00,
  0x13, 0x00, 0x00, 0x00, 0x6d, 0x69, 0x6e, 0x5f, 0x72, 0x75, 0x6e, 0x74,
  0x69, 0x6d, 0x65, 0x5f, 0x76, 0x65, 0x72, 0x73, 0x69, 0x6f, 0x6e, 0x00,
  0x0a, 0x00, 0x00, 0x00, 0xe8, 0x0b, 0x00, 0x00, 0xe0, 0x0b, 0x00, 0x00,
  0xcc, 0x0b, 0x00, 0x00, 0x24, 0x0a, 0x00, 0x00, 0x44, 0x02, 0x00, 0x00,
  0xa4, 0x00, 0x00, 0x00, 0x9c, 0x00, 0x00, 0x00, 0x94, 0x00, 0x00, 0x00,
  0x74, 0x00, 0x00, 0x00, 0x04, 0x00, 0x00, 0x00, 0x5a, 0xf4, 0xff, 0xff,
  0x04, 0x00, 0x00, 0x00, 0x60, 0x00, 0x00, 0x00, 0x0c, 0x00, 0x00, 0x00,
  0x08, 0x00, 0x0e, 0x00, 0x08, 0x00, 0x04, 0x00, 0x08, 0x00, 0x00, 0x00,
  0x14, 0x00, 0x00, 0x00, 0x30, 0x00, 0x00, 0x00, 0x00, 0x00, 0x0a, 0x00,
  0x0c, 0x00, 0x08, 0x00, 0x00, 0x00, 0x07, 0x00, 0x0a, 0x00, 0x00, 0x00,
  0x00, 0x00, 0x00, 0x01, 0x04, 0x00, 0x00, 0x00, 0x01, 0x00, 0x00, 0x00,
  0xea, 0x03, 0x00, 0x00, 0x00, 0x00, 0x0a, 0x00, 0x10, 0x00, 0x0c, 0x00,
  0x08, 0x00, 0x04, 0x00, 0x0a, 0x00, 0x00, 0x00, 0x02, 0x00, 0x00, 0x00,
  0x02, 0x00, 0x00, 0x00, 0x04, 0x00, 0x00, 0x00, 0x05, 0x00, 0x00, 0x00,
  0x32, 0x2e, 0x39, 0x2e, 0x32, 0x00, 0x00, 0x00, 0xc6, 0xf4, 0xff, 0xff,
  0x04, 0x00, 0x00, 0x00, 0x10, 0x00, 0x00, 0x00, 0x31, 0x2e, 0x35, 0x2e,
  0x30, 0x00, 0x00, 0x00, 0x00, 0x00, 0x00, 0x00, 0x00, 0x00, 0x00, 0x00,
  0x6c, 0xf1, 0xff, 0xff, 0x70, 0xf1, 0xff, 0xff, 0xea, 0xf4, 0xff, 0xff,
  0x04, 0x00, 0x00, 0x00, 0x90, 0x01, 0x00, 0x00, 0xa2, 0x7a, 0x19, 0x3e,
  0x71, 0xdd, 0x0f, 0xbe, 0x8a, 0x94, 0x68, 0x3e, 0xb6, 0x3c, 0x40, 0xbe,
  0x5f, 0xc1, 0x4d, 0x3e, 0xde, 0x67, 0xef, 0x3d, 0xe9, 0x13, 0x94, 0x3d,
  0x0a, 0x13, 0x8f, 0x3d, 0x67, 0x0e, 0x19, 0x3d, 0xc9, 0x89, 0xa8, 0x3d,
  0x0d, 0xe4, 0x82, 0x3c, 0x56, 0x28, 0x22, 0xbe, 0x78, 0xa6, 0x80, 0x3e,
  0xff, 0x61, 0xf6, 0x3d, 0xf3, 0x4c, 0x9f, 0xbe, 0x63, 0x00, 0x00, 0xbe,
  0x10, 0x1d, 0x00, 0xbe, 0x18, 0x55, 0x61, 0x3e, 0xd0, 0x8e, 0x1d, 0x3e,
  0x21, 0x74, 0x3e, 0x3d, 0x12, 0x2b, 0x1c, 0xbe, 0xfa, 0xc0, 0x1c, 0xbe,
  0x5c, 0xb4, 0xeb, 0xbb, 0x7a, 0x3a, 0xb5, 0xbd, 0xa5, 0x30, 0x78, 0xbd,
  0x17, 0x76, 0x3a, 0xbd, 0xe1, 0x70, 0x6d, 0xbc, 0x6c, 0xee, 0x29, 0x3e,
  0x01, 0xdb, 0x8e, 0x3c, 0xce, 0x0a, 0x3e, 0x3d, 0x3b, 0x32, 0xd7, 0xbd,
  0x18, 0xb7, 0x21, 0xbe, 0x56, 0x2d, 0xa0, 0x3d, 0x4e, 0x2c, 0x88, 0xbe,
  0xd0, 0xa1, 0x0d, 0xbe, 0x8e, 0x46, 0x2d, 0x3e, 0xfc, 0x2b, 0x8d, 0x3e,
  0x8e, 0x44, 0x90, 0xbe, 0x62, 0xcb, 0xda, 0xbd, 0x36, 0x6a, 0xae, 0xbd,
  0x67, 0x29, 0x66, 0xbe, 0x14, 0xd9, 0xbe, 0x3d, 0xd0, 0xed, 0x2c, 0x3e,
  0x73, 0x9e, 0x75, 0xbd, 0xa7, 0x6d, 0x33, 0x3e, 0x73, 0x9f, 0x52, 0x3d,
  0x9b, 0x6c, 0x5b, 0xbe, 0xec, 0x31, 0x67, 0xbe, 0xc9, 0x62, 0x3d, 0xbe,
  0x75, 0x76, 0x97, 0xbe, 0x10, 0x73, 0xbe, 0x3d, 0x29, 0x25, 0xc9, 0x3e,
  0xc4, 0x5a, 0xa2, 0xbd, 0x9d, 0x01, 0x52, 0x3e, 0xfa, 0x80, 0x33, 0xbe,
  0xfa, 0xf2, 0x76, 0x3e, 0x31, 0xf8, 0x7d, 0x3d, 0xd7, 0x82, 0x1a, 0xbe,
  0xc4, 0x7e, 0x1b, 0x3d, 0xef, 0x43, 0x2c, 0xbe, 0x69, 0x95, 0x56, 0x3e,
  0x00, 0x63, 0x47, 0xbe, 0x0b, 0x54, 0x82, 0x3e, 0xbd, 0xd0, 0xa9, 0x3e,
  0x87, 0x44, 0x5b, 0xbe, 0x55, 0xbb, 0x6d, 0xbd, 0x6b, 0x65, 0x09, 0xbe,
  0x0f, 0xe3, 0x79, 0x3e, 0xff, 0xa7, 0x84, 0xbe, 0xc3, 0xda, 0x05, 0xbe,
  0xf0, 0x58, 0x7f, 0xbd, 0x1c, 0x7d, 0x94, 0x3d, 0x57, 0x0c, 0xa5, 0xbd,
  0x56, 0xd2, 0x81, 0x3e, 0x74, 0x27, 0x4b, 0xbe, 0x2c, 0x1f, 0xa9, 0x3c,
  0x4f, 0x1d, 0x39, 0x3e, 0x74, 0x20, 0x5d, 0x3e, 0xe6, 0x1f, 0x64, 0x3e,
  0x57, 0xbc, 0x8e, 0x3e, 0xc2, 0x84, 0x8b, 0x3e, 0x19, 0xb6, 0x70, 0x3d,
  0x89, 0x73, 0x52, 0x3e, 0x32, 0xa4, 0x4d, 0xbe, 0xa3, 0x91, 0xa5, 0x3d,
  0x8d, 0x51, 0x92, 0xbe, 0x4a, 0x0e, 0x90, 0xbe, 0xa6, 0x77, 0x36, 0x3b,
  0x90, 0xca, 0x06, 0xbe, 0x84, 0x1f, 0x1b, 0x3e, 0x37, 0x09, 0x4c, 0x3e,
  0x8b, 0x2c, 0xd8, 0xbd, 0xea, 0x6c, 0x1f, 0xbd, 0xd7, 0x93, 0xcf, 0xbc,
  0xf4, 0xa4, 0x56, 0x3d, 0x44, 0x94, 0x94, 0xbd, 0xcd, 0xfa, 0x80, 0xbe,
  0x82, 0x1a, 0x28, 0x3e, 0x57, 0x93, 0x8e, 0x3d, 0xa5, 0x55, 0x2f, 0x3e,
  0x86, 0xf6, 0xff, 0xff, 0x04, 0x00, 0x00, 0x00, 0xd0, 0x07, 0x00, 0x00,
  0x7f, 0xc1, 0x0f, 0xba, 0xdb, 0xea, 0x33, 0xbe, 0xf0, 0x1d, 0x83, 0xbc,
  0xeb, 0x91, 0x08, 0xbe, 0xf2, 0x7b, 0x2d, 0x3e, 0xe8, 0x8e, 0x75, 0xbd,
  0xb0, 0xc6, 0xfc, 0x3d, 0xa2, 0x9b, 0xa0, 0xbd, 0x76, 0xf2, 0x31, 0xbb,
  0x1f, 0x87, 0x4c, 0x3d, 0xd6, 0x79, 0xd8, 0x3d, 0x52, 0x5b, 0x1f, 0xbe,
  0x58, 0x4b, 0x54, 0xbe, 0x50, 0xaf, 0x73, 0x3e, 0xc6, 0xb3, 0x05, 0xbd,
  0x23, 0xd3, 0x3d, 0xbd, 0xe8, 0xe2, 0xa3, 0x3b, 0x50, 0xfe, 0x44, 0x3e,
  0x58, 0x40, 0x24, 0x3e, 0x54, 0x59, 0xdc, 0xbd, 0x45, 0xbe, 0x80, 0x3e,
  0x1a, 0x9c, 0x56, 0x3d, 0xae, 0x52, 0x3b, 0xbd, 0x36, 0x5f, 0x2a, 0xbe,
  0xf5, 0x23, 0x1a, 0x3d, 0xd5, 0x43, 0x19, 0x3e, 0x3b, 0xc4, 0x5e, 0xbe,
  0x32, 0xca, 0x1a, 0x3e, 0xe8, 0xde, 0x25, 0xbb, 0x93, 0x4d, 0xa1, 0x3c,
  0x98, 0x70, 0xc1, 0xbd, 0x62, 0xe9, 0xe9, 0xbd, 0xbf, 0x47, 0x10, 0x3e,
  0x20, 0x61, 0x47, 0xbd, 0xc8, 0x57, 0x8b, 0x3e, 0x60, 0x09, 0x40, 0xbe,
  0x74, 0x69, 0x50, 0x3e, 0x5f, 0x52, 0xc3, 0xbc, 0x59, 0x43, 0xfd, 0xbc,
  0xa0, 0x98, 0xef, 0xbd, 0x99, 0x46, 0x94, 0xbd, 0x6b, 0x4a, 0xa7, 0xbd,
  0xc2, 0x32, 0xbe, 0x3d, 0xe2, 0xf9, 0xe0, 0x3d, 0x1e, 0x32, 0x30, 0xbe,
  0x17, 0x0c, 0x25, 0xbe, 0x24, 0xfa, 0x2c, 0x3e, 0x0e, 0xb9, 0xcd, 0x3d,
  0xe3, 0xf3, 0x29, 0x3d, 0x5d, 0x35, 0x46, 0x3e, 0x68, 0x30, 0xd0, 0xbd,
  0x35, 0xac, 0x2c, 0x3d, 0x43, 0x5b, 0x13, 0xbe, 0x88, 0x51, 0x5a, 0xbe,
  0x75, 0xaf, 0xbb, 0xbd, 0xfc, 0xfc, 0xa1, 0xbd, 0xae, 0x66, 0x22, 0xbd,
  0x67, 0x76, 0xac, 0x3d, 0x89, 0xaf, 0x43, 0x3e, 0x10, 0x43, 0x8f, 0xbe,
  0xe8, 0x94, 0x46, 0xbb, 0xaa, 0x1d, 0x10, 0xbd, 0x9b, 0xde, 0x31, 0xbe,
  0xcc, 0x75, 0x48, 0xbe, 0x29, 0x5d, 0x5d, 0x3e, 0x7a, 0xdc, 0x87, 0xbd,
  0xf6, 0xd4, 0x3f, 0xbe, 0xc4, 0x72, 0x61, 0xbe, 0x70, 0x6d, 0x0b, 0x3e,
  0x24, 0x6c, 0x6e, 0x3d, 0x0b, 0x2d, 0xcb, 0xbd, 0x51, 0x88, 0x6e, 0x3c,
  0x5b, 0x8f, 0x85, 0x3d, 0x48, 0x2d, 0xcf, 0x3d, 0x93, 0x92, 0x62, 0xbd,
  0x86, 0xa8, 0x7b, 0xbe, 0x8f, 0x56, 0x52, 0x3e, 0xdd, 0xea, 0x41, 0x3e,
  0xa8, 0x56, 0x80, 0x3b, 0x12, 0x07, 0xb4, 0x3d, 0xa1, 0x22, 0xae, 0x3d,
  0xab, 0x3a, 0x38, 0xbd, 0xc5, 0x43, 0xeb, 0xbd, 0x6d, 0xe5, 0xd9, 0x3d,
  0xac, 0x61, 0x1b, 0xbe, 0x26, 0xbe, 0x41, 0x3e, 0x41, 0x39, 0x64, 0x3d,
  0xf7, 0x80, 0x53, 0x3d, 0xd5, 0x2e, 0xe1, 0xbd, 0xc7, 0x68, 0x06, 0xbe,
  0x52, 0x0f, 0x31, 0xbe, 0x6d, 0x9b, 0x58, 0x3d, 0x62, 0x0d, 0x63, 0xbe,
  0xc1, 0x7d, 0x2d, 0xbd, 0x9b, 0x4a, 0xbf, 0x3d, 0x22, 0x98, 0x33, 0x3e,
  0x3a, 0x1a, 0x6e, 0xbe, 0x54, 0xdc, 0x20, 0x3e, 0x53, 0x38, 0x29, 0x3e,
  0x1b, 0x43, 0x5f, 0x3e, 0x37, 0x8e, 0xed, 0x3c, 0xc1, 0xc3, 0x81, 0x3d,
  0x01, 0xd7, 0x5c, 0xbe, 0xb5, 0x38, 0x1a, 0x3d, 0xad, 0x6b, 0x26, 0x3e,
  0xb5, 0x62, 0x33, 0x3e, 0xe2, 0xf2, 0xe8, 0x3d, 0xae, 0x48, 0x5b, 0xbc,
  0x7c, 0x2a, 0x1c, 0xbe, 0x61, 0xdd, 0x9f, 0x3d, 0x77, 0x7f, 0x16, 0xbe,
  0x30, 0x6f, 0x2c, 0x3e, 0xf7, 0x4c, 0xfc, 0xbd, 0x55, 0xa1, 0xb1, 0xbd,
  0x5d, 0xd8, 0x35, 0x3e, 0x08, 0x06, 0x27, 0x3e, 0x5b, 0xbe, 0xb3, 0xbd,
  0x0d, 0xab, 0x1e, 0x3e, 0xc5, 0xd3, 0x18, 0x3e, 0xf7, 0xc7, 0xb6, 0xbd,
  0xb0, 0xa7, 0x1c, 0x3e, 0xc4, 0x23, 0x1b, 0x3c, 0xc2, 0x82, 0x6d, 0x3c,
  0xb9, 0x72, 0x0a, 0xbe, 0x30, 0x83, 0x9a, 0x3d, 0xb3, 0x98, 0x48, 0x3e,
  0x64, 0xb9, 0x30, 0xbe, 0xcb, 0x40, 0x2a, 0x3e, 0x9a, 0xa9, 0xb6, 0x3c,
  0x05, 0x16, 0x65, 0x3d, 0xa2, 0x83, 0x52, 0x3e, 0x93, 0x5f, 0xd5, 0xbd,
  0xd7, 0x90, 0x94, 0xbd, 0xc0, 0x91, 0x59, 0xbe, 0x0f, 0xf8, 0x82, 0x3d,
  0xd7, 0x64, 0x09, 0x3e, 0xdc, 0x4a, 0x00, 0xbe, 0x1a, 0xa7, 0xb8, 0x3d,
  0x82, 0xf9, 0x32, 0xbe, 0xf3, 0x9e, 0xd8, 0xbc, 0x70, 0xc7, 0x05, 0x3d,
  0x95, 0xc9, 0x06, 0xbe, 0x2b, 0x24, 0xd9, 0xbd, 0x9d, 0x9a, 0x25, 0xbe,
  0xe7, 0xed, 0xd7, 0xbd, 0xa6, 0x12, 0x5d, 0xbe, 0x62, 0x39, 0x10, 0x3c,
  0x62, 0xba, 0x79, 0xbc, 0x44, 0x62, 0xd4, 0x3d, 0xa3, 0xeb, 0xa3, 0xbc,
  0x0e, 0x5f, 0xa1, 0xbd, 0xc2, 0x17, 0xa4, 0x3d, 0x25, 0x5a, 0x0f, 0x3e,
  0x19, 0xd0, 0x44, 0x3e, 0x1d, 0xf3, 0x32, 0x3e, 0xed, 0x87, 0x32, 0x3e,
  0xb0, 0x96, 0x38, 0x3c, 0xea, 0x19, 0xdb, 0x3d, 0x07, 0xb5, 0x03, 0x3e,
  0x61, 0x83, 0x82, 0xbc, 0x5a, 0x78, 0x28, 0x3d, 0xfe, 0x77, 0xaa, 0x3d,
  0xf4, 0x88, 0x5b, 0x3d, 0x4b, 0xb1, 0x3f, 0xbe, 0x7e, 0xa3, 0xb9, 0xbd,
  0x44, 0x86, 0x2c, 0x3e, 0xf0, 0xd0, 0x00, 0xbe, 0x82, 0x47, 0x29, 0xbd,
  0x4e, 0x68, 0x67, 0x3e, 0xf6, 0xd8, 0xa4, 0xbe, 0xb8, 0xf8, 0xe4, 0xbd,
  0x61, 0x65, 0xbd, 0xbd, 0x02, 0x17, 0x8b, 0x3e, 0x06, 0x57, 0x53, 0xbe,
  0xf6, 0xd7, 0xaa, 0xbc, 0xb5, 0x30, 0x32, 0xbe, 0x42, 0x33, 0x39, 0x3e,
  0xc4, 0x59, 0x32, 0xbd, 0xbc, 0xdb, 0x25, 0xbe, 0x29, 0xb7, 0x94, 0x3e,
  0xda, 0x58, 0x20, 0x3d, 0x38, 0x99, 0xfc, 0xbc, 0x9e, 0xe3, 0x41, 0x3e,
  0x30, 0x4e, 0x0e, 0xbe, 0x2e, 0x31, 0x73, 0x3e, 0x8a, 0x1c, 0xe0, 0x3d,
  0x6e, 0x4b, 0x83, 0xbe, 0x8a, 0xf5, 0x8e, 0xbe, 0x6c, 0xf9, 0x58, 0x3d,
  0xdf, 0x69, 0x96, 0xbe, 0xa4, 0xf1, 0x11, 0x3d, 0x63, 0x03, 0x13, 0x3e,
  0x1a, 0xbc, 0x1b, 0xbd, 0x7f, 0x18, 0x06, 0xbe, 0x5e, 0x84, 0xfb, 0xbd,
  0x09, 0xfa, 0x3e, 0x3e, 0x36, 0xfd, 0x37, 0xbe, 0x1c, 0x4e, 0xaf, 0x3d,
  0xc8, 0x40, 0x17, 0xbd, 0xb7, 0x5d, 0x05, 0x3e, 0x7b, 0x5b, 0x05, 0x3e,
  0x4c, 0xc2, 0x55, 0x3d, 0x6a, 0xdc, 0x5f, 0xbd, 0x84, 0x8a, 0x21, 0x3e,
  0xe5, 0x54, 0x87, 0xbe, 0x17, 0xb8, 0xb6, 0xbd, 0x74, 0xa0, 0x37, 0x3e,
  0x42, 0x63, 0xf8, 0x3d, 0xdd, 0x5f, 0x1f, 0xbc, 0x6d, 0x9f, 0x2f, 0x3e,
  0x28, 0xfb, 0x81, 0xbd, 0x1b, 0x26, 0xc8, 0xbd, 0xc7, 0x91, 0x17, 0xbc,
  0x17, 0x96, 0x00, 0x3e, 0x66, 0x71, 0x0e, 0x3e, 0xf5, 0x56, 0x45, 0x3e,
  0xae, 0xda, 0x10, 0x3e, 0x27, 0x66, 0x26, 0xbe, 0x0e, 0x3f, 0x79, 0x3d,
  0x8d, 0x92, 0x0a, 0x3d, 0x78, 0x03, 0x40, 0xbe, 0x7f, 0xae, 0x4f, 0x3d,
  0xd5, 0xe3, 0x17, 0xbc, 0x59, 0xd3, 0x61, 0x3e, 0xc1, 0x58, 0x67, 0x3e,
  0x77, 0xc5, 0xae, 0xbd, 0x31, 0xd6, 0xc7, 0x3d, 0xe0, 0x03, 0xf1, 0xbc,
  0x60, 0x8d, 0x9c, 0xbd, 0xf9, 0x27, 0x26, 0x3d, 0x6d, 0x5b, 0x27, 0xbe,
  0xe8, 0xce, 0xf0, 0xbd, 0x10, 0x46, 0x72, 0x3e, 0xaf, 0x5b, 0x63, 0x3e,
  0xab, 0x5d, 0x58, 0xbe, 0x23, 0xeb, 0xa9, 0xbd, 0x3f, 0xb7, 0x1a, 0xbe,
  0xf9, 0x18, 0xcb, 0xbd, 0xb0, 0x73, 0x1f, 0x3e, 0xca, 0xad, 0x25, 0x3e,
  0xae, 0x38, 0x86, 0xbd, 0x11, 0xc6, 0xea, 0x3d, 0x14, 0x0e, 0x51, 0xbd,
  0x42, 0xf1, 0x60, 0x3e, 0x17, 0x93, 0xa3, 0xbd, 0xd0, 0xce, 0x1e, 0xbe,
  0xbc, 0x4b, 0xcf, 0x3d, 0xd0, 0xf4, 0x03, 0xbe, 0x18, 0xb9, 0x4f, 0x3e,
  0x5c, 0x61, 0x18, 0xbe, 0x1f, 0xf6, 0x29, 0x3d, 0xb7, 0xce, 0xfb, 0x3d,
  0x81, 0xc6, 0x0f, 0x3e, 0x5f, 0x41, 0x49, 0xbe, 0x29, 0x10, 0x91, 0x3c,
  0x6e, 0xe7, 0xb9, 0x3c, 0x82, 0xb1, 0x2d, 0xbe, 0xec, 0x7e, 0x29, 0xbe,
  0x6e, 0x15, 0x0b, 0x3e, 0xeb, 0x67, 0x85, 0x3e, 0xdd, 0x2b, 0xbf, 0xbd,
  0x65, 0x86, 0x3d, 0x3e, 0x28, 0x0c, 0x07, 0xbc, 0xd9, 0x65, 0x16, 0x3e,
  0xc5, 0x29, 0x49, 0x3b, 0xaf, 0x5b, 0xfe, 0xbd, 0xd2, 0x61, 0x62, 0x3e,
  0x58, 0x9d, 0x1e, 0x3e, 0x07, 0xe4, 0x25, 0xbd, 0x5d, 0xa0, 0xfa, 0x3d,
  0xb9, 0x4c, 0xf5, 0xbd, 0x04, 0xcd, 0x90, 0x3d, 0x2e, 0x60, 0x18, 0x3e,
  0xf3, 0x6c, 0xcb, 0xbc, 0x31, 0xf2, 0x46, 0xbe, 0x36, 0x33, 0x30, 0xbe,
  0xf9, 0xc9, 0x26, 0x3e, 0xb6, 0xd9, 0x7c, 0x3e, 0x35, 0x18, 0x36, 0x3d,
  0x7e, 0x0c, 0xe5, 0x3d, 0xf7, 0x21, 0x52, 0xbc, 0x66, 0x27, 0xbb, 0xbd,
  0xa5, 0x35, 0x80, 0x3e, 0x12, 0xb3, 0x36, 0x3e, 0x44, 0x9e, 0x1f, 0x3e,
  0x89, 0x8d, 0x32, 0x3e, 0xc1, 0x40, 0x18, 0xbe, 0x78, 0x10, 0xd9, 0x36,
  0xf1, 0x9f, 0x4b, 0x3d, 0x1f, 0x1d, 0x39, 0xbe, 0xfb, 0x73, 0x07, 0x3e,
  0x25, 0xc2, 0x2d, 0x3e, 0xca, 0xc9, 0x1b, 0x3e, 0xe1, 0x2b, 0xee, 0x3d,
  0xf2, 0xb9, 0x58, 0x3e, 0x6a, 0xc4, 0x24, 0xbe, 0xc6, 0x49, 0x2c, 0xbe,
  0xab, 0x53, 0x3a, 0x3d, 0x22, 0x34, 0x5c, 0x3e, 0xc5, 0xa6, 0x12, 0xbe,
  0xb8, 0x6c, 0x28, 0xbe, 0x93, 0x61, 0x84, 0x3d, 0x64, 0xd7, 0x60, 0xbd,
  0x87, 0xc4, 0x40, 0x3d, 0x4d, 0xbe, 0x99, 0xbc, 0x20, 0xea, 0x2d, 0xbe,
  0x0a, 0xd1, 0x45, 0xbe, 0x80, 0x61, 0x55, 0xbe, 0xd7, 0x93, 0xf3, 0xbc,
  0x2e, 0x35, 0x5b, 0x3d, 0x33, 0xf1, 0x82, 0x3e, 0xe5, 0x2f, 0x5f, 0x3e,
  0x49, 0xec, 0xaf, 0xbd, 0xcd, 0x3e, 0xe6, 0xbd, 0x88, 0x90, 0x13, 0x3e,
  0x1d, 0x45, 0x19, 0xbe, 0x32, 0x36, 0x45, 0xbd, 0x01, 0xdc, 0x9f, 0x3c,
  0x7c, 0x33, 0xfa, 0xba, 0xd5, 0x82, 0x87, 0x3e, 0x44, 0x56, 0xe2, 0x3c,
  0xad, 0xcc, 0x0a, 0x3e, 0x55, 0x2b, 0xc5, 0xbd, 0x44, 0x17, 0x79, 0xbd,
  0x20, 0x5d, 0x03, 0xbe, 0x27, 0x73, 0xc5, 0xbd, 0x60, 0xb4, 0xb4, 0x3d,
  0x57, 0x2f, 0xd5, 0xbb, 0xc7, 0xbc, 0x0c, 0x3e, 0xb0, 0x36, 0x18, 0x3c,
  0xb3, 0xf1, 0xd8, 0xbd, 0xca, 0x77, 0x4b, 0x3e, 0x7b, 0xfb, 0x79, 0xbd,
  0x91, 0xad, 0x75, 0xbd, 0x9f, 0x37, 0x1d, 0x3e, 0x41, 0x37, 0x09, 0xbe,
  0x36, 0x4b, 0xad, 0xbc, 0xed, 0x68, 0x54, 0x3e, 0xfa, 0x30, 0x62, 0x3e,
  0xd1, 0x5d, 0x86, 0x3e, 0xff, 0x7e, 0xec, 0xbd, 0xac, 0x59, 0x1b, 0xbe,
  0xd2, 0x08, 0x6c, 0x3e, 0x82, 0xb6, 0x31, 0x3d, 0xf7, 0x40, 0x17, 0xbe,
  0x49, 0xd1, 0x2d, 0xbe, 0xe4, 0xdb, 0x7b, 0xbd, 0x00, 0x80, 0x8d, 0xbe,
  0x14, 0xee, 0xa6, 0xbd, 0x6b, 0x8b, 0x0f, 0xbe, 0xdd, 0xb0, 0x53, 0x3e,
  0x14, 0x72, 0xd8, 0xbd, 0x27, 0x1c, 0x06, 0x3e, 0x2e, 0x99, 0xf1, 0xbd,
  0x72, 0x1f, 0x99, 0xbd, 0xdd, 0x04, 0x34, 0xbe, 0xcb, 0x61, 0xd6, 0xbc,
  0x45, 0xac, 0xf4, 0xbc, 0xb8, 0xd1, 0x33, 0x3c, 0x2d, 0x5c, 0xb9, 0xbd,
  0x79, 0x8e, 0x04, 0xbe, 0x47, 0x8a, 0x0b, 0x3d, 0x1d, 0x33, 0x2e, 0x3c,
  0xb6, 0x47, 0xeb, 0xbd, 0x38, 0xbb, 0x36, 0x3e, 0x1e, 0x4e, 0x79, 0x3d,
  0xb9, 0x64, 0x32, 0x3d, 0xc7, 0xf0, 0x2f, 0xbe, 0x62, 0x99, 0x08, 0xbd,
  0x06, 0x46, 0x71, 0x3e, 0xbb, 0x28, 0x80, 0xbd, 0x78, 0x07, 0x16, 0xbe,
  0xab, 0xef, 0x0a, 0xbc, 0x31, 0x48, 0x0a, 0xbe, 0x7a, 0xba, 0x12, 0x3e,
  0xef, 0x79, 0x84, 0x3e, 0xe5, 0x2e, 0xa9, 0x3d, 0x08, 0xb2, 0x92, 0xbd,
  0x1f, 0xf3, 0x2c, 0x3d, 0xc8, 0xa4, 0x84, 0xbc, 0x46, 0x34, 0x86, 0x3e,
  0x17, 0xfa, 0x03, 0xbe, 0xdd, 0x89, 0x4c, 0xbe, 0x88, 0x83, 0x9f, 0x3d,
  0xcb, 0xd9, 0xc6, 0x3d, 0x1a, 0x06, 0x07, 0x3e, 0x96, 0x54, 0x0d, 0x3e,
  0x7e, 0xa1, 0x98, 0xbd, 0xc7, 0x7f, 0x05, 0x3e, 0x69, 0x25, 0xe9, 0xbb,
  0x03, 0x28, 0xc3, 0xbd, 0x2d, 0x21, 0xb8, 0x3d, 0x42, 0x0a, 0x26, 0x3e,
  0x79, 0xb9, 0x68, 0x3e, 0xd8, 0x6e, 0xae, 0xbd, 0xad, 0x26, 0x0b, 0xbb,
  0x72, 0x23, 0x44, 0xbe, 0x60, 0x0e, 0x13, 0xbe, 0xd8, 0x1a, 0x7a, 0x3e,
  0x4e, 0x47, 0x35, 0x3e, 0x15, 0x2c, 0x20, 0xbe, 0x26, 0xc8, 0x7d, 0xbe,
  0x10, 0xaa, 0x20, 0xbd, 0x37, 0x28, 0x95, 0x3d, 0x3a, 0xaf, 0xa2, 0x3e,
  0x3a, 0xb7, 0x6a, 0xbd, 0x08, 0x3b, 0xd2, 0x3b, 0x16, 0x75, 0x21, 0x3d,
  0x9b, 0x3f, 0x0e, 0x3e, 0x48, 0x70, 0x38, 0x3e, 0x50, 0xe7, 0x14, 0xbe,
  0xf2, 0xd1, 0x53, 0x3e, 0xa0, 0x31, 0x20, 0x3e, 0xeb, 0x61, 0xec, 0xbd,
  0xfb, 0x34, 0x0d, 0xbc, 0x06, 0xc5, 0xa1, 0xbd, 0x9f, 0x36, 0xe8, 0x3d,
  0x36, 0x55, 0x37, 0x3e, 0x88, 0x66, 0x38, 0xbe, 0x4c, 0x3e, 0x10, 0xbd,
  0x75, 0xce, 0x1e, 0x3d, 0x4b, 0x01, 0x07, 0x3e, 0x58, 0x2d, 0x3a, 0xbe,
  0x31, 0x7e, 0x27, 0xbe, 0xfe, 0x7b, 0xc9, 0x3c, 0xe7, 0x3d, 0x58, 0xbe,
  0x20, 0xf2, 0x1c, 0xbe, 0x43, 0x74, 0x31, 0xbc, 0x42, 0xe7, 0x2f, 0xbe,
  0xf3, 0x5d, 0x76, 0xbe, 0xa4, 0xdd, 0x10, 0xbe, 0xf7, 0x97, 0xba, 0xbc,
  0xf0, 0xab, 0x23, 0x3e, 0x83, 0xcb, 0x94, 0x3d, 0x95, 0x7d, 0x41, 0xbe,
  0x1a, 0x28, 0x11, 0xbe, 0xc2, 0xd2, 0x0a, 0x3e, 0x8f, 0x29, 0x2a, 0x3e,
  0xb3, 0x87, 0x93, 0xba, 0xdb, 0x27, 0xaf, 0x3d, 0xa6, 0xa6, 0xe6, 0x3d,
  0x2c, 0x45, 0x4e, 0x3e, 0x78, 0xee, 0x4a, 0x3e, 0x2d, 0xed, 0x6e, 0x3e,
  0x9c, 0x9a, 0x0b, 0xbd, 0xd4, 0xc8, 0x76, 0x3e, 0xc8, 0xe8, 0x54, 0x3e,
  0x8f, 0x23, 0x8d, 0x3d, 0xd4, 0x6b, 0x25, 0x3d, 0xec, 0x3e, 0xc1, 0xbd,
  0xdb, 0x52, 0x30, 0xbe, 0x50, 0xa9, 0xf0, 0xbd, 0x2d, 0x45, 0xd5, 0x3d,
  0x96, 0x9b, 0x27, 0x3e, 0xf6, 0xb9, 0x5d, 0x3e, 0xbd, 0xe9, 0x43, 0xbd,
  0xf1, 0x45, 0xbb, 0x3d, 0x9e, 0x6e, 0x15, 0x3e, 0x9b, 0x84, 0x56, 0x3e,
  0xef, 0xda, 0x46, 0x3e, 0xb3, 0x3e, 0xbc, 0x3d, 0xe1, 0xcf, 0x1e, 0x3e,
  0x8e, 0x90, 0x59, 0x3e, 0x9c, 0x66, 0xc8, 0x3c, 0x27, 0x31, 0xe0, 0x3d,
  0x4c, 0xcc, 0x4b, 0x3e, 0xdb, 0xb3, 0x93, 0x3c, 0x27, 0xfc, 0xd5, 0xbd,
  0x1d, 0xbb, 0x3b, 0xbe, 0x01, 0x70, 0x89, 0x3d, 0x5f, 0x3d, 0x2e, 0xbe,
  0xbb, 0x2f, 0x51, 0xbe, 0xb7, 0x71, 0x43, 0xbe, 0x1c, 0x8b, 0x0d, 0x3b,
  0x18, 0x40, 0x5b, 0x3d, 0xa7, 0xbc, 0x10, 0x3e, 0x77, 0xbe, 0x44, 0x3e,
  0x42, 0x21, 0xf2, 0x3d, 0x95, 0x3c, 0x74, 0xbd, 0x84, 0xfe, 0x90, 0xbe,
  0x23, 0xd8, 0xb2, 0xbd, 0x26, 0x15, 0x97, 0xbc, 0x7e, 0xb1, 0x6e, 0xbe,
  0xed, 0x34, 0x4e, 0x3e, 0x48, 0x22, 0xff, 0x3d, 0x77, 0xd9, 0x35, 0x3d,
  0xce, 0x4f, 0x63, 0x3d, 0xbe, 0x0b, 0x25, 0xbe, 0x86, 0xc3, 0x7b, 0x3d,
  0x7d, 0x96, 0x12, 0x3e, 0x5a, 0xa6, 0x39, 0xbe, 0x21, 0xfb, 0x21, 0x3e,
  0x28, 0x01, 0xfb, 0x3d, 0x2b, 0x2b, 0xb5, 0x3d, 0xce, 0xef, 0xa2, 0x3d,
  0x8f, 0x7c, 0xa0, 0x3d, 0x56, 0xf3, 0xa9, 0x3d, 0x09, 0x8c, 0x01, 0xbe,
  0xe4, 0xf9, 0x1e, 0xbe, 0x36, 0x50, 0x05, 0xbd, 0x62, 0xfe, 0xff, 0xff,
  0x04, 0x00, 0x00, 0x00, 0x90, 0x01, 0x00, 0x00, 0xf7, 0x70, 0x30, 0xbc,
  0x5c, 0x5a, 0x69, 0xbc, 0xcc, 0x9e, 0x90, 0xbc, 0x96, 0x52, 0xfb, 0x3b,
  0xa7, 0xb1, 0x84, 0x3c, 0x8c, 0x33, 0x9d, 0x3c, 0xae, 0x52, 0x07, 0x3d,
  0xe3, 0x08, 0x17, 0xbd, 0xf5, 0x38, 0xf6, 0xbc, 0x50, 0xfc, 0x30, 0x3c,
  0x02, 0x18, 0x16, 0x3d, 0x5c, 0x27, 0x32, 0x3d, 0x67, 0x2d, 0xf9, 0x3c,
  0xb2, 0x41, 0xa1, 0xba, 0x6d, 0x32, 0xea, 0x3a, 0xfb, 0xee, 0x22, 0x3b,
  0x49, 0x53, 0x36, 0x3d, 0x61, 0x5d, 0x88, 0xbc, 0x18, 0x5a, 0x98, 0xba,
  0x46, 0xa4, 0x0f, 0x3c, 0x0f, 0x06, 0x03, 0xbd, 0x8a, 0x31, 0xc9, 0xbc,
  0xc2, 0x73, 0x04, 0xbc, 0xe3, 0xbd, 0x23, 0xbb, 0x20, 0x88, 0xa6, 0xbc,
  0x1d, 0x83, 0x60, 0xbc, 0x56, 0xda, 0x42, 0x3d, 0x99, 0x72, 0xd4, 0xbc,
  0x97, 0x26, 0x24, 0x3d, 0xe6, 0xf7, 0x77, 0xbc, 0x89, 0x70, 0x0c, 0x3a,
  0x25, 0x4d, 0x4b, 0x3b, 0x6b, 0x86, 0xd1, 0xbc, 0x1f, 0xa1, 0x26, 0x3d,
  0xe3, 0x8d, 0x28, 0x3d, 0x2d, 0xb6, 0xae, 0x3c, 0xf5, 0xea, 0x73, 0x3c,
  0xc0, 0x33, 0xb4, 0xbc, 0xbb, 0x35, 0x3c, 0x3d, 0x1c, 0x24, 0xf4, 0xbc,
  0xb0, 0x5b, 0x4f, 0x3c, 0xbd, 0xce, 0x0e, 0x3c, 0x0e, 0xd8, 0xbc, 0x3c,
  0x3d, 0x50, 0x68, 0xbc, 0xca, 0x97, 0x90, 0x3c, 0x5c, 0x2a, 0x4f, 0xbc,
  0x97, 0x9a, 0x92, 0x3c, 0x31, 0x35, 0x54, 0xbc, 0xd2, 0x3b, 0xd3, 0x3b,
  0x42, 0x03, 0x36, 0x3d, 0xa2, 0xf3, 0x45, 0x3c, 0xe0, 0xd4, 0xb3, 0x3c,
  0x9d, 0x7a, 0x1e, 0x3b, 0xfc, 0x4f, 0x30, 0x3c, 0x98, 0xd1, 0x31, 0x3d,
  0xa9, 0x2c, 0x9a, 0x3b, 0xc5, 0x39, 0x01, 0x3a, 0x19, 0x87, 0x2a, 0x3d,
  0xb5, 0x6b, 0x69, 0xbb, 0x54, 0x87, 0xfb, 0x3c, 0x7b, 0x92, 0xee, 0xbc,
  0xc0, 0x73, 0x13, 0xbd, 0x83, 0xf8, 0x40, 0x3c, 0x46, 0x92, 0xba, 0x3c,
  0xb7, 0xe9, 0x42, 0x3d, 0x0d, 0xc9, 0x04, 0x3b, 0x4a, 0xe8, 0x85, 0xbc,
  0x1a, 0xbe, 0xf6, 0x3a, 0x66, 0xc8, 0x2c, 0x3d, 0x6e, 0x49, 0xdc, 0xbc,
  0xf5, 0x50, 0xc1, 0xbb, 0x11, 0x2e, 0x0e, 0xbc, 0x33, 0xfa, 0x5f, 0xbc,
  0x8d, 0xf8, 0xce, 0x3c, 0x91, 0x02, 0x40, 0xbd, 0x8c, 0xcc, 0x9d, 0x3c,
  0xdb, 0x0d, 0xac, 0x3c, 0xf4, 0xd1, 0x3b, 0x3c, 0xde, 0xf4, 0xbd, 0x3b,
  0x1d, 0x87, 0xb6, 0x3c, 0xe3, 0x5b, 0x8c, 0x3c, 0xaa, 0x24, 0x9a, 0x3c,
  0xad, 0xff, 0x84, 0x3c, 0x2b, 0xbc, 0xe1, 0x3b, 0x94, 0x4c, 0x18, 0xbd,
  0x05, 0x4e, 0x4f, 0xbc, 0xaf, 0x88, 0x24, 0x3d, 0x9a, 0x7d, 0x1c, 0xbd,
  0x68, 0x1c, 0xd6, 0x3b, 0x08, 0xe2, 0x68, 0x3b, 0x3f, 0x2e, 0x06, 0x3d,
  0x26, 0x0b, 0xf0, 0x3a, 0x27, 0xaa, 0xb9, 0xb9, 0x16, 0xe4, 0xb6, 0xbc,
  0xf0, 0xb5, 0xad, 0x3c, 0x3a, 0xbe, 0x72, 0x3c, 0x76, 0x48, 0x3e, 0xbc,
  0xd6, 0x72, 0xf5, 0x3c, 0x5b, 0xd3, 0x90, 0x3c, 0x7f, 0x70, 0x16, 0xbd,
  0x00, 0x00, 0x06, 0x00, 0x08, 0x00, 0x04, 0x00, 0x06, 0x00, 0x00, 0x00,
  0x04, 0x00, 0x00, 0x00, 0x04, 0x00, 0x00, 0x00, 0xae, 0x9d, 0x48, 0x3c,
  0xa0, 0xfc, 0xff, 0xff, 0xa4, 0xfc, 0xff, 0xff, 0x0f, 0x00, 0x00, 0x00,
  0x4d, 0x4c, 0x49, 0x52, 0x20, 0x43, 0x6f, 0x6e, 0x76, 0x65, 0x72, 0x74,
  0x65, 0x64, 0x2e, 0x00, 0x01, 0x00, 0x00, 0x00, 0x14, 0x00, 0x00, 0x00,
  0x00, 0x00, 0x0e, 0x00, 0x18, 0x00, 0x14, 0x00, 0x10, 0x00, 0x0c, 0x00,
  0x08, 0x00, 0x04, 0x00, 0x0e, 0x00, 0x00, 0x00, 0x14, 0x00, 0x00, 0x00,
  0x1c, 0x00, 0x00, 0x00, 0xa0, 0x00, 0x00, 0x00, 0xa4, 0x00, 0x00, 0x00,
  0xa8, 0x00, 0x00, 0x00, 0x04, 0x00, 0x00, 0x00, 0x6d, 0x61, 0x69, 0x6e,
  0x00, 0x00, 0x00, 0x00, 0x02, 0x00, 0x00, 0x00, 0x48, 0x00, 0x00, 0x00,
  0x04, 0x00, 0x00, 0x00, 0xce, 0xff, 0xff, 0xff, 0x10, 0x00, 0x00, 0x00,
  0x00, 0x00, 0x00, 0x08, 0x0c, 0x00, 0x00, 0x00, 0x10, 0x00, 0x00, 0x00,
  0x18, 0xfd, 0xff, 0xff, 0x01, 0x00, 0x00, 0x00, 0x06, 0x00, 0x00, 0x00,
  0x03, 0x00, 0x00, 0x00, 0x05, 0x00, 0x00, 0x00, 0x04, 0x00, 0x00, 0x00,
  0x01, 0x00, 0x00, 0x00, 0x00, 0x00, 0x0e, 0x00, 0x16, 0x00, 0x00, 0x00,
  0x10, 0x00, 0x0c, 0x00, 0x0b, 0x00, 0x04, 0x00, 0x0e, 0x00, 0x00, 0x00,
  0x18, 0x00, 0x00, 0x00, 0x00, 0x00, 0x00, 0x08, 0x18, 0x00, 0x00, 0x00,
  0x1c, 0x00, 0x00, 0x00, 0x00, 0x00, 0x06, 0x00, 0x08, 0x00, 0x07, 0x00,
  0x06, 0x00, 0x00, 0x00, 0x00, 0x00, 0x00, 0x01, 0x01, 0x00, 0x00, 0x00,
  0x05, 0x00, 0x00, 0x00, 0x03, 0x00, 0x00, 0x00, 0x00, 0x00, 0x00, 0x00,
  0x03, 0x00, 0x00, 0x00, 0x02, 0x00, 0x00, 0x00, 0x01, 0x00, 0x00, 0x00,
  0x06, 0x00, 0x00, 0x00, 0x01, 0x00, 0x00, 0x00, 0x00, 0x00, 0x00, 0x00,
  0x07, 0x00, 0x00, 0x00, 0x48, 0x02, 0x00, 0x00, 0xe0, 0x01, 0x00, 0x00,
  0x7c, 0x01, 0x00, 0x00, 0x34, 0x01, 0x00, 0x00, 0xec, 0x00, 0x00, 0x00,
  0x5c, 0x00, 0x00, 0x00, 0x04, 0x00, 0x00, 0x00, 0xe8, 0xfd, 0xff, 0xff,
  0x14, 0x00, 0x00, 0x00, 0x1c, 0x00, 0x00, 0x00, 0x1c, 0x00, 0x00, 0x00,
  0x07, 0x00, 0x00, 0x00, 0x34, 0x00, 0x00, 0x00, 0x02, 0x00, 0x00, 0x00,
  0xff, 0xff, 0xff, 0xff, 0x01, 0x00, 0x00, 0x00, 0xd4, 0xfd, 0xff, 0xff,
  0x19, 0x00, 0x00, 0x00, 0x53, 0x74, 0x61, 0x74, 0x65, 0x66, 0x75, 0x6c,
  0x50, 0x61, 0x72, 0x74, 0x69, 0x74, 0x69, 0x6f, 0x6e, 0x65, 0x64, 0x43,
  0x61, 0x6c, 0x6c, 0x3a, 0x30, 0x00, 0x00, 0x00, 0x02, 0x00, 0x00, 0x00,
  0x01, 0x00, 0x00, 0x00, 0x01, 0x00, 0x00, 0x00, 0x3c, 0xfe, 0xff, 0xff,
  0x14, 0x00, 0x00, 0x00, 0x1c, 0x00, 0x00, 0x00, 0x1c, 0x00, 0x00, 0x00,
  0x06, 0x00, 0x00, 0x00, 0x6c, 0x00, 0x00, 0x00, 0x02, 0x00, 0x00, 0x00,
  0xff, 0xff, 0xff, 0xff, 0x64, 0x00, 0x00, 0x00, 0x28, 0xfe, 0xff, 0xff,
  0x52, 0x00, 0x00, 0x00, 0x73, 0x65, 0x71, 0x75, 0x65, 0x6e, 0x74, 0x69,
  0x61, 0x6c, 0x5f, 0x36, 0x2f, 0x64, 0x65, 0x6e, 0x73, 0x65, 0x5f, 0x38,
  0x2f, 0x4d, 0x61, 0x74, 0x4d, 0x75, 0x6c, 0x3b, 0x73, 0x65, 0x71, 0x75,
  0x65, 0x6e, 0x74, 0x69, 0x61, 0x6c, 0x5f, 0x36, 0x2f, 0x64, 0x65, 0x6e,
  0x73, 0x65, 0x5f, 0x38, 0x2f, 0x52, 0x65, 0x6c, 0x75, 0x3b, 0x73, 0x65,
  0x71, 0x75, 0x65, 0x6e, 0x74, 0x69, 0x61, 0x6c, 0x5f, 0x36, 0x2f, 0x64,
  0x65, 0x6e, 0x73, 0x65, 0x5f, 0x38, 0x2f, 0x42, 0x69, 0x61, 0x73, 0x41,
  0x64, 0x64, 0x00, 0x00, 0x02, 0x00, 0x00, 0x00, 0x01, 0x00, 0x00, 0x00,
  0x64, 0x00, 0x00, 0x00, 0x26, 0xff, 0xff, 0xff, 0x10, 0x00, 0x00, 0x00,
  0x10, 0x00, 0x00, 0x00, 0x05, 0x00, 0x00, 0x00, 0x28, 0x00, 0x00, 0x00,
  0xa4, 0xfe, 0xff, 0xff, 0x1b, 0x00, 0x00, 0x00, 0x73, 0x65, 0x71, 0x75,
  0x65, 0x6e, 0x74, 0x69, 0x61, 0x6c, 0x5f, 0x36, 0x2f, 0x64, 0x65, 0x6e,
  0x73, 0x65, 0x5f, 0x39, 0x2f, 0x4d, 0x61, 0x74, 0x4d, 0x75, 0x6c, 0x00,
  0x02, 0x00, 0x00, 0x00, 0x01, 0x00, 0x00, 0x00, 0x64, 0x00, 0x00, 0x00,
  0x6a, 0xff, 0xff, 0xff, 0x10, 0x00, 0x00, 0x00, 0x10, 0x00, 0x00, 0x00,
  0x04, 0x00, 0x00, 0x00, 0x28, 0x00, 0x00, 0x00, 0xe8, 0xfe, 0xff, 0xff,
  0x1b, 0x00, 0x00, 0x00, 0x73, 0x65, 0x71, 0x75, 0x65, 0x6e, 0x74, 0x69,
  0x61, 0x6c, 0x5f, 0x36, 0x2f, 0x64, 0x65, 0x6e, 0x73, 0x65, 0x5f, 0x38,
  0x2f, 0x4d, 0x61, 0x74, 0x4d, 0x75, 0x6c, 0x00, 0x02, 0x00, 0x00, 0x00,
  0x64, 0x00, 0x00, 0x00, 0x05, 0x00, 0x00, 0x00, 0xae, 0xff, 0xff, 0xff,
  0x10, 0x00, 0x00, 0x00, 0x10, 0x00, 0x00, 0x00, 0x03, 0x00, 0x00, 0x00,
  0x38, 0x00, 0x00, 0x00, 0x2c, 0xff, 0xff, 0xff, 0x2b, 0x00, 0x00, 0x00,
  0x73, 0x65, 0x71, 0x75, 0x65, 0x6e, 0x74, 0x69, 0x61, 0x6c, 0x5f, 0x36,
  0x2f, 0x64, 0x65, 0x6e, 0x73, 0x65, 0x5f, 0x38, 0x2f, 0x42, 0x69, 0x61,
  0x73, 0x41, 0x64, 0x64, 0x2f, 0x52, 0x65, 0x61, 0x64, 0x56, 0x61, 0x72,
  0x69, 0x61, 0x62, 0x6c, 0x65, 0x4f, 0x70, 0x00, 0x01, 0x00, 0x00, 0x00,
  0x64, 0x00, 0x00, 0x00, 0x00, 0x00, 0x0e, 0x00, 0x14, 0x00, 0x10, 0x00,
  0x00, 0x00, 0x0c, 0x00, 0x08, 0x00, 0x04, 0x00, 0x0e, 0x00, 0x00, 0x00,
  0x10, 0x00, 0x00, 0x00, 0x10, 0x00, 0x00, 0x00, 0x02, 0x00, 0x00, 0x00,
  0x38, 0x00, 0x00, 0x00, 0x8c, 0xff, 0xff, 0xff, 0x2b, 0x00, 0x00, 0x00,
  0x73, 0x65, 0x71, 0x75, 0x65, 0x6e, 0x74, 0x69, 0x61, 0x6c, 0x5f, 0x36,
  0x2f, 0x64, 0x65, 0x6e, 0x73, 0x65, 0x5f, 0x39, 0x2f, 0x42, 0x69, 0x61,
  0x73, 0x41, 0x64, 0x64, 0x2f, 0x52, 0x65, 0x61, 0x64, 0x56, 0x61, 0x72,
  0x69, 0x61, 0x62, 0x6c, 0x65, 0x4f, 0x70, 0x00, 0x01, 0x00, 0x00, 0x00,
  0x01, 0x00, 0x00, 0x00, 0x14, 0x00, 0x18, 0x00, 0x14, 0x00, 0x00, 0x00,
  0x10, 0x00, 0x0c, 0x00, 0x08, 0x00, 0x00, 0x00, 0x00, 0x00, 0x04, 0x00,
  0x14, 0x00, 0x00, 0x00, 0x14, 0x00, 0x00, 0x00, 0x20, 0x00, 0x00, 0x00,
  0x20, 0x00, 0x00, 0x00, 0x01, 0x00, 0x00, 0x00, 0x3c, 0x00, 0x00, 0x00,
  0x02, 0x00, 0x00, 0x00, 0xff, 0xff, 0xff, 0xff, 0x05, 0x00, 0x00, 0x00,
  0x04, 0x00, 0x04, 0x00, 0x04, 0x00, 0x00, 0x00, 0x1f, 0x00, 0x00, 0x00,
  0x73, 0x65, 0x72, 0x76, 0x69, 0x6e, 0x67, 0x5f, 0x64, 0x65, 0x66, 0x61,
  0x75, 0x6c, 0x74, 0x5f, 0x64, 0x65, 0x6e, 0x73, 0x65, 0x5f, 0x38, 0x5f,
  0x69, 0x6e, 0x70, 0x75, 0x74, 0x3a, 0x30, 0x00, 0x02, 0x00, 0x00, 0x00,
  0x01, 0x00, 0x00, 0x00, 0x05, 0x00, 0x00, 0x00, 0x01, 0x00, 0x00, 0x00,
  0x10, 0x00, 0x00, 0x00, 0x0c, 0x00, 0x0c, 0x00, 0x0b, 0x00, 0x00, 0x00,
  0x00, 0x00, 0x04, 0x00, 0x0c, 0x00, 0x00, 0x00, 0x09, 0x00, 0x00, 0x00,
  0x00, 0x00, 0x00, 0x09
};
unsigned int lstm_model2_4_0r_tflite_len = 4276;
